#version: 0.2
क े</w>
म े
ब ा
मे ं</w>
् र
ा र
स े</w>
ल ा</w>
ल ा
न ा</w>
क ा</w>
ज ा
स ्
र ा
म ा
व ा
ि य
स ा
क ा
र ्
क र
र ह
् य
द े
ल े</w>
क ्
ह ा
े ।</w>
प ्र
ह ि
न ा
र ी</w>
इ ल</w>
क ि</w>
ह ो
स ं
प ा
ल ि
प ु
ल े
ल ो
त ्
व ि
द ि
क ु
ग ो</w>
ड ़
न ी</w>
त ि
ब ि
म ि
त ा</w>
ब ा</w>
न ्
प र</w>
न ि
बा ।</w>
ख ा
स ि
र ा</w>
क ि
क ी</w>
िय ा</w>
भ ा
क र</w>
त ा
म ु
ला ।</w>
ग ा
ज ि
ल ी</w>
ज न
ए ह</w>
ए गो</w>
व े</w>
ो ज
ल ।</w>
भ ार
क ह
र ि
च ा
द ्
लो ग</w>
बा ट
न े</w>
ल ्
स ु
क े
द ी</w>
ह ो</w>
न े
त ि</w>
भ ोज
ं ग
भोज पु
ं ।</w>
हो ख
ग इल</w>
स म
अ प
् य</w>
रा ज
र ू
ल ी
कर े</w>
क् ष
द ा
ह ु
द ु
ब े
ह र</w>
फ ि
भोजपु री</w>
वा ला</w>
ए क</w>
त ्र
्य ा
क ार
बाट े।</w>
भार त</w>
का र</w>
कर ा</w>
न ी
न ु
ग इ
ह म
ह ी</w>
प ू
श ा
त ी
व े
जि ला</w>
खा ति
व ल</w>
य ा
य ा</w>
र े
व न</w>
र ो
स न</w>
खाति र</w>
दे श</w>
ज ा</w>
ी ं</w>
भ ी</w>
त ी</w>
दि ह
्य ा</w>
त र
न ो</w>
ध ा
बा द</w>
ज ी</w>
क इ
अप ना</w>
न ल</w>
ज े
क व
म ी
म ो
् ट
ल न</w>
कु छ</w>
स् थ
िय ा
प र
ल ग
त े</w>
ग ो
श ्
स र
ज ी
क ो
स भ</w>
ं ड
रू प</w>
आ प
प हि
म ा</w>
स ा</w>
2 0
ं ग</w>
ह े</w>
सं ख
ला ग
त र</w>
स े
संख ्या</w>
भा ष
व ा</w>
ए कर</w>
ि त</w>
र ु
जा ला।</w>
स ी
ार ी</w>
भ ा</w>
स ो
द ी
्र े
म ्
र े</w>
म ी</w>
स ी</w>
स् ट
कु ल</w>
अ इ
सा ल</w>
ज े</w>
च ु
रह ल</w>
न ो
ार ्
त् र</w>
ब हु
उ त्
व र्
ब ी
ह े
च ि
ब र</w>
दे ख
ब ्
जन संख्या</w>
श हर</w>
बा ड़
ब ो
म ं
फि लि
हा र</w>
न इ
ग ु
क इल</w>
भ इल</w>
कव नो</w>
आप न</w>
गइ ल।</w>
ं द
ख ि
कि र</w>
राज ्य</w>
होख े</w>
नइ ख
श न</w>
मा न</w>
अ ब</w>
अ ध
भाष ा</w>
र ी
ल े।</w>
म ह
रह े</w>
ब ु
मु ख
इ ला
ँ व</w>
बा किर</w>
ह न</w>
20 1
श ि
बा त</w>
स भ
ार ा</w>
फिलि म</w>
उ न
ह म</w>
ले ं।</w>
न ।</w>
ज ु
द ू
उ प
ग ी
ज ो
ट ि
ड ़</w>
च ल
िय न</w>
ग ि
्र ा
च ्
1 9
अ नु
क ृ
व े।</w>
ग र</w>
त े
हा ँ</w>
कह ल</w>
मा र</w>
ढ ़
सि ं
ी ।</w>
म ौ
फ े
ठ ो</w>
ज ब</w>
ल य</w>
ट ी</w>
ह ीं</w>
लि ह
ष ्ट
अ उ
प ्
ज ्
व ी</w>
ह र
व ना</w>
ओ करा</w>
मि ल
म न</w>
पु र</w>
ब ना
प ि
का म</w>
प रि
ग ण
जा ला</w>
छ ो
दि न</w>
क ल</w>
भ इ
रह े।</w>
व त</w>
ले ं</w>
श ु
इला का</w>
च ी
अइ सन</w>
ती य</w>
म े</w>
प ी
ब ं
क ्र
द ा</w>
मि ल</w>
भ ू
ट ा
द ो
सम य</w>
मा न
ओ ह</w>
प्र देश</w>
ल ,</w>
स ू
ब न
भार तीय</w>
ड़ ा</w>
ं ,</w>
इ न
ख े
त ना</w>
क ई</w>
औ र</w>
न िया</w>
नि र्
ए करा</w>
ा न</w>
ज ू
प े
ज ग
ज वन</w>
क् ट
म हा
त्र ी</w>
ड ा
अ ं
बि हार</w>
द ू</w>
ज न</w>
लो ग
ज इ
्र ी
ह ा</w>
द् र</w>
उत् तर</w>
बहु त</w>
बाट े</w>
गण ना</w>
आ ज
क्ष े
ई ।</w>
ला ,</w>
ब े</w>
स मा
म ै
ना ँव</w>
ट ी
जन गणना</w>
ए ही</w>
क ो</w>
ट े
सर कार</w>
ह वे।</w>
वा र</w>
दिह ल</w>
सिं ह</w>
ट ा</w>
स् ता
वा ली</w>
हो ला</w>
आ द
य ू
बा ड़
नइख े</w>
अध ि
ड ि
ख ु
य ो
पहि ले</w>
त ब</w>
ं ड</w>
त् व</w>
ष ्
हि न्
न दी</w>
च ा</w>
स ब
लि ख
म ू
ब र
भ ि
्या लय</w>
हि सा
न िय
प ा</w>
हम रा</w>
हिसा ब</w>
कर त</w>
सा थ
प्र ा
ह ू</w>
स र</w>
हि स्
द् व
हो ला।</w>
ल स
तर ह</w>
सम ्
पू रा</w>
न ,</w>
चा र</w>
ह ै
ज् ञ
आज ु</w>
ख ा</w>
ह वे</w>
पा ल</w>
जा त</w>
सा हि
ग ्र
द र्
ब द
स क
सा र</w>
ज वना</w>
प ो
ना म</w>
रह े
ह ी
कर े
ब ै
क ै
र िया</w>
दे श
ब ो</w>
त ु
च ल</w>
हिस् सा</w>
ं प
र ू</w>
हम नी</w>
ार ा
सभ से</w>
रा ष्ट
इ स्
ह री</w>
सा थ</w>
हि ं
नो ं</w>
ग र
्य ू
ड े
नि क</w>
व ी
मं त्री</w>
अ ल
च् छ
द् ध</w>
इ ं
आ इल</w>
लाग ल</w>
अ ंग
201 1</w>
ह ै</w>
ब ू
कार ी</w>
सं स्
त क</w>
भ ी
त् य</w>
दु निया</w>
स ब</w>
द्व ारा</w>
फि ल्
वि श्
ब ता
ध ा</w>
ब न</w>
ट र</w>
ह ।</w>
ड़ ी</w>
च े</w>
क्षे त्र</w>
जा न
ख बर</w>
स्थ ा
स के
प्र े
ि क</w>
ना व</w>
ब नल</w>
हे ं</w>
क हा
त ो
म त
उ नु
र त</w>
मा ल</w>
क ौ
ग े</w>
रह ल।</w>
प ट
वा न</w>
ल न।</w>
बा ,</w>
पू र्
स रा</w>
क्ष ा</w>
ओ र</w>
्रे स</w>
प ड़
द े</w>
ठ ा
आ ँ
ण ्
ली ।</w>
र उ
प र्
ति क</w>
क न</w>
ब त
श ब्
ौ र</w>
रह ु
भइ ल।</w>
ग ी</w>
मि ला</w>
लोग न</w>
ब ी</w>
च ार
रा जन
प ी</w>
त न</w>
द र</w>
अउ र</w>
ह ू
फ ा
ल ु
इ न</w>
अनु सार</w>
अ व
बी च</w>
के हू</w>
का हे</w>
ल गा
ज रू
क ल
क म</w>
पा नी</w>
न या</w>
श हरी</w>
अ ब
चु नाव</w>
ओ कर</w>
बे र</w>
अल ग</w>
क र्
थ ा</w>
ग री</w>
ध न</w>
भ र</w>
अ न्
स मु
व र</w>
र ख
साथ े</w>
समा ज</w>
ध ी</w>
गी त</w>
बा नी</w>
ने पाल</w>
ट ल</w>
हिं दी</w>
झ ा
वा ँ</w>
त्र ि
प ं
ब ढ़
च े
जू द</w>
घ र</w>
ल त</w>
पा लि
आद मी</w>
दा र</w>
क् ष</w>
घ ा
ए करे</w>
प ार
फ ो
श े
राजन ी
मुख ्य</w>
सि ने
लिह ल</w>
दे स</w>
ँ च</w>
संस् कृ
क ू
िय ो</w>
म त</w>
जा ई।</w>
व ले</w>
र ह</w>
ढ े
कइ ले</w>
त ं
ह ु</w>
सा म
मो दी</w>
दि ल्
ंग ा</w>
मा नल</w>
आ वे</w>
ब ्र
प ै
अउ री</w>
साहि त्य</w>
म ार
क ी
वि द
्री य</w>
भ े
क रा
पा स</w>
ं ट</w>
र च
द क्
न् द्र</w>
न व
पु र
क बो</w>
ए क्
ट ्
व ्य
प ति</w>
श ो
मे ं,</w>
स के</w>
दक् खि
बहु ते</w>
श ा</w>
गा ं
रा म
स् ट</w>
व री</w>
म नो
य ु
ने ता</w>
य क</w>
गा ँ
बाड़ े
ब ड़
फिल् म</w>
नी ।</w>
ध र्
ह त</w>
लो क
ह मार</w>
ं गा
वि धा
ब इ
इस् ते
मिल ल</w>
र् थ
सिने मा</w>
ति हा
लग भ
प्र का
गा ँव</w>
लगभ ग</w>
रा न</w>
इस्ते माल</w>
ल ै
अ गर</w>
अध ्य
बना वल</w>
ग ा</w>
स गरी</w>
य े</w>
जि न
शब् द</w>
बा की</w>
म ध
श ्र
ह ल</w>
मु ख</w>
अ मे
भ र
त ्य
हा ला
मुख ्यालय</w>
भा व</w>
दिल् ली</w>
दा न</w>
्ट ी</w>
पालि का</w>
सा ं
जा ए</w>
जा य</w>
घ ो
स ह
ती न</w>
उन कर</w>
का ल</w>
ए क
रा ख
दि ने</w>
रा ज</w>
जग ह</w>
कर ी</w>
ज ब
ं त</w>
फ र
वर् ग</w>
ख ो
कु मार</w>
रह लें।</w>
शा मिल</w>
य न</w>
इन के</w>
चल ते</w>
द न</w>
छ ा
च ो
ब ड़
प्र ति
ग ै
श ी
ल सि
दी प</w>
इ हाँ</w>
म ार्
जइ से</w>
ट ो
आ स
बा रे</w>
क ंप
अमे रि
पहि ला</w>
प्र मुख</w>
ह रा</w>
त ।</w>
का स</w>
ढे र</w>
ढ ़</w>
म र
स द</w>
भा ज
निर् मा
थ ा
ल इ
अंग रे
व र
वा द</w>
चु कल</w>
अ भि
स्थ ा</w>
म ंड
जा नल</w>
कर ी
जा ई</w>
ध ार
च ौ
ए ह
परि वार</w>
उन का</w>
अ र
आ ज</w>
सा इ
उनु का</w>
रा त</w>
ं स</w>
यो ग</w>
त ो</w>
ा ई</w>
स भा</w>
ल उ
ब ढ़
ट का</w>
झ ा</w>
क त</w>
आ इ
त ,</w>
जा र</w>
च र
कौ नों</w>
क ड़ा</w>
इ हे</w>
लग े</w>
सब से</w>
बना वे</w>
अप ने</w>
विश् व
ल ब</w>
भाज पा</w>
टि ंग</w>
20 0
स् व
का ंग
भ ु
पि छ
अ न
प ना</w>
गो ल</w>
ं द</w>
ी ,</w>
ला ल</w>
क े।</w>
स्ता न</w>
बो ल
ता बि
ार े</w>
हु ँ
स र्
ब िया
इ तिहा
ले ख
लसि ।</w>
लस ि</w>
वा ल</w>
ज हाँ</w>
मौ जूद</w>
कार न</w>
मा ई</w>
फे र</w>
प ड़
ण ी</w>
ं द्र</w>
प च्छ
तर ी
ह वे
क ला
ट ्र
पच्छ ि
र ,</w>
धा र</w>
द ि</w>
व ै
र ता</w>
स ल</w>
रउ रा</w>
शु रू</w>
ज्ञ ान</w>
ब ना</w>
ताबि क</w>
क् ति</w>
िय ो
बइ ठ
ग ंगा</w>
कार ण</w>
मा ने</w>
फ ्
आस पास</w>
होख े
दे व
भ ग
न गर</w>
जे करा</w>
बा बा</w>
त ्या
राष्ट ्र
र क
ज्ञ ा
प्र ो
1 8
ट र
जा व
स्थ ान</w>
ड िया</w>
उ ठ
ली ं</w>
ड ी
ग ्
ऽ ।</w>
ब र्
मि ले</w>
ल ू
श ी</w>
ता र</w>
जइ सन</w>
स् त
सा क्ष
भा ई</w>
प ृ
द ्र
ब स</w>
म ज
नइख े।</w>
जा ति</w>
स ।</w>
ल ू</w>
ध ु
खा ती</w>
स् त</w>
द र
घ ु
न ू</w>
कि न</w>
निय र</w>
दे बे</w>
य र</w>
मो ताबिक</w>
पा त</w>
च न</w>
हि ंद
या द
न ्या
वर् त
बा र</w>
1 0
लिख ल</w>
घ न
जा व</w>
इ ंड
र ं
बा ँ
सु न
प न</w>
ज ल</w>
ध ी
फ ू
फ ल</w>
म न
हिन् दी</w>
भ ो
मं दि
कार ्य
हि जा</w>
अ ला
ले ,</w>
मत लब</w>
खा स</w>
आँ कड़ा</w>
ई ल</w>
प ढ़
ठ ी</w>
जि क</w>
उ र</w>
च ी</w>
ई ं</w>
ंग ल</w>
मह ी
पृ थ
ध र
रक बा</w>
स ँ
व ो
ना थ</w>
रच ना</w>
देख े</w>
ज य</w>
जा न</w>
आ म</w>
स ,</w>
प ढ़
क म
ज ल
रु आ
फ ़
चा हे</w>
जा य
खा ली</w>
रा म</w>
ठ ी
ची न</w>
क िया</w>
ल ो</w>
र ो</w>
ज मी
आ गे</w>
ब ू</w>
ट टका</w>
मंड ल</w>
दिह ले</w>
ख ू
ज र</w>
व ार
धर् म</w>
ध ि</w>
कह लन</w>
ले किन</w>
प्र धा
छो ट</w>
साक्ष रता</w>
ल ड़
धा नी</w>
भा ग</w>
ए श
स् वा
सभ े</w>
क ॉ
र ु</w>
ऐ क्ट
पिछ ला</w>
फ ै
घन त्व</w>
म ना
हिंद ू</w>
पृथ ्
जब कि</w>
क वि
वर्त मान</w>
खि ला
कर ण</w>
लि त</w>
प ता</w>
दक्खि न</w>
ऐक्ट ्रेस</w>
होख े।</w>
लग ा</w>
गी त
प त्
अ तना</w>
ली ज</w>
क्ट र</w>
कांग ्रेस</w>
ह ,</w>
कंप नी</w>
दे खा
त म</w>
) ,</w>
ट न</w>
दो सरा</w>
विद ्यालय</w>
राज धानी</w>
क् त</w>
का ल्
ध ि
ची ज</w>
बाड़ ी।</w>
तरी का</w>
0 0</w>
व ीं</w>
बा ति</w>
उन के</w>
लो क</w>
मे हर
ब ॉ
त री</w>
अ ग
मी टर</w>
पा कि
ंद ्र
राजनी ति</w>
फ ु
घ ट
ं क</w>
ल िया</w>
राज ा</w>
व ारी</w>
रह ी</w>
बता वल</w>
ब न्
त ार
ड़ ी</w>
सा न</w>
ल ं
ड़ ा</w>
ब त</w>
अंगरे जी</w>
मंदि र</w>
प्र शा
ज ़
लि ंगा
लिंगा नु
मी डिया</w>
ण ा</w>
क्र म</w>
कहा नी</w>
लिंगानु पात</w>
ल ॉ
पृथ् वी</w>
मेहर ार
अ ँ
मही ना</w>
कइ से</w>
कह ीं</w>
सं ग
स न
बं गा
ओ ही</w>
राष्ट ्रीय</w>
स ार
ल स</w>
रि लीज</w>
जान कारी</w>
लस ।</w>
न ू
ए के</w>
ट े</w>
जन म</w>
हा ल</w>
र ंग</w>
पा र</w>
च ै
य र
छ ि
पा वल</w>
स्थ ित</w>
आ वा
अमेरि का</w>
बि ना</w>
्य ो
वि कास</w>
ण ा
चि र
् र</w>
ह ि</w>
बाड़े ं।</w>
कव ि</w>
हा थ</w>
प त्रि
देख ल</w>
य ोज
पट ना</w>
नी चे</w>
जा ला,</w>
व पालिका</w>
त ू
क ,</w>
बाड़ ी</w>
पहि ल
स्ट े
संस्कृ ति</w>
बड़ हन</w>
ब ड़</w>
इ न्
रहु वे</w>
र न</w>
त्र ा</w>
झ ार
उ द
हाला ँ
गु ज
ड़ ल</w>
चा हत</w>
ग त</w>
के ,</w>
सी मा</w>
सो च
ल ल</w>
ख ंड</w>
क् स</w>
रह ी
ज मा
ग े
॰ मी
याद व</w>
कि ॰मी
लि स</w>
ग ं
ट ो</w>
ट क</w>
ज य
छ प
न मंत्री</w>
चा ही
कि॰मी ॰</w>
ना ,</w>
से वा</w>
पार ्टी</w>
जे ह</w>
उप शहरी</w>
हि मा
ला ई</w>
त ब
ड ी</w>
झ ी
ज ै
ह ्
स ै
न -
बा न
सु र
मह ारा
पर् या
न गर
ज वा
स्ट ा
आ जा
बा द
हे ं।</w>
दे त</w>
ठी क</w>
जाव ।</w>
रो प</w>
प हा
सा मा
बा नी।</w>
द ौ
जन ता</w>
आ खि
है ं</w>
सा गर</w>
लोग ।</w>
रि स</w>
चल त</w>
कृ तिक</w>
का हें</w>
इ या
िय े</w>
ब िया</w>
प् त</w>
सा द</w>
स द
ली ं।</w>
जी त</w>
व ु
राज ्य
फर वरी</w>
ठ ा</w>
छ े</w>
ह ार
मू ल</w>
थ ी</w>
त -
जी वन</w>
को शि
इतिहा स</w>
ग ्रा
होख त</w>
बा कि</w>
आ धार</w>
स दी</w>
नि कल
अ र्
खे ल</w>
निर् देश
अधि का</w>
रु प
रा नी</w>
सं बं
सके ला</w>
विश्व विद्यालय</w>
मौ का</w>
ग ल</w>
इ हो</w>
ब ने</w>
दू र</w>
क्षे त्र
कह ले</w>
कह े</w>
च ला
ह ँ
साहि त्य
खिला फ</w>
मुख ्य
मह त्व</w>
जमी न</w>
ई ,</w>
ि का</w>
व ्या
मनो ज</w>
गि र
कार ्
मु ं
ड ा</w>
ल व
रह लें</w>
आ वत</w>
अ ने
ं च</w>
पु रान</w>
पत्रि का</w>
अ शो
है ।</w>
क था</w>
स त</w>
श ्री
ल -
र् ट</w>
सके ला।</w>
प ह
का म
ल र</w>
जे कर</w>
ब ्य
त ने</w>
े ला</w>
टी वी</w>
कि ,</w>
शि क्षा</w>
स ही</w>
ल ता</w>
कि ता
स्थ ि
रुआ त</w>
नि क
_ _
कर ो
ली ,</w>
बे टा</w>
बान े।</w>
जो र</w>
ष ण</w>
वि रो
अन् य</w>
काल् हु</w>
ज ्या
इ त्या
ब ल</w>
ति वारी</w>
त ू</w>
अध्य क्ष</w>
रं जन</w>
ग्र ह</w>
च र्
व स्था</w>
रहु वे।</w>
महा दीप</w>
प्रधा नमंत्री</w>
पु लिस</w>
ब्र ि
पु रा
ला इन</w>
ब हा
पू र
लि क</w>
म् प
ड ्
अ स्
ज ौ
बा बू</w>
न हीं</w>
ट ू
अशो क</w>
अला वा</w>
राष्ट्र पति</w>
ब ।</w>
दर् शन</w>
ता ।</w>
आ र</w>
सि द्ध</w>
लै ंड</w>
बंगा ल</w>
पाकि स्तान</w>
" )</w>
रह ि</w>
प्रका श
इ स</w>
वा स</w>
य ,</w>
मि क</w>
बु झा
होख ी</w>
वा लन</w>
य त</w>
मा ँ
पर्या वर
च ट
ंड र</w>
1 5
स ल
ष ्य</w>
पच्छि म</w>
ने श
न ौ
ले के</w>
निर्मा ण</w>
झी ल</w>
आ न
स वाल</w>
अइ स
्य ता</w>
ह उ
लेख क</w>
लाग ल।</w>
लाग त</w>
न र</w>
क स
क ल्
े ला।</w>
स्ता र</w>
प्र साद</w>
इन हन</w>
बिया ।</w>
गां व</w>
रहे ,</w>
दे ख</w>
जा ले।</w>
1 7
चा ई</w>
कि न
आ वे
लिह ले</w>
ब ई</w>
हो त</w>
च ले</w>
कु र</w>
सर का</w>
स ला</w>
मे ं।</w>
च ित</w>
व ्य</w>
प ित</w>
थ ो
िय र</w>
र ल</w>
जे वना</w>
चाही ं।</w>
ऊ पर</w>
ह मे
सम् मान</w>
निर्देश क</w>
दी हल</w>
19 9
या न</w>
मेहरार ू</w>
न् हा</w>
घ री</w>
कि लो
इं टर
र ि</w>
ब ौ
न न</w>
कि सि
प रे
क्र िया</w>
क ला</w>
सा ँ
फ ी</w>
त ृ
ं बर</w>
भग वान</w>
आ ं
सि द्
म ,</w>
ड ॉ
ंग ्
ला ख</w>
ब रिस</w>
ग ्रे
शा स्
श र्
वा ई</w>
द म</w>
जा ने</w>
झ ु
फि र</w>
दे व</w>
साम ने</w>
रा ब</w>
म क</w>
ज हा
चर चा</w>
भू मि
प्रे म</w>
घट ना</w>
हिन् दू</w>
ना ।</w>
किसि म</w>
का न</w>
कवि ता</w>
इ स
स् य</w>
श् चि
नी ,</w>
जरू रत</w>
ज ल्
मध ्य</w>
दर् श
तर फ</w>
ण् ड
सं गीत</w>
म क
न् द</w>
, 0
सब ले</w>
श ्रे
ज ारी</w>
हमे शा</w>
वु ड</w>
मुख्य मंत्री</w>
मा मिला</w>
प द
जन वरी</w>
ज ो</w>
आ र्
रा य</w>
क वन</w>
हू ँ</w>
थ ि
झार खंड</w>
जरू री</w>
1 4
सम झ
म ंगल</w>
पू जा</w>
गा य
ख ी</w>
े ,</w>
भोजपु रिया</w>
जग हा</w>
कोशि श</w>
क ं
एह से</w>
ग ल
श ं
मे ं
चा न</w>
च र</w>
पर ंप
प क</w>
पू छ
न रे
त् ता</w>
ड ो
ग ईल</w>
का नू
बद ला
दे वी</w>
खु द</w>
द ारी</w>
च हुँ
एश िया</w>
राजनी तिक</w>
ध ्य
चा हीं</w>
ष् ण
वि वे
फ ी
ध े
गाँ वपालिका</w>
सा फ</w>
पर बत</w>
ग ौ
उ हे</w>
ली वुड</w>
म नु
ह वा</w>
सक े।</w>
व गै
यू पी</w>
प द</w>
के हु</w>
दा स</w>
बे सी</w>
न ्यू
न ि</w>
दिह लसि।</w>
ले ं,</w>
न पुर</w>
ट ु
ग री
मै दान</w>
प्र कार</w>
न् न</w>
दु र्
का ई</w>
स्था पना</w>
स्टा र</w>
मिल ल।</w>
जे वन</w>
कला कार</w>
ए यर
स त
ए स
उत् तरी</w>
इला हा
धा न</w>
मार् च</w>
प्र जाति</w>
प ल</w>
अ म
बि ज्ञान</w>
प त्र
त ारी</w>
उ हाँ</w>
अ गि
1 2
ने पा
जु ड़ल</w>
किलो मीटर</w>
किता ब</w>
क तना</w>
ि य</w>
स ु</w>
स हा
मौ त</w>
मज बू
बा प</w>
न ई</w>
1 6
संस्कृ त</w>
प श्चि
निर्मा ता</w>
त य</w>
कह त</w>
ऑ फ</w>
ो ं</w>
हि डि
य ी</w>
भूमि का</w>
घो ष
ल म
ता ,</w>
वा ले</w>
बि स्
ना टक</w>
म ्यू
अंग ्रे
पा ण्
च् चन</w>
प्रकाश ित</w>
प हुँ
ख ी
ए म</w>
ार् ड</w>
म ने</w>
बा व
आ व
श् मी
ड ियो</w>
जी व</w>
अ ख
पर्यावर ण</w>
इत्या दि</w>
होख ी।</w>
ह रा
रुप िया</w>
र ोज
मु ँ
बा हर</w>
बदला व</w>
आ र
सां सद</w>
कार्य क्रम</w>
उ पा
्रा ं
स्थि ति</w>
बाड़ न</w>
न ु</w>
आ प</w>
आ ई
सं घ
न य</w>
धार ित</w>
ता ल</w>
घ रे</w>
अध्य यन</w>
हि न</w>
पाण् डे
प हु
छ ु
कह ना</w>
हो ई</w>
सं गे</w>
मना वल</w>
पड़ े</w>
न ारा
त ल</w>
ग्र ी</w>
ं टा</w>
स्ट ्र
रा हु
पा ँच</w>
त क
अ र्थ
हवे ,</w>
ला इ
र ंग
फै सला</w>
दौ रान</w>
जमा ना</w>
चल ल</w>
इलाहा बाद</w>
विधा न</w>
त ु</w>
उ च्
वा दी</w>
या द</w>
म हि
भा सा</w>
प े</w>
न जर</w>
टा इ
गो रख
िय म</w>
मि ले
सि स्ट
ले ंडर</w>
र -
बाड़ ी</w>
इ से</w>
आवा ज</w>
आद ि</w>
अ भ
हो ला,</w>
हालाँ कि,</w>
श ल</w>
रह ले</w>
ध ्या
च ंद्र
आजा दी</w>
स् ता</w>
बद ल</w>
प क
ज र्
ए हिजा</w>
अग स्त</w>
हि त</w>
लइ का</w>
ब बु
19 8
विश् व</w>
ल ड़
म ॉ
ना इ
दे र</w>
हिन् दु
सो झा</w>
सं गीत
लाग े</w>
बि स्तार</w>
करे ं</w>
एक् टिंग</w>
अ लग
े ं</w>
स् पे
सक त</w>
श ू
य ह</w>
दे शन</w>
आ ई</w>
ंग े</w>
ले ख</w>
भाष ा
ब री
जी व
ंड ा</w>
प्रका श</w>
घ ू
करा वे</w>
1 3
दो सर</w>
ऊ ँ
आ धु
अगि ला</w>
अ स
19 7
शा ह</w>
ल क्ष
यो ग
मि र</w>
म ल</w>
ग या</w>
सम ू
का ं
सी ट</w>
बौ द्ध</w>
ज रु
च क्
क् शन</w>
र् जी</w>
रु ब</w>
पच्छि मी</w>
न् त</w>
जो ग</w>
चि न्
ख ोज
कू ल</w>
सामा जिक</w>
वा सी</w>
वगै रह</w>
पूर बी</w>
प इ
तं त्र</w>
अं तर
ले ज</w>
म द
भइ ला</w>
च ू
ख ि</w>
उप न्या
िया ,</w>
वे श</w>
लु क</w>
लि ए</w>
मत ौर</w>
तु ल
क ता</w>
आ मतौर</w>
मनो रंजन</w>
मनु ष्य</w>
भी तर</w>
बॉ लीवुड</w>
प ट</w>
सू ची</w>
बे टी</w>
आ र्थ
अप रा
हो ई।</w>
ह ब</w>
सा त</w>
शा सन</w>
वा य
उ ठा
अप नी</w>
अधि कार</w>
ं कि</w>
ल् ला</w>
म् बर</w>
भर ल</w>
बन ार
नगर पालिका</w>
जा ।</w>
रे ल
ने ट</w>
ड़ े</w>
जू न</w>
ख तम</w>
क मी</w>
िय ल</w>
स्ट र</w>
मि श्
बाव जूद</w>
प ौ
जा ए
छ ू
सर कारी</w>
सम स्
मान ्यता</w>
बाड़े ं</w>
कृ ति</w>
आ धारित</w>
स्था पित</w>
श् वर</w>
रा ह</w>
रा इल</w>
मे ंट</w>
पूर् ण</w>
इया र</w>
ल ख
भी म</w>
द स</w>
जरू र</w>
… ।</w>
ह जार</w>
व ,</w>
ब ह
टी म</w>
कै लेंडर</w>
अब हीं</w>
से ना</w>
से ं
स ौ
बाड़ न</w>
जु लाई</w>
जि त</w>
क्ष ि
क ई
अ त
स फ
राहु ल</w>
म ई</w>
ब ्रा
जिन हन</w>
ए न
भू गोल</w>
न ियन</w>
19 4
श्र ी</w>
बि बि
प्रा चीन</w>
क ठ
ो ह</w>
सम् मे
वो ट</w>
म्यू जिक</w>
फे रू</w>
प् प
उप ल
अ च्छ
नी य</w>
द ौर</w>
टि क</w>
" ,</w>
ल ि</w>
भ व</w>
पं चा
त इयार</w>
क हाँ</w>
उ दा
अलग -
सिस्ट म</w>
शा खा</w>
मुँ ह</w>
मा ं
प ार्
चल ि</w>
खा ना</w>
का ,</w>
हिमा लय</w>
स् तर</w>
रह ले।</w>
महारा ष्ट
201 7</w>
सद स्य</w>
शि व
ण् ड</w>
छ े
ग ठ
अलग- अलग</w>
रा ई</w>
पं जा
द ल</w>
त रा</w>
ट ै
उनु कर</w>
अ क्ट
ी य</w>
हिडि मा</w>
र् य</w>
मु द्
न सभा</w>
गा र</w>
न् द
टे ड</w>
ग र्
ग ढ़</w>
अक्ट ू
ं क
िया न</w>
सर े</w>
व ला</w>
यू रोप</w>
भि ख
पा ठ
तर े</w>
ठा कुर</w>
के न्द्र</w>
सि क्
रहे ला।</w>
रह लन</w>
ब् लॉ
प्र योग</w>
पर ी
ट ्रे
ज ,</w>
कह ी</w>
ए करी</w>
फो न</w>
त िया</w>
उ न्
आ ग
व ती</w>
रह न</w>
बा बू
दे वे</w>
द लित</w>
डा ॰</w>
का द
उपल ब्
ह ौ
प वन</w>
ध ो
त् मक</w>
क ट</w>
सं सद</w>
स ो</w>
श्मी र</w>
लिख े</w>
रह ी।</w>
नि का
गाँ धी</w>
गा ना</w>
ख राब</w>
कस बा</w>
इ काई</w>
अक्टू बर</w>
श स</w>
ल क</w>
र स</w>
म ारी</w>
बे ह
पै दा</w>
त ौर</w>
कृ ष्
पा ंड
नी क</w>
देख त</w>
दु सरा</w>
आ दि
19 6
स रो
वे ब
वि चार</w>
रहे ला</w>
बाड़ न।</w>
ग ँ
आखि र</w>
ह ऽ।</w>
र ।</w>
य ता</w>
ब च
छो ड़
चिर ई</w>
गुज रात</w>
कइ ला</w>
ओ करे</w>
ं व</w>
e r
a n
हर ण</w>
सु रु
लम हर</w>
रा उर</w>
मह तारी</w>
ड र</w>
ख र</w>
औ रत</w>
अ फ
2 0</w>
िय त</w>
सा मिल</w>
सम्मे लन</w>
सन ्</w>
सँ ।</w>
शा न</w>
म ि</w>
त था</w>
जन े</w>
ग ई
कि ल</w>
कि र
आर्थ िक</w>
ंद ो
i n
र् ड</w>
य दा</w>
मे ल</w>
मुं बई</w>
महाराष्ट ्र</w>
मं च</w>
प्रा कृतिक</w>
ना ग
छो ड़</w>
उ मे
र ै
म र</w>
बि आ
पूर् व</w>
ियो ं</w>
सं स्था</w>
भिख ारी</w>
ब लिया</w>
दक्खि नी</w>
जिन गी</w>
ऊ ँच</w>
ह ारी</w>
सा झा</w>
समु झ
मह त्
भार ी</w>
भा ग
प्र ी
ट ि</w>
ज त</w>
च ला</w>
अ ल्
साइ ट</w>
समू ह</w>
वाय ु</w>
ब ्या
प् ले
न् य</w>
खा न</w>
क्ष ा
श ै
विरो ध</w>
वि शे
वा हि
री ,</w>
बइठ ल</w>
ब चा
पु ल</w>
ना हीं</w>
दि व
ढ ा
झ ू
गोरख पुर</w>
कव ना</w>
ओ हिजा</w>
ंद र</w>
19 5
सुर क्षा</w>
वा द
रह ा</w>
बिया ह</w>
पाण्डे य</w>
पश्चि म</w>
उ मिर</w>
िया ई</w>
विधा नसभा</w>
रेल वे</w>
ब ड़ा</w>
पुर स्
प ्या
जी ,</w>
छो ट
क ह</w>
क ब</w>
उ द्
इन का</w>
1 0</w>
सां स्
मि श्र
क् ट</w>
किन ारे</w>
1 4</w>
सम र्थ
रह ीं</w>
बा जार</w>
ड़ ा
ग लत</w>
ए तना</w>
अमेरि की</w>
हो के</w>
द क्षि
जान त</w>
क न
उ र्
सि त</w>
व ि</w>
बत कु
ब ड़</w>
परंप रा</w>
ध ार्
दिह लसि</w>
गइ ल,</w>
क्ष ण</w>
क्र ि
आ तं
आ ंदो
सि न्हा</w>
स ौ</w>
शा य
य ण</w>
म श
बनार स</w>
ब लुक</w>
नेश नल</w>
ज ं
सि टी</w>
ब हे</w>
पा द
जा ये</w>
िया ँ</w>
ले बे</w>
मं त्र
बर खा</w>
बं द</w>
फ ा</w>
पु रा</w>
पी छे</w>
तार ी
ट् स</w>
ं ज</w>
सु रू</w>
वि क</w>
व ारा
लाग ू</w>
रू प
बो ले</w>
बि कास</w>
ब ,</w>
गइ ले।</w>
ख री
करी ब</w>
उपन्या स</w>
1 5</w>
हो ले।</w>
सो च</w>
सं विधान</w>
वि ष
राख ल</w>
म ता</w>
ध ारा</w>
ति ,</w>
खे त</w>
o n
सुरु ज</w>
सु ।</w>
सम ार
मा टी</w>
पू र</w>
न् ना</w>
न् द्र
्रा ष्ट
स मे
स ड़
व ो</w>
ला ग</w>
खू ब</w>
अ लगा</w>
धी रे</w>
दू री</w>
त नी</w>
ंद ा</w>
शु रुआत</w>
राख े</w>
ब ँ
ध ित</w>
द् विवे
देश दुनिया</w>
कर ते</w>
कइ लन</w>
आ जु
सं घ</w>
लि स्ट</w>
मिश् र</w>
बढ़ ा
न )</w>
आ गा</w>
अ स्थान</w>
ह ऽ</w>
लगा वल</w>
बरी स</w>
देख ि</w>
आ उर</w>
श्रे णी</w>
शु रु</w>
श री
मे ह
मध ्य
म य</w>
बि ग
बा नी
बा ई</w>
द िया</w>
ट ्ट
चि ं
ओ ह
लख न
रख ल</w>
र स
योज ना</w>
योज न</w>
बड़ का</w>
ब ल
न य
चै नल</w>
्राष्ट ्रीय</w>
वा स्त
रि क</w>
मो हन</w>
मुद् दा</w>
फि र
त र्
जल वायु</w>
छ ा</w>
कानू न</w>
अ काद
ड़ ल</w>
हा ं</w>
सि त
पू रुब</w>
पइ सा</w>
दि सं
को ई</w>
के ंद्र</w>
एह में</w>
आंदो लन</w>
अइस ने</w>
सा हे
समार ोह</w>
शर् मा</w>
महि ला</w>
बे रा</w>
बतकु च्चन</w>
बत व
च ना</w>
क्षेत्र फल</w>
अत वार</w>
अ प्र
स ँ</w>
ब्रि टि
बु ध</w>
दे ले</w>
दु नों</w>
आधु निक</w>
( "
सी जन</w>
सिं ह,</w>
वा ं
र पट</w>
यु क्त</w>
पु रु
दी ,</w>
थ े</w>
ज्ञा निक</w>
उदा हरण</w>
आइ ल।</w>
अ दा
ध े</w>
च उ
सो मार</w>
समस् या</w>
व ं
लगा तार</w>
रह ली</w>
मि त</w>
ब रा
फो टो</w>
प क्ष</w>
न ज
ते ज</w>
ट िया</w>
कर ो</w>
होखे ,</w>
स म</w>
ष् ट</w>
शू टिंग</w>
श क्ति</w>
प्या र</w>
ख र
औ र
उप योग</w>
उ हो</w>
उ ल्
रह ल,</w>
दि ल</w>
ओ के</w>
एक् स
ई ं।</w>
अर थ</w>
अख बार</w>
स ारा</w>
स पना</w>
ला न</w>
ल म</w>
प्र ति</w>
जि नि
च लन</w>
खे ती</w>
उपलब् ध</w>
अं क</w>
हू र</w>
स् वी
से ,</w>
वा ं</w>
मे ला</w>
मा ध्य
बिस् व</w>
बि स
पर भाव</w>
धार ण</w>
के तना</w>
लगा वे</w>
म ग
बोल ल</w>
बिबि ध</w>
को र्ट</w>
आन ंद</w>
आ त्
अने के</w>
सि ल</w>
साम ग्री</w>
क -
ए म
__ __
ॉ र्
हा ँ
स े।</w>
ल् ड</w>
ब्रिटि श</w>
फिलि मन</w>
देखा वल</w>
ए ं
" "
सांस् कृतिक</w>
वि धा</w>
भा वना</w>
भा व
बै ंक</w>
ब च्
क त
1 ,
ै ल</w>
सि वान</w>
स मि
र वि
ब्र ह्
त त्
जि म्
गं ज</w>
कर ने</w>
ओ ं</w>
उ म्
अ के
हो ले</w>
म् स</w>
मक सद</w>
बन वले</w>
बता वे</w>
दे ह</w>
घ े
गइ ले</w>
कि म</w>
2 5
स् तु
वि त</w>
या त्रा</w>
बु द्ध</w>
बिआ ह</w>
प्र या
प त</w>
प त
सु रुआत</w>
संबं ध</w>
व ज
रह ली।</w>
पुरस् कार</w>
पहा ड़ी</w>
धर ती</w>
दिसं बर</w>
दिव स</w>
दा म</w>
घ ंटा</w>
कइ लन।</w>
आ योजन</w>
ार् थ</w>
शि का
वारा ण
लू म</w>
रो क</w>
मु सल
मा तृ
भ ौ
बड़ ा</w>
बत िया
प्रशा स
नि कल</w>
क् ति
ए स</w>
्रा ज
र् त</w>
भू गो
भ रो
बू झ
पा वे</w>
द् वान</w>
द ार
ट त</w>
जा ता</w>
गिर फ्
करा वल</w>
आ न्
ले ं
लड़ ाई</w>
पा ँ
द ृ
ज ार
हम ला</w>
साम ्राज
लि खा
भ उ
फू ल</w>
प चा
द ो</w>
ति थ
ता न</w>
जिनि गी</w>
कर् ता</w>
आ रोप</w>
" "</w>
ली हल</w>
मश हूर</w>
म ंग
पा व
पहि चान</w>
जवा ब</w>
के ट</w>
ए क्टर</w>
उ ड़
इंड िया</w>
अकाद मी</w>
ह क</w>
स् कूल</w>
ला यक</w>
लखन ऊ</w>
य ू</w>
मा नि
बा दी</w>
देव ता</w>
दि मा
ती श</w>
त हरा</w>
जो रिया</w>
चि त्र
बु द्
पट ्टी</w>
जा ले</w>
गु ला
1 2</w>
राज े
रह लन।</w>
पहि ली</w>
प ंड
च ढ़
सिक् किम</w>
ले श</w>
लाग ेला</w>
मा लूम</w>
ब हिन</w>
पी एम</w>
ट्र ो
चा ह
चक् कर</w>
एक दम</w>
अस् प
अधि क
अ रे</w>
ि न</w>
हालाँ कि</w>
विद ्या
ल् स</w>
ला स</w>
ल न,</w>
मु स्
मा त्रा</w>
बा ल</w>
निकल ल</w>
दा तर</w>
त त्व</w>
क् स
उ तर
2 8
ार् थ
हा इ
स्ट्र ी</w>
सु ने</w>
प्रे स</w>
प्र िय</w>
पुर न
ज न्
गां धी</w>
इस् ला
अधि क</w>
सि तं
सं चा
ण ,</w>
गा यक</w>
ऊँ चाई</w>
श ो</w>
ली य</w>
रह त</w>
प्रशास निक</w>
पर सिद्ध</w>
न ंबर</w>
दा य
छ ह</w>
चे ला</w>
्र ो
ह ँ</w>
व्य वस्था</w>
वि स</w>
रो ज</w>
रे खा</w>
मु हू
प सं
नी मन</w>
न त</w>
दु ल्
जा ला
का फी</w>
अं त</w>
होख ला</w>
हो टल</w>
सा य
भ ्र
बाड़ े</w>
बता वत</w>
प्र सिद्ध</w>
निक ले</w>
नरे न्द्र</w>
ज म्
ख ड़ा</w>
कर ीं</w>
आ कार</w>
1 .
ह ॉ
सो चे</w>
सं जय</w>
श नि
वाराण सी</w>
वा प
मै थि
मुहू र्त</w>
फु ट
प्रो ड
ज तना</w>
घा ट</w>
इ ला</w>
अप्र ैल</w>
a t
ह त
स्ट ्रे
सा धन</w>
वा ह</w>
र् स</w>
दु नू</w>
दु ख</w>
द श
जे ल</w>
गी तन</w>
ख े</w>
ख ़
ख ड़ा</w>
क्ष ित</w>
कइ लें।</w>
िया र</w>
सितं बर</w>
वि जय</w>
लइ की</w>
रे ल</w>
रह ि
मान त</w>
प न
न र
द्विवे दी</w>
त वन</w>
णा म</w>
जा इ
चिर इन</w>
गु आ</w>
खो ज</w>
क् सर</w>
आ य
स रा
स न।</w>
लि ंग</w>
य िका</w>
मो बा
मुख िया</w>
म हे
बाड़ े।</w>
ब ता</w>
फा इ
प्रे म
पढ़ ाई</w>
पड़ ल</w>
निय म</w>
दू सरा</w>
तिथ ि</w>
ड ल</w>
2 7
ह रि
सु ना
साहे ब</w>
सड़ क</w>
पहिल का</w>
नी ति</w>
नाइ टेड</w>
ता कत</w>
ज्या दातर</w>
छो ड़</w>
कौ नो</w>
क न्
अँ जोरिया</w>
अ खि
हाला ंकि</w>
स् ती</w>
स री</w>
स पा</w>
ष् ठ</w>
लक्ष ्
मौ सम</w>
माँ ग</w>
मध ु
बो ली</w>
बा न्
ब म</w>
प्रति क्रिया</w>
प री</w>
धार् मिक</w>
दू ध</w>
त नि
ण ि
ण न</w>
डा इ
घा टी</w>
करे ला।</w>
औ सत</w>
अंतर ्राष्ट्रीय</w>
3 0
ी ं।</w>
संग ठ
शरी र</w>
वि नय</w>
व पूर्ण</w>
ल ौ
रा धा</w>
भ व्य</w>
बि से
प ल
प द्
नव ंबर</w>
ध न
ग ू
कृष् ण</w>
कि ंग</w>
’ ,</w>
े -
स फल</w>
वे ं</w>
मान व</w>
माध्य म</w>
ध ू
कर ी।</w>
19 3
सि स</w>
शाय द</w>
व ृ
मानि त</w>
बा ने</w>
पाद क</w>
न ै
ड ु
ग ति</w>
खु शी</w>
ए व
अर् थ</w>
वा वे</w>
लोक सभा</w>
ले श
म ण</w>
भ वन</w>
पो स्ट</w>
दे ला।</w>
ड़ े</w>
हा सिल</w>
हम के</w>
सो शल</w>
समि ति</w>
ब ज
फा यदा</w>
प व
ने ट
ना म
धर् म
दि क</w>
ज्या दा</w>
ज र
ची नी</w>
घो टा
कल् पना</w>
आँ खि</w>
2 5</w>
हर िया
सा ँच</w>
समे त</w>
सफ लता</w>
स ला
शि व</w>
य ो</w>
बि त</w>
बाबू जी</w>
फ ्रे
प्र चार</w>
तो हरा</w>
तुल ना</w>
करे ला</w>
ई -
आँ ख</w>
होख ल</w>
ह थ
शा ं
व ट</w>
बढ़ िया</w>
बाड़ े</w>
पंजा ब</w>
पंचा यत</w>
दक्षि ण</w>
त ै
चर् चा</w>
चट ्ट
कि शन</w>
उद ्यो
आ यो
( ,</w>
शं कर</w>
महा सागर</w>
दिमा ग</w>
थ र</w>
ठ े
ज बा
छप रा</w>
चु नल</w>
गइ ल
करो ड़</w>
क ्रा
अनु सूची</w>
7 4
हवे ं।</w>
ह ई</w>
सु विधा</w>
स "</w>
ष ि</w>
वे ला</w>
बड़ हन</w>
बो ला
बाँ टल</w>
ब सल</w>
त ऽ</w>
गु प्त</w>
क सान</w>
उत् पा
अब ले</w>
2 3
ह ट</w>
ला ल
बाड़ न।</w>
नि धन</w>
ध ्
दू नो</w>
दु सरका</w>
दिह लन।</w>
त् तर</w>
2 4
मौ जू
मू र्
मिश्र ा</w>
प्र िय
ग्रा म</w>
आखि री</w>
ौ ता</w>
सि क</w>
स बे
वेब साइट</w>
ले त</w>
मिल त</w>
मद द</w>
बबु आ</w>
प्रका शन</w>
त ह
जाय ।</w>
गिरफ् तार</w>
गइ लन</w>
कु ल्
कह ा</w>
2 6
स्था नीय</w>
संगीत मय</w>
री ज</w>
मा हौ
प्र स्तु
पत् नी</w>
नारा यण</w>
ना यक</w>
देश ी</w>
दू सर</w>
दु नु</w>
ड ू
चो टी</w>
च रि
के शन</w>
अ सल</w>
a r
201 5</w>
1 1</w>
,0 00</w>
हाला त</w>
हत ्या</w>
सु न</w>
संस् कार</w>
सं स्था
स क</w>
शी ल</w>
रु प</w>
रच ना
मि ली</w>
म ृ
बै नर</w>
ब ंग
पूर् वां
द सा</w>
ट् ठा</w>
ज वान</w>
ग व
कार् ड</w>
अ फिर
i c
ह निया</w>
समर्थ न</w>
सभ का</w>
र वि</w>
भू मि</w>
पसं द</w>
पर् य
टि प्प
च ि</w>
कु छ
का ली
कर् म
उम् मी
आ ठ</w>
अभ ियान</w>
e n
2 4</w>
2 1</w>
सा ई</w>
सम् मानित</w>
महत् वपूर्ण</w>
बिस य</w>
बि चार</w>
बाद ो</w>
प क्ष
ना ंव</w>
ठ े</w>
ग ति
अब की</w>
1 9</w>
्यू टर</w>
साहित्य कार</w>
सं त</w>
स न्
ला श</w>
लउ के</w>
यू नाइटेड</w>
मोबा इल</w>
मा ना</w>
म ो</w>
भइ ल,</w>
बी स</w>
बा री</w>
फ े</w>
पु छ
प रा
ज ंगल</w>
गि नल</w>
क म्प
क ब्
उत् त
आ सा
अंगरे जी
ला य
मू ल
माहौ ल</w>
मार ी
म रा
ब्य वस्था</w>
परि णाम</w>
न क</w>
च म
इतिहा सी</w>
आप स</w>
201 4</w>
) ।</w>
हू ं</w>
स ऽ।</w>
विष य</w>
ल ियन</w>
मर द</w>
बड़ का</w>
प्र भा
पा न</w>
प रो
प ब्
नी तीश</w>
तब ले</w>
ठ ो
गां वपालिका</w>
उठ ा</w>
आ बादी</w>
अ क्ष
हम हन</w>
शु क</w>
व्य व
वि ज्ञा
ले न</w>
र् ष</w>
महा न</w>
बु ढ़
नि ंग</w>
दर् ज</w>
द ,</w>
ति हु
डा ल</w>
ट ,</w>
जल् दी</w>
कि ला</w>
कांग ्रे
उमे द</w>
इन कर</w>
आजा द</w>
अस्प ताल</w>
ं सी</w>
[ [
2 8</w>
2 2</w>
स्टे शन</w>
साम्राज ्य</w>
सरो कार</w>
रा मा
र क्षा</w>
इ ज्
आ ठ
अ ंग</w>
201 6</w>
हो इ
हा न</w>
सित म्बर</w>
य ल</w>
नय का</w>
दा य</w>
दर् जा</w>
त हत</w>
जा म</w>
चा ल</w>
गइ लें।</w>
कह ि</w>
इंटर नेट</w>
8 9
हो ली</w>
सा हब</w>
व्य क्ति</w>
ल ई
यू रो
मो ह
म ू</w>
बी र</w>
प्रशा सन</w>
ता प
जहा ज</w>
चंद्र मा</w>
क टि
क ट
इ या</w>
साथ ही</w>
वे द</w>
लउ कत</w>
लउ क
मार् ग</w>
मातृ भाषा</w>
प ि</w>
धा निक</w>
दिह लें।</w>
कार ,</w>
कइ लें</w>
आप के</w>
अधिक तर</w>
सा ध
स ारी</w>
वि देश</w>
ल का
भोज न</w>
बद ले</w>
पहिल हीं</w>
तिहु आर</w>
जा लें।</w>
ग्र ं
खू न</w>
का शी</w>
इ ंग्
है ं।</w>
ह वाई</w>
सा धारण</w>
समु ंद्र</w>
स िया
वि मान</w>
रुआ ती</w>
राज्य न</w>
रा स्ता</w>
पत्र कार</w>
ना ट
ध ता</w>
ते जी</w>
ति म</w>
त ले</w>
जा ल</w>
ग्रे गर
ग्रेगर ियन</w>
के श</w>
कइ सन</w>
कइ लस।</w>
अपरा ध</w>
अ म्
8 8
हु आ</w>
ह िया</w>
सार ण</w>
स त्ता</w>
शास् त्र</w>
राष्ट ्र</w>
राज कुमार</w>
बे ं
बन ि</w>
त मा
जाए ंगे</w>
गल ती</w>
कर ि
आ ग</w>
अ स</w>
1 7</w>
सोच त</w>
सह ज</w>
वी र</w>
विशे ष</w>
रह न।</w>
योग दान</w>
या नी</w>
बा :</w>
फे रु</w>
प्रा प्त</w>
प्रशा ंत</w>
पे ट</w>
दुल् हनिया</w>
ढ़ ी</w>
जिन के</w>
छ ठ</w>
क ज
अव ार्ड</w>
अ भी</w>
3 0</w>
शे खर</w>
शनि चर</w>
भर पूर</w>
बि हारी</w>
बि भा
ब िय
ध ारी</w>
द ै
त रि
जै से</w>
जब ले</w>
चे हरा</w>
चु ना
ग ृ
किर दार</w>
उत् तर
उ ँ
आतं क
संगठ न</w>
वि भाग</w>
लं बाई</w>
ल )</w>
भे ं
बि धा</w>
ब ्रे
थ ु
ड ु</w>
जी पुर</w>
ज ंग
चार ्य</w>
कार ्यालय</w>
उ न</w>
आयो जित</w>
5 0</w>
2 9
्य ु
ी न</w>
सू र्य</w>
शु रू
शब् दन</w>
वास्त व</w>
राज स्थान</w>
मारी शस</w>
फ ्रा
पु त्र</w>
परी क्षा</w>
प छि
न्या या
ध र</w>
दु ल
थ े
त बो</w>
ट्रे न</w>
चि त्र</w>
चला वे</w>
घ वाहि
कन ्या</w>
ओ ने</w>
सं तो
ले ला</w>
ले खा</w>
म र्
भोजपु र
ब ने
पो र्ट</w>
पहु ँच</w>
प त्र</w>
जिम् मे
गा वे</w>
ख तरा</w>
कॉ लेज</w>
इ ले</w>
अ रु
( अंगरेजी
ऽ ,</w>
सु ख</w>
सबे रे</w>
विधा यक</w>
ल क
र ॉ
मा स्टर</w>
बं ध</w>
पुर ,</w>
पंड ित</w>
न्यू ज</w>
न् ती</w>
न ृ
न "</w>
गो ली</w>
एक् शन</w>
अर ब</w>
अभि नेता</w>
a l
1 6</w>
ऽ ता</w>
होखे ला।</w>
सिद् धा
स व</w>
स चि
विश् वास</w>
रा इ
रह ला</w>
ब ढ़</w>
प ,</w>
नइख न</w>
धे यान</w>
ति ब्
घोष ित</w>
आन् दो
अधि कारी</w>
अच्छ ा</w>
i s
. .
ह ियो</w>
श हर
मा ता</w>
बा रा</w>
फ ार
नव ही</w>
धर म</w>
ट ्टी</w>
च ढ़
गा ड़ी</w>
ख ल</w>
कइ ल।</w>
आ सान</w>
अफिर का</w>
अदा लत</w>
अ श्
हि जे</w>
हवे ं</w>
सं युक्त</w>
सं ग्रह</w>
ष् ठ
लस ,</w>
र ज</w>
मि ठा
मा ला</w>
बच् चा</w>
पूर् वी</w>
पु स्
परे शान</w>
प िय
नेट वर्
निर् देशन</w>
नि काल</w>
दे ला</w>
दिह ले।</w>
डाइ रे
ट् ट</w>
चार ो</w>
ग म</w>
क ्रां
क सित</w>
o r
3 7
2 9</w>
सम झ</w>
सं पादक</w>
मिले ला।</w>
भूगो लीय</w>
बन व
ब ढ
फ र</w>
प्रति नि
पार् क</w>
न म</w>
तं त्र
गौ र
ग ार
ग न</w>
ं त्र
? ’</w>
4 0
1 8</w>
स्वा मी</w>
सा बित</w>
रही ं।</w>
या र</w>
मा इ
म मता</w>
बा ंग्
बर न</w>
नेपा ली</w>
त बे</w>
टिप्प णी</w>
गो ल
कर् नाटक</w>
ह ं
सक ी
स )</w>
लि म</w>
लाग ी</w>
मुसल मान</w>
मि ला
म ला</w>
पढ़ े</w>
पुरा ना</w>
पु र्
पर ,</w>
दु र</w>
ट री</w>
घोष णा</w>
गा वल</w>
खु श</w>
क श्मीर</w>
आ देश</w>
2 ,
सम ी
व्या पार</w>
वा इ
रो टी</w>
भोजपु रि
भ ई
पि ता</w>
नि जी</w>
गु प्
एश ियाई</w>
उत् पत्
अप ना
अ च
2 6</w>
से वा
वा यु
रो ल</w>
मा ,</w>
बइ ठ</w>
फ गुआ</w>
प्र स्ता
पौ धा</w>
पे श</w>
पुरन का</w>
पाकि स्ता
न र्
जा ,</w>
जग त</w>
खा ए</w>
ए हू</w>
ए लान</w>
इ ले
्य ू</w>
सं वै
स ब्
ष द</w>
वि शा
लेख न</w>
लि ख</w>
बा जी</w>
बन त</w>
ब जे</w>
न री</w>
त ियन</w>
जौ नपुर</w>
गइ ला</w>
काली न</w>
का ज</w>
कंप ्यूटर</w>
अ हम
] ]</w>
5 0
( जनम</w>
े ं।</w>
ह ईं</w>
वा ला
लिह लसि।</w>
लिख ले</w>
भि न्न</w>
भरो सा</w>
पूर्वां चल</w>
पह चान</w>
जौ ना</w>
ज ली</w>
घवाहि ल</w>
गव नई</w>
कि सान</w>
का का</w>
ए यर</w>
उच् चार
9 0
हम रो</w>
संवै धानिक</w>
वे ला।</w>
व ।</w>
लोक प्रिय</w>
रह नी</w>
मा ंग</w>
म नी</w>
भु ला</w>
प्र दू
प्र कृति</w>
पब् लिक</w>
नि वास</w>
ना डु</w>
चला वल</w>
गइ ली</w>
ग हि
ख ै
क्र ो
कि सी</w>
उ त</w>
ई सा</w>
1 3</w>
हा लत</w>
ष्ट ि</w>
शा दी</w>
ल म्
भ ले</w>
भ ट्ट</w>
बो र्ड</w>
बि धान</w>
फ ार्
नि शा
न दार</w>
दा वा</w>
जा के</w>
ज व
चट र्जी</w>
गइ लन।</w>
क ्या</w>
क ड़
एव ं</w>
एक्स प्रेस</w>
ए कही</w>
उद्यो ग</w>
अं तिम</w>
ढ़ ी</w>
सा मान</w>
शा ली</w>
ली ं,</w>
मु श्
मिल ियन</w>
मि र्
मार े</w>
म -
भाष ण</w>
ब्लॉ क</w>
ब ल्
फ ़</w>
पुस् तक</w>
पहा ड़</w>
दिह लन</w>
दर् भ</w>
त् त</w>
जम् मू</w>
का ठ
क मा
उ से</w>
ई हे</w>
ंद न</w>
सु कन्या</w>
स -
बै ज्ञानिक</w>
बढ़ िया</w>
पड़ ी।</w>
ती ,</w>
ड ्रा
ट र्
झ ो
जे करे</w>
ज ना</w>
घ र
क था
एक ट्ठा</w>
ए न</w>
इया द</w>
आन्दो लन</w>
आ का
अभि नय</w>
अनु भव</w>
अं तर</w>
ंग ,</w>
ं का</w>
सी धे</w>
शै ली</w>
वज ह</w>
लाग ेला।</w>
ला लू</w>
ल ऽ</w>
मु ना</w>
बो ल</w>
बॉ ल</w>
बि साल</w>
बाड़ े।</w>
बा रह</w>
बढ़ ल</w>
बं धन</w>
पुरु ष</w>
पि ं
पर् क</w>
प न्न</w>
प ड़</w>
देखा वे</w>
दु नो</w>
ट् ठी</w>
जै न</w>
जरु री</w>
ज स</w>
घोटा ला</w>
कह ली</w>
ओ तना</w>
इ सन</w>
२ ०
हरिया णा</w>
शास् त्र
वे द
मा ने
ब्य क्ति</w>
प्र देश
पा ई</w>
नि हो
द्व ी
तारी ख</w>
डि ंग</w>
च लित</w>
घ रे
ग्र ह
गरी ब</w>
कि मी</w>
ए ल
आ रा</w>
अ तने</w>
ंक ू</w>
2 3</w>
ा वे</w>
स् पति</w>
साँ झ</w>
विरो धी</w>
वि ज्ञान</w>
ल स्ट
रो ड</w>
बिय फे</w>
बांग् ला
ध्या न</w>
त माल</w>
ज ़</w>
चट्ट ान</w>
को लका
किन ारा</w>
का श्मीर</w>
अनु मान</w>
हिन्दु स्तान</w>
रि श्
र ख</w>
मु र्
बाद ,</w>
फू ह
फुट बॉल</w>
प्रधा न</w>
नि वेश</w>
न वा
दे सन</w>
दू र
तो हार</w>
ड् डा</w>
डॉ ।</w>
ट म</w>
ज िय
च लीं</w>
च क</w>
गीत कार</w>
ग ंगा
क् का</w>
क ऽ</w>
उच् च</w>
अभि ने
अ क
ह ल
ह री
लोग ,</w>
लो र</w>
लि नी</w>
लि न</w>
मी ,</w>
बो ध</w>
प्रा इ
पु री</w>
ने हर
नइख ीं</w>
ते ल</w>
टे ल</w>
जन े
ज ू</w>
गी करण</w>
गइ ली।</w>
क्ष क</w>
कर े।</w>
इं त
अव सर</w>
हा ई</w>
स्त ू
सं र
स ्रो
व क</w>
ले ले</w>
रा ,</w>
यू नि
म दन</w>
फर क</w>
प्र दर्शन</w>
पा ठ</w>
पर म्प
नु कसान</w>
दिह लें</w>
घ ि
गा विस</w>
आजु ओ</w>
ी -
िया ।</w>
हर िया</w>
सु रुआती</w>
संगीत कार</w>
शुरू आ
वर् ण</w>
र िय
य ं
मि न
बि हार
ब ि</w>
पाठ क</w>
पर ।</w>
प ठा
न् दर</w>
नि रहु
ना च</w>
दुर् गा</w>
दी ।</w>
द बा
त् मा</w>
टे क्
च य</w>
गो ड़</w>
गई ल।</w>
ग ली</w>
का ब
कह े
ओ हू</w>
ऊ परी</w>
इं च
आ धा</w>
आ के</w>
अखि लेश</w>
ंड ा
3 9
होखे ला</w>
स्व तंत्र
संचा लन</w>
शु क्
श त</w>
य ारी</w>
म स्
भोजपु री
बि जली</w>
पो र्
पा ती</w>
ना नी</w>
ध् व
देख ते</w>
टा वे</w>
जु ड़ल</w>
ची न्हा</w>
को सिस</w>
कला कारन</w>
कर िया</w>
उत्त राख
उड़ ान</w>
हा थे</w>
सु र</w>
संघ र्ष</w>
राम चेला</w>
मै च</w>
म न्
बी चे</w>
प्र क्रिया</w>
नरे ंद्र</w>
ध्य क्ष</w>
दश क</w>
त राई</w>
त मिल
जो ड़</w>
गु ं
ख रा</w>
के करा</w>
कइ लसि</w>
ओ तने</w>
अस ली</w>
अ सर</w>
अ ना
0 0
रा गत</w>
मुश् किल</w>
मजबू त</w>
फ ्र
पद ार्थ</w>
प ॉ
प ड़ा</w>
नेपा ल
नि श्
न ही</w>
न क्
दु सरे</w>
दी ह
दि ए</w>
त व
घरे लू</w>
गु रु
गा जीपुर</w>
का ट</w>
ए ने</w>
उ स</w>
अ स्थापना</w>
2 7</w>
ड़ ा
होख ी
समझ ौता</w>
स त्र</w>
स त्
रा व</w>
रउ आ</w>
मुस् लिम</w>
ब्लॉ ग</w>
दर्श क</w>
ताप मान</w>
ता नी</w>
जो र
चिं ता</w>
गर म</w>
काठ मा
कइ लस</w>
आन न्द</w>
8 7
3 6
हम रे</w>
ह ियों</w>
सी रीज</w>
विद ्य
वा ,</w>
मैथि ली</w>
भे जल</w>
ब जा
ब गल</w>
निहो रा</w>
न हर</w>
देख ीं</w>
तु र्
ति न</w>
छो ड़
च ली</w>
कार ि
का ँ
क माई</w>
क नी</w>
एयर लाइन</w>
ई ं
इस् तमाल</w>
आ लो
अ ट
ंग ी</w>
e s
सु प्री
सु धार</w>
साहित्य िक</w>
सामा न्य</w>
वी य</w>
व ली</w>
ला ं
रो ह
रा य
र ण
र घु
भा र</w>
बाड़ ें</w>
ब ृ
ढ ंग</w>
ड े</w>
झ े
जहा ं</w>
गै स</w>
उर् दू</w>
अइ सन
अ ल</w>
(अंगरेजी :</w>
ी व</w>
होख ो</w>
हम ्
सं साधन</w>
स वा
स मान</w>
व ारा</w>
रोज गार</w>
म ल्
फी सदी</w>
पाँ च
नृ त्य</w>
न ंद</w>
दर्श कन</w>
गु रु</w>
को ट</w>
क ्रे
ऑ फि
3 .
200 1</w>
ह द</w>
सर् च</w>
सर ो</w>
सम ृ
संतो ष</w>
सं बो
श ्रा
वी डियो</w>
भाष ी</w>
बे मारी</w>
बि द्वान</w>
बाट े,</w>
बाट े
प्रस्ता व</w>
पी य</w>
पद क</w>
निय ो</w>
गि रा
क उ
और तन</w>
इ को
आं ध
आ योग</w>
ंद र
8 5
4 7
( अंग्रे
ियो न</w>
हिन् दू
हि क</w>
स्थ ल</w>
सु पर</w>
सहा यक</w>
सह ारे</w>
संबं धित</w>
विशा ल</w>
रे -
यो गी</w>
मो ट</w>
बन् द</w>
बचा वे</w>
फ इ
प्र चलित</w>
पा ंच</w>
ना क</w>
तक नी
ढ ो
ग रे
कु र
कह ला</w>
आवे ला</w>
अ ठ
स्वतंत्र ता</w>
सचि व</w>
सं सार</w>
ष् ठी</w>
शिका यत</w>
ले ला।</w>
ले ट</w>
ल "</w>
र ियल</w>
मा ण
भोजपु र</w>
पड़ ी।</w>
पा छा</w>
न िया
दि त</w>
जा लें</w>
ज ्यो
ग्रं थ</w>
खोज े</w>
खाति र।</w>
खा ड़ी</w>
कम्प नी</w>
ए ल</w>
2 .
सी धा</w>
सम र्
सं भव</w>
स ि</w>
श र
ल न
मान ंद</w>
बि ल्
ब यान</w>
पा ठी</w>
दा बाद</w>
ति सरका</w>
डा य
ट्रो ल</w>
जबा ब</w>
जन म
च म्
गइ लें</w>
कु ल
करी ं।</w>
क स्
क बि
उत्पा दन</w>
अला वे</w>
t h
9 9
8 4
ार् थी</w>
ह फ्
स्ट ी
सा व
समु दाय</w>
सब के</w>
शा नदार</w>
लि पि</w>
ल ट
रख ले</w>
र ना</w>
मुं ह</w>
मा त्र</w>
म हो
भें टा
भ ईल</w>
बु क</w>
ब च्चन</w>
फ्रा ंस</w>
फाइ नल</w>
प् ला
पे ं
पू त</w>
दी न</w>
था ना</w>
टि व</w>
जी ।</w>
जरु रत</w>
गि ना
के न्द
का ंत</w>
6 .
’ ।</w>
ह ल्
ह ईं।</w>
सह योग</w>
स क्र
वा वल</w>
व ह</w>
ली ल</w>
मै न</w>
मा नी</w>
बढ़ ती</w>
ब री</w>
फ र्
पड़ ल</w>
पांड े
पर् व</w>
परि षद</w>
परंप रागत</w>
देख ा</w>
द वार</w>
द य</w>
द उ
त्रि पाठी</w>
तु र
ट )</w>
जि द</w>
ज रा</w>
चि ट्ठी</w>
च ंप
खी ं
क् ता</w>
कार ा
कहा उत</w>
इज् जत</w>
इंच ियोन</w>
ो ।</w>
स्रो त</w>
स् थ</w>
से क्स</w>
सु पर
सं दर्भ</w>
वा नी</w>
राज्य पाल</w>
बे व
बा ं
फे ं
प्रा ंत</w>
प्र वेश</w>
पर्य टन</w>
परि भाषा</w>
पर त</w>
नेहर ू</w>
ना र</w>
ना ँ
ध ारा
दे हा
दि शा</w>
थ न</w>
ता -
तमा म</w>
ड ्र
जौ न</w>
छप ल</w>
ग् लेश
गो ष्ठी</w>
ग द
खि न</w>
का व्य</w>
क च
उ स
अर वि
अइ से</w>
3 4
3 ,
201 8</w>
ह वाँ</w>
ह टा</w>
स िया</w>
स ियन</w>
लोक तंत्र</w>
या त्री</w>
मेह नत</w>
मा थ</w>
मना वे</w>
बु झ
बज ट</w>
पा छे</w>
पठा र</w>
नेटवर् क</w>
देख ले</w>
दिह लस।</w>
जमी नी</w>
गो पा
गि न</w>
केन्द ्रीय</w>
कृ त</w>
काम ना</w>
कह ले,</w>
कल क
करो ड़</w>
क इ</w>
इं स</w>
आ न</w>
3 5
हु ए</w>
हा ली</w>
ह जार
साइ किल</w>
सा वन</w>
सद स्
वि भा
वर् ष</w>
व ्
मे डि
महा त्मा</w>
भू षण</w>
भ क्ति</w>
बै ॰
बे च
बिभा जन</w>
बि द
बाड़ ी।</w>
प्र दान</w>
पांड े</w>
परि चय</w>
प टा
निय रा</w>
ध ,</w>
दु बे</w>
डाइरे क्टर</w>
झ ग
जा गर
छा ती</w>
चु नौ
च ंद्र</w>
गठ बन्
ग द्
कोलका ता</w>
कानू नी</w>
कल ्या
कम जोर</w>
ए च
ऊ र्
उनु के</w>
उन हन</w>
इंग् लैंड</w>
आवे ला।</w>
अं तरि
ँ ग</w>
स्वा स्थ
साय निक</w>
श ि</w>
श राब</w>
वि देशी</w>
वि चार
लउ के
रि ंकू</w>
मिठा ई</w>
मि ता
मा ई
म ना</w>
बो लत</w>
बेह तर</w>
बा न</w>
बा ?</w>
बढ़ त</w>
फ ्ट
प्रति शत</w>
परि व
न् दा</w>
देव रिया</w>
दे सी</w>
द लि
तू ँ</w>
डी जल</w>
डि ग्री</w>
झार ख
जे तना</w>
जा ना</w>
ज िया
ज म
चो र</w>
चंप ार
गरी बी</w>
ग ्री
को य
कटि बं
इस हीं</w>
अ दि
u s
3 1</w>
ड़ क</w>
ि ल्
हफ् ता</w>
संग म</w>
सं स्थान</w>
श्र म</w>
म् मत</w>
म रा</w>
बि ल</w>
पहु ं
प टेल</w>
देख ी</w>
त इ
ड ियम</w>
ट ॉ
जा ने
जा ता।</w>
ज द
ज ता
ग ़
को र
इंटर नेशनल</w>
इ त</w>
इ ण्ड
आद र्
आंध ्र</w>
अ ली</w>
अ ब्
अ द
अ ड्डा</w>
ंड ो</w>
ह रे</w>
स्ट्रे लिया</w>
सी ,</w>
सर स्व
वे यर</w>
वे ,</w>
विद्या ल
लस्ट मानंद</w>
यु द्ध</w>
मूर् ति</w>
मंत्र ा
भू त</w>
भइ या</w>
बै॰ :
बें वत</w>
बा वे</w>
बर फ</w>
ब क</w>
फिल् म
फ त</w>
प्र भाव</w>
पड़ ल।</w>
दी -
थ ल
ति वार
ढा ल</w>
डा क्टर</w>
टे न</w>
जान वर</w>
गि न
का न्
कह नाम</w>
कर ल</w>
ओ कनी</w>
इले क्ट
आद त</w>
ं ती</w>
r a
2 %</w>
ह नु
संबं धी</w>
स ौर</w>
व्य क्ति
वे ज</w>
रो ध</w>
रि कार्ड</w>
य -
मु गल</w>
मिले ला</w>
म ती</w>
म ण
भ रत</w>
बिसे स</w>
बा त
ब ला
ब टो
फ ँ
पै माना</w>
निरहु आ</w>
त् कार</w>
तर ण</w>
चा लू</w>
च ार्
गै र</w>
गि ता</w>
कह नी</w>
आ वल</w>
अभि न</w>
अ थ
ंड ी</w>
____ ____
8 0
ह ियन</w>
सर कार
शि कार</w>
ले न।</w>
र ौ
म ल
म द</w>
भाषा ,</w>
फिल् म्स</w>
प्रदू षण</w>
पार ्ट
परम्प रा</w>
नो ट</w>
न ौ</w>
न ार
धा म</w>
दा नी</w>
द ीं</w>
त ारा</w>
ट्र क</w>
ट ू</w>
छो टका</w>
गाय िका</w>
गाय की</w>
कुल् हि</w>
कइ लसि।</w>
ए का
इंड ो
आसा म</w>
i t
4 4
201 2</w>
हि र</w>
सू न</w>
समु झ</w>
स प्
शो र</w>
लइ कन</w>
ल ही</w>
रा ख</w>
या ल</w>
मा या
ब्या पक</w>
बि बरन</w>
बि चा</w>
बरा बर</w>
बन स्पति</w>
प्र ि
पा ं
प ो</w>
न ॉ
धर ना</w>
दा खि
ती जा</w>
त ियो
टाइ म</w>
ट ली</w>
जु द्ध</w>
जिन का</w>
जा ईं</w>
चिन् ता</w>
च ह
गठबन् हन</w>
क्रां ति</w>
क्र िया
कु मार
का त</w>
क स</w>
क बो
ऊर् जा</w>
उ ल
इला ज</w>
आठ वीं</w>
" दि</w>
्री का</w>
हो ला
हो ता</w>
सू चना</w>
सं वेद
श ार
विज्ञा पन</w>
वि स्तार</w>
वि ष्ण
वाप स</w>
रा सायनिक</w>
मु म्
भौ तिक</w>
ब क्सर</w>
न् स</w>
नि रा
नज दी
न ारी</w>
द् धा
जा ड़ा</w>
च्छ ा</w>
च न्द्र</w>
ग्र ु
गाँ व
गा ह</w>
के ंद
क द
ए ल्
अ नि
ं प</w>
l e
( 201
स्वास्थ ्य</w>
सो ना</w>
सु रे
सं गी
सं ग</w>
ष्ट ा
वर् सिटी</w>
लो कल</w>
ले वे</w>
लग वले</w>
ल घु
रि ंग</w>
मि त्र</w>
म हुआ</w>
भउ जी</w>
बढ़ा वे</w>
ब स्ती</w>
फ ्रां
प्रोड क्शन</w>
पी ठ</w>
प थ</w>
ने श</w>
निश् चित</w>
न ई
दू नों</w>
द गी</w>
तिब् बत</w>
तमिल नाडु</w>
ड म</w>
ञ ्
ज म</w>
छोट -
चा नक</w>
चर ण</w>
ग ढ़
खे सारी</w>
क्ष ता</w>
काम या
क ्यो
ए में</w>
उ ंट</w>
अ लगे</w>
ह ार्
से ट</w>
सुन त</w>
सं पर्क</w>
स कार</w>
शास् त्री</w>
वे ब</w>
वर् मा</w>
वं श</w>
व ार्
ल् य</w>
रा हा</w>
रउ रो</w>
मु ज
मि ली।</w>
मजबू र</w>
म सा
म ति</w>
म ऊ</w>
भो र</w>
भी ड़</w>
भ ै
ब नी</w>
प्ले ट</w>
पा इ
द -
ती स
जल् दिए</w>
गु न</w>
को ं</w>
केंद ्रीय</w>
कह लें</w>
कइ ले।</w>
क भी</w>
क बीर</w>
ऊ र</w>
उ पर</w>
? ”</w>
9 8
ा वल</w>
सु बिधा</w>
स ॉ
स दन</w>
वि राज</w>
व ल
व इसे</w>
ले क्
लिखा ई</w>
लग लन।</w>
लग ंज</w>
ल का</w>
राज द</w>
बहा व</w>
प्र तियो
पढ़ े</w>
न्याया लय</w>
ना ई</w>
द्वी प</w>
दे ह
त हार</w>
टि कट</w>
जमा त</w>
छप े</w>
घो ष</w>
गु ल
गा ड़ी</w>
खु दे</w>
खा स
क् लब</w>
कार ो
का ली</w>
कह लसि</w>
ए रिया</w>
उ त
आ कर्
अनु वाद</w>
अधि कार
3 8</w>
२० १
िय े
हि ट</w>
हा ,</w>
हउ वें</w>
से कू
सुप्री म</w>
सु ख
समा ज
सं प्र
स ार्
वि द्वान</w>
व ल।</w>
व ता</w>
ला भ</w>
रे श
रि ए</w>
मा ल
मा मला</w>
भग त</w>
बर् ग</w>
फे रा</w>
फ सल</w>
प्रतिनि धि</w>
नाग रिक</w>
न ता</w>
ती स</w>
झ ी</w>
जो ड़
जु ग</w>
जाय ,</w>
जल ि</w>
जग दी
चो री</w>
कि ंग
कइ ली।</w>
क ड़
क ़
उपा ध्या
उप महादीप</w>
इत्या दि
आ कृति</w>
अ ंदर</w>
o l
7 )</w>
6 5
! ’</w>
े श</w>
हो लें।</w>
स्वा गत</w>
सो निया</w>
सा ,</w>
स त्य
स जा</w>
श ्य
वा णी</w>
व नी</w>
रो के</w>
राजे श</w>
मान न</w>
म छ
बोला वल</w>
बी चा</w>
बन ल।</w>
प्रया स</w>
प ियन</w>
नि ष्
ध ियन</w>
ध ं
दु श्
दु आ
दा ना</w>
त्र ा
त् सव</w>
डि जि
टू ट</w>
जा ई
चा हे
गौ तम</w>
गि र</w>
ख ्
क्रि केट</w>
कु शी
का की</w>
कर ब</w>
ओ करो</w>
ए ही
ऊ ं
इंड स्ट्री</w>
अच के</w>
201 0</w>
19 0
ोज े
सि र्
स वार</w>
शा ही</w>
वै दिक</w>
ल रि
मुख ी</w>
मा लिक</w>
म )</w>
भे ंट</w>
भु ला
भ वि
बहा दुर</w>
बत वले</w>
ब ली</w>
ब जार</w>
फो र्
पक्ष ी</w>
प न्ना</w>
ना यिका</w>
ध री</w>
द ु</w>
जा ँ
जन् म</w>
ग्लेश ियर</w>
ग्रह ण</w>
गो र
गा वत</w>
खे ल
कर के</w>
ओ हिजे</w>
ए जे
उत्तर -
अभिने त्री</w>
अध ्या
अक्ष र</w>
अं दा
अ क्सर</w>
6 0
, 5
हा ई
ह ई।</w>
स्ट ो
सू र्
सरस्व ती</w>
शुरूआ त</w>
लाग े
र ियर</w>
मेडि कल</w>
मु कद
मी नू</w>
मा या</w>
बि ।</w>
बा हरी</w>
बहा ने</w>
प्रे मी</w>
प्रा य
प ्ट
नी ं</w>
दु आर</w>
दी पक</w>
ता प</w>
च न्द्र
को ड</w>
का ग
क ब
उ हाँ
इंड ियन</w>
अ मी
अ न</w>
4 0</w>
ह् न</w>
हम हूँ</w>
ह -
सी न</w>
सि न</w>
सि खा
स त्य</w>
शे यर</w>
शां ति</w>
वाद ियन</w>
व न
ला ना</w>
ला -
ल हर</w>
रख े</w>
यु ग</w>
य ि
मॉ डल</w>
म उ
भे ज</w>
बुझा इल</w>
बि ज्ञा
बाड़ ें।</w>
बद े</w>
फा ई</w>
प्र मंडल</w>
प्र ती
पहुँ च
पचा स</w>
प तो
नि वासी</w>
नि र
नि चला</w>
नइख े,</w>
दृ ष्टि</w>
दिह ला</w>
द ार्
ढ ा</w>
टी ,</w>
झू ठ</w>
जिम्मे दारी</w>
जाव ,</w>
जागर ण</w>
जा ँच</w>
च क्र
ग ड़
कि रा
कांग्रे सी</w>
का वे</w>
इं जी
इ श
आग रा</w>
अँ गरे
8 0</w>
18 5
10 0</w>
1 %</w>
हा दसा</w>
ह ं</w>
सी सी</w>
सर् व
समा चार</w>
सभ ्यता</w>
सत ह</w>
सक ते</w>
संस्था पक</w>
श्री वास्तव</w>
श् त</w>
वै ज्ञानिक</w>
वि वाद</w>
लग लन</w>
लं बा</w>
लं का</w>
रही त</w>
रउ वा</w>
र थ</w>
मौ र्य</w>
मिन ट</w>
महा भारत</w>
ब्रह् म
बहु मत</w>
प्रया ग</w>
पालि का,</w>
दो सरका</w>
तिवार ी,</w>
ड ,</w>
जा ति
जद यू</w>
जइ हें</w>
चै न</w>
गु ण</w>
गि क</w>
क्षेत्र ीय</w>
के रल</w>
कल् प</w>
कठ िन</w>
कइ ली</w>
क लन</w>
ए ंड</w>
अ र</w>
अ ई
ँ सी</w>
4 9
ऽ ता।</w>
ह से</w>
सहा यता</w>
सला ह</w>
विशे ष
ला त</w>
य ।</w>
मू ल्य</w>
मुज फ्
मान क</w>
मं जू
भ्र ष्टा
भवि ष्य</w>
भ क्त</w>
बुद् धि
बा ज</w>
बं स</w>
पड़ ी</w>
पा लन</w>
पड़ ेला।</w>
प िया
प ारी</w>
दि क्
झ रना</w>
जु न</w>
जय ंती</w>
चार ों</w>
गठ न</w>
का हे
का लेज</w>
कह ी
औ री</w>
आदर् श</w>
अके ले</w>
u r
3 %</w>
ह ना</w>
स हम
ष्ण कटिबं
वायु मंडल</w>
वाप सी</w>
व ार्ड</w>
ला क</w>
लड़ ि
रा ति</w>
रह लें,</w>
मो टर
मे री</w>
मुजफ् फर
मार त</w>
बि बाद</w>
बि धा
बि कसित</w>
ब वाल</w>
परिव हन</w>
निय ंत्र
निका ले</w>
नव म्बर</w>
द ।</w>
त् त
ड न</w>
ज् वाला
जी त
चु प</w>
ची त</w>
ग ारी</w>
काम काज</w>
कव ी</w>
कलक त्ता</w>
कई गो</w>
एयर ला
ए ड
उच्चार ण</w>
उ मी
उ ज्
इ जा</w>
आ ई।</w>
अब ही</w>
ं -
e r</w>
201 3</w>
हो लें</w>
हिमा ल
ह ट
स् कू
सुर क्षित</w>
सि र
सर ल</w>
स हीं</w>
वा ला,</w>
लो हा</w>
र् ष
रोह ता
मौजू दगी</w>
मुम् बई</w>
मिल ला</w>
भ ला</w>
बि ल
बंगा ली</w>
प्र ोजे
प्र चार
परि वार
पर चा</w>
प वि
धि कारी</w>
दु कान</w>
जि ला
जर् मनी</w>
जं तु</w>
ज ॉ
ज री
ज मा</w>
खा इल</w>
ख़ ा
ख ्या
क् ल
क् य</w>
का ।</w>
अंतरि क्ष</w>
अ प्रे
अ चर
ंड े
ं कन</w>
6 0</w>
1 )</w>
्रा म</w>
ु आ</w>
सि र</w>
स ड़क</w>
ष ा</w>
श ्या
श ु</w>
ली -
लाय म</w>
रि सर्च</w>
मो का</w>
मै ने
मह ल</w>
म जू
ब्रा ह्
बि ग</w>
बि का
बा ढ़</w>
बन् ध</w>
ब हि
प्रो फे
पांडे य</w>
पा स
पा खी</w>
न हा
दिह ली।</w>
डे ल्
डिजि टल</w>
जि ला,</w>
ज रा
छ ठ
ग्रु प</w>
गि रो
कु र्
कु न्ती</w>
कु कुर</w>
कु ं
क )</w>
ए को</w>
अम ृ
अप्रे ल</w>
अन ु</w>
अइसन का</w>
9 5
हम् मद</w>
स्तू प</w>
स् पी
सिद्धा ंत</w>
सम ्रा
सब् जी</w>
सं स
स च
श ियल</w>
ला ठी</w>
लव ट
लगा वत</w>
रह ा
र त्
य े
मा ओ
म लि
भे ज
भार त
फइ लल</w>
प्रतियो गिता</w>
प्प ू</w>
पर सिद्
नि हार
नि बंध</w>
नव हियन</w>
दै निक</w>
दे के</w>
दु गो</w>
दी य</w>
दि रा</w>
दाय िक</w>
डे टा</w>
ज्यो ति
ज् ञ</w>
जा पुर</w>
ख टिया</w>
क्ष मता</w>
कू ट</w>
कु सु
कारि ता</w>
ई मान
इस्ला म</w>
इ म्
अ फ़
अ जीत</w>
e l
7 5
3 8
हिं सा</w>
स्वी कार</w>
सिर् फ</w>
साथ े-
सक्र िय</w>
श् वे
वी ,</w>
लिह लें।</w>
लिख ित</w>
रे शन</w>
मि ता</w>
मह सू
मजबू री</w>
म जा</w>
भे द</w>
प ड़</w>
न् ‍
नौ करी</w>
नी लम</w>
नगर ,</w>
न ियाँ</w>
ध ियान</w>
दि सम्
तुल सी
त मिल</w>
ट ्रां
ट ्यू
झ ंडा</w>
जन रल</w>
ज मानत</w>
छ न</w>
चौ धरी</w>
चु पचा
चा इ
चहुँ प
गुज रे</w>
को ना</w>
कु ला</w>
कि सा
कस् बा</w>
ए प्
ए क्ट
इन् त
अदि मी</w>
अ स्थापित</w>
7 0
िय ार
ार ि
हिं दु
हि ए</w>
हनु मान</w>
स् क्र
स् को</w>
से न</w>
सुन ि</w>
सि ंग</w>
समा जवा
सब ू
स उँ
श ्य</w>
वा न
लड़ ाई</w>
लि का</w>
रि सी</w>
रह ल
मो ह</w>
मु काब
मान सून</w>
म णि
बात चीत</w>
बा ने
बना व
ब ढ़</w>
ब धा
ब करी</w>
प्रिय ंका</w>
प्र गति
धारा वाहि
देख ऽ</w>
द ्यो
तनि को</w>
जव ने</w>
चुनौ ती</w>
च ो</w>
घा स</w>
गुप् ता</w>
ग ड़
कार ा</w>
क ड़ी</w>
उत्तराख ंड</w>
आ चार्य</w>
अन् हार</w>
अइ ला</w>
i l
i a
8 )</w>
( ;</w>
े क</w>
हो ं
हथ ियार</w>
ह वा
सू त्र</w>
सहा यिका</w>
सफ र</w>
सं वाद</w>
सं कट</w>
श नी</w>
वेब साइ
वे स्ट
वि भिन्न</w>
वि जय
वा त</w>
लिह लसि</w>
लग व
ल ह
र िया
या ,</w>
मुकद मा</w>
भा गी
बु र</w>
बा र
बं दी</w>
प्रभा वित</w>
पे ड़</w>
पु ण
पाकिस्ता नी</w>
परे शा
पट ्ट
नी -
निर् वा
न क
दिसम् बर</w>
दिक् कत</w>
दि खा
त्य ो
तनि का</w>
त व्य</w>
ढ ु
डि जा
ड ॉ</w>
टै क्स</w>
टे ली
छ त्
चुपचा प</w>
चउ था</w>
घ न</w>
गँ वे</w>
खे ले</w>
ख त</w>
क् की</w>
कै मरा</w>
करा र</w>
कर ि</w>
कत हीं</w>
क पूर</w>
उन की</w>
उद य</w>
उठा वे</w>
इन् हन</w>
आप सी</w>
आ शा</w>
अव स्था</w>
अनु सार
अट लां
अंग्रे जी</w>
ं श</w>
c h
9 4
74 4</w>
4 5
1 1
ही ं।</w>
हि म्मत</w>
स् मृ
सं के
ष ी</w>
शी लता</w>
वा ज</w>
वर् तन</w>
वर् ग
व रि
लड़ िका</w>
लग ले</w>
रो मन</w>
यु वा</w>
मौजू दा</w>
मेहरार ू
मिता भ</w>
भार ती</w>
भ व
बी न</w>
बा वे।</w>
बा नी,</w>
बना वत</w>
बच पन</w>
प्रो ग्राम</w>
पिं टो</w>
पा पु
पत ई</w>
प ऽ</w>
प स
प बि
नो करी</w>
ने ता
नी ल</w>
ना -
न ्यू</w>
न स</w>
न मू
दा ई</w>
थ म</w>
ती नो</w>
त वना</w>
टु कड़ा</w>
जे हसे</w>
ज िया</w>
छू ट</w>
गो ं</w>
गं भी
कि हाँ</w>
ऊ हे</w>
उप ग्रह</w>
ई या</w>
इस ने</w>
इण्ड स्ट्री</w>
आवा स</w>
अने सा</w>
अटलां टिक</w>
e )</w>
4 6
ोज ी
ी )</w>
हम ारी</w>
ह ृ
स्व तंत्र</w>
स्ट ि
सा मू
सा उ
सह ारा</w>
समु ंद्र
सब का</w>
स हित</w>
वे ं
विश्व विधा
लाग े।</w>
ल ियम</w>
रोहता स</w>
राज ीव</w>
राख ी</w>
मंत्रा लय</w>
भार त,</w>
बड़ ी</w>
बानी ं</w>
बह स</w>
बइठ ि</w>
पु रुब</w>
पबि त्र</w>
पत्र कारिता</w>
पत् थर</w>
प ।</w>
प प्पू</w>
ना लि
ना न</w>
धे श</w>
ध ो</w>
द् द</w>
दिह ल।</w>
दा श्त</w>
ता कि</w>
तर् क</w>
तइ यारी</w>
डे ग</w>
टि ल</w>
टा न</w>
टा ई</w>
जा ली</w>
चा चा</w>
चंपार ण</w>
गो पाल</w>
गु ना</w>
गिना वल</w>
खु द
कु श
की ल</w>
कह ेला</w>
कर् म</w>
कबो -
कज री</w>
इश ारा</w>
आ स</w>
u s</w>
p h
(अंग्रे जी
" ।</w>
। "</w>
हम न</w>
स् वर</w>
सि पा
समाजवा दी</w>
सक ता</w>
संघ े</w>
सं बिधान</w>
स सु
शे ख</w>
शु भ
वि रा
वर् ड</w>
ली ग</w>
लक्ष ्य</w>
ल लि
मे रे</w>
मा ँ</w>
बे ड
बद मा
बत िया</w>
बइठ क</w>
फे नु</w>
पार ि
पर ब</w>
पं च
ने ह</w>
ने तृ
दो स्त</w>
दु बारा</w>
द स
ती सरा</w>
ति त्व</w>
ड्रा इ
ड ियो
जी ते</w>
जा पान</w>
जा ग
जगदी श</w>
जंग ली</w>
चौ पाल</w>
च ारी</w>
गइ नी</w>
ग वर्
खै र</w>
खु ला</w>
खा न
कै रियर</w>
कि रिया</w>
क ना
औ रि</w>
एक ता</w>
ई मेल</w>
इ हां</w>
अव धेश</w>
अब हियों</w>
अचर ज</w>
अ झु
अ चानक</w>
अ गु
ंद ु</w>
ंड ी
200 8</w>
2 )</w>
,  
हो ते</w>
हा ।</w>
हा व
सा फ
सम्रा ट</w>
स फाई</w>
स टल</w>
वा ला।</w>
वा दा</w>
लो केशन</w>
ली स</w>
लाग ी।</w>
रो ं</w>
म् ब
मै ं</w>
मा ण</w>
महसू स</w>
भ्रष्टा चार</w>
भाषा -
भा वित</w>
ब्रि टेन</w>
ब् दी</w>
बो ला</w>
बि लियन</w>
बा ग</w>
बा ग
बत ंग
फ् ट</w>
फे स
फ ॉ
प्रस्तु त</w>
पूर ब</w>
पर धा
प ढ
निर् भर</w>
नि म्
दो सरे</w>
दबा व</w>
दक्खि न-
था ला</w>
ति रु
ट वारा</w>
ट "</w>
झा ड़
जे ट</w>
छत् तीस
चार िक</w>
ग् लो
गिन ती</w>
क् ला
क् कर</w>
के श
कुशी नगर</w>
क पड़ा</w>
ऋ षि</w>
उद य
उठ ल</w>
उ ड़
उ छा
ई साई</w>
इ रा
अइस हीं</w>
अ मिताभ</w>
अ तिथि</w>
अ क्षा
i on
18 8
्यु नि
िल् म</w>
ही ,</w>
सै निक</w>
सु भा
साइ ज</w>
संस् करण</w>
शा ह
शा सक</w>
वे -
वि पक्ष</w>
व क्ता</w>
लो गों</w>
लि टी</w>
ल व</w>
रा केश</w>
र ियो</w>
यू पी
मंग ल
भू ति</w>
बुझा त</w>
बु ढ़
ब ड़ी</w>
प्रदेश ,</w>
पी ढ़ी</w>
पि क्
पर दा</w>
नि वे
ना हियो</w>
ना या</w>
नज रिया</w>
न ए</w>
ध रो
दे ं
दर् जन</w>
तु म</w>
त पुर</w>
ड् स</w>
टा वल</w>
ट ्रा
झ े</w>
झ ि
जो न</w>
जि ए</w>
ज बर
छोट हन</w>
च् छ</w>
चर् चित</w>
च ,</w>
घा टन</w>
गोपा लगंज</w>
गाय ब</w>
गा य</w>
खरी द</w>
ख ्या</w>
को रिया</w>
के स</w>
का यदा</w>
करे ,</w>
कठ ो
अल् प
अम र</w>
अध्य क्षता</w>
अंतर राष्ट्रीय</w>
अंग ु
अं जन</w>
r o
9 .
1 ,0
हिन्दु स्ता
स्टे डियम</w>
स् मार
स् प
से ंट</w>
साथ ी</w>
सा ईं</w>
समुझ े</w>
सभ के</w>
संख ्य
सं रचना</w>
स ऽ</w>
स कल</w>
शे र</w>
ले षण</w>
लिह लस।</w>
ल हीं</w>
ल ंदन</w>
रो ग</w>
रे- धीरे</w>
रि पब्लिक</w>
राजनी ति
या त</w>
मो चन</w>
मन मोहन</w>
म री</w>
बि जने
बा स</w>
बधा ई</w>
बढ़ े</w>
प ची
नेतृ त्व</w>
ना त</w>
धी रे-धीरे</w>
द्र ा</w>
दो ष</w>
दे स
दृ श्य</w>
द म
डे रा</w>
ट्र ै
जर् मन</w>
चा ँ
चरि त्र</w>
च ्य
गि रे</w>
ग ए</w>
खो ल</w>
के कर</w>
कुसु म</w>
का नपुर</w>
क पार</w>
क तने</w>
क ईल</w>
ओ रि</w>
ओ डि
ए ँ</w>
उप े
उद् देश
उ म
उ ं
आ ला
आ राम</w>
ंड ,</w>
i g
a ")</w>
9 7
4 8
्र ु
सो न
सु भाव</w>
सि क
सर की</w>
सभ कर</w>
सबू त</w>
संस दीय</w>
सँ गे</w>
स हर</w>
स ता</w>
शि क्षा
व्य ं
वे ट</w>
विश्व विद्याल
रा ग</w>
रह ित</w>
या नि</w>
मॉ री
मी ता</w>
बढ़ ल</w>
बू झ</w>
बिग ्या
बि ं
बाद शाह</w>
बं ध
ब सपा</w>
प्र सारण</w>
प्र योग
पे ज</w>
पा ई।</w>
नेपाल के</w>
नमू ना</w>
धि कार
दु र
दी ं।</w>
दर वा
जु र्
जा दा</w>
ज ला
ज रिए</w>
छ ी</w>
चहुँ प</w>
गिरा वट</w>
खे लल</w>
खा ता</w>
ख ल
किंग डम</w>
करे ले।</w>
कब् जा</w>
कइ नी</w>
उमे श</w>
उत् सा
उ तर</w>
ई हो</w>
आत् मा</w>
आ श्रम</w>
अम री
अं तर्
अ सल
अ जय</w>
- ब
्य वाद</w>
होख ले</w>
ही न</w>
ह ारे</w>
स्मृ ति</w>
स्पे स</w>
सा त
सउँ से</w>
शि वा
शहर न</w>
लो चन</w>
ले खि
र् थ</w>
रिश् ता</w>
र )</w>
मा दा</w>
म ँ
भोजपुर ियन</w>
बे स्ट</w>
बद लत</w>
प्रोड ्यू
प्र सार</w>
प्र चलन</w>
परि क</w>
परधा नमंत्री</w>
प ल्
प ड़ी</w>
न् ति</w>
ना य
ना थ
धं धा</w>
ध म
द् धि</w>
दि नेश</w>
तै यार</w>
डिजा इन</w>
ज्वाला मुखी</w>
जु आ</w>
जा ई,</w>
ज़ ी
जग हन</w>
ची जन</w>
चहुँ पल</w>
चर् च</w>
के जरी
कु ँ
कारा त्मक</w>
का ल
का मे</w>
कव नों</w>
करे जा</w>
कबो- कबो</w>
क ।</w>
ओ म</w>
एक् के</w>
उम्मी दवार</w>
उत्पत् ती</w>
उ तार
आलो चना</w>
अर्थ ब्यवस्था</w>
अ ज
s t
o m
7 7
3 5</w>
3 )</w>
200 0</w>
ही रो</w>
हँ वा</w>
सेकू लर</w>
सि राहा</w>
सि न्
सामू हिक</w>
समु झा
सं देश</w>
स व
स गर
श ौ
श त्र
वि मल</w>
लो गो</w>
ले व</w>
ला र</w>
ल ्यू
ल लित</w>
रह लीं</w>
र ले</w>
मार ल</w>
मसा ला</w>
मज दूर</w>
म शी
भा वु
भर ि</w>
भइ ले</w>
बि चार
ब रो
प्र माण</w>
पर माण
नि देश
द् ध
दू गो</w>
दि ल
द रा
त्यो हार</w>
तुर ते</w>
ण िक</w>
जन मल</w>
च ं
गिरो ह</w>
खे ला
खर चा</w>
क् लास</w>
कार ो</w>
का य
कर व
क दम</w>
ए शन</w>
ऊं चाई</w>
उत्पत् ति</w>
o n</w>
7 0</w>
. 6
ॉर् क</w>
िया वे</w>
हम ारे</w>
ह ले</w>
स् वी</w>
सू खा</w>
समृ द्ध</w>
संर क्षण</w>
स ङ
शो ध</w>
वर् णन</w>
लि ंक</w>
रो मां
रे डियो</w>
यूनि वर्सिटी</w>
मे न</w>
मिर् जापुर</w>
मा उंट</w>
मा ंग
मह ज</w>
मग ध</w>
म ण्ड
भाग ्य</w>
बे टा
बे चे</w>
बर म</w>
बन् दी</w>
बद ल
बतव लन</w>
ब हरी</w>
फि किर</w>
प्र सिद्
प्र णा
पाण्डे य,</w>
परमाण ु</w>
प -
न्या य
न ं
धारावाहि क</w>
ध ्रु
देव ।</w>
दिह लस</w>
ती नों</w>
तिहा सिक</w>
त न
ड ब्
ट्ट ा</w>
जे में</w>
ज ना
घ ा</w>
कह ब</w>
करी हें।</w>
कबि ता</w>
कइ लेन।</w>
क थ
इस् ती
आग ि</w>
अस् तित्व</w>
अस म</w>
अभि व्यक्ति</w>
अप न</w>
अंग्रे ज</w>
200 9</w>
िय र
ारा म</w>
ही रा</w>
ह प्
स् वि
सै न</w>
सु नल</w>
सी बी
साथे- साथ</w>
स च्
श न,</w>
श ता
वि वि
वार िक</w>
व ई</w>
लग ले।</w>
ल पुर</w>
रे ली</w>
राज्य सभा</w>
यूरो पीय</w>
मॉरी शस</w>
मु लायम</w>
मु र
मान स</w>
मा द</w>
म ै</w>
बै॰: "
बिहार ,</w>
बानी ं।</w>
फे ड़</w>
प्रस्तु त
पो ं
पी ढ़ी</w>
पहिल ही</w>
परेशा नी</w>
नो ट
द शा</w>
त् म</w>
ट् वी
ट क्कर</w>
जोर दार</w>
जे के</w>
जु ट</w>
जि स
जा दे</w>
जन क</w>
छो र</w>
च्य वन</w>
गै लेक्
गुज रा
को र</w>
की य</w>
कार ्ट
का -
कम ्युनि
ऑफि स</w>
ऊ हो</w>
उपाध्या य</w>
उप जा
उ ष्णकटिबं
इ च्छा</w>
आदि त्य
हिन्दू वन</w>
हा थी</w>
स्ट ै
सो ना
सेवा ओं</w>
सु धार
सिं ह
सा स</w>
संके त</w>
स हे
स भा
विद्य ार्थी</w>
लव टत</w>
ल ल
र् चा</w>
रू स</w>
यं त्र</w>
य मुना</w>
मे रा</w>
मे घ
मुजफ्फर पुर</w>
मु क्त</w>
मि थि
मान ,</w>
मरा ठी</w>
मनो हर</w>
मज हब</w>
बढ़ ा
बिबि धता</w>
बान् ह</w>
बा ;</w>
बता व
ब संत</w>
प्रस्तुत कर्ता</w>
प्र ण
पि क</w>
पा वत</w>
पश्चि मी</w>
पर भावित</w>
प ला
नि ए</w>
ना मी</w>
न ारा</w>
न म
दे री</w>
दे ब</w>
दू नू</w>
दर द</w>
द री</w>
ता ड़
डी ह</w>
झारख ण्ड</w>
जा इल</w>
चे न्
गो वा</w>
गां व
गा ल</w>
गा न</w>
गइ नी।</w>
ग ना</w>
खाति र,</w>
ख न</w>
ख तर
कोय ला</w>
के ला</w>
कृ ष्ण
कृ षि</w>
कल्या ण</w>
उल् लेख</w>
उपा ध्यक्ष</w>
उद् घाटन</w>
इंत जार</w>
इ टली</w>
आ उ
अर् जुन</w>
अ त्या
9 6
3 9</w>
3 2</w>
200 6</w>
(अंग्रेजी :
… .</w>
फ़ िल्म</w>
हु गली</w>
हर ियर</w>
स्ट ्री
सू र
सुरे श</w>
सी ना</w>
सार् वज
संग ्राम</w>
स ृ
स भी</w>
श क</w>
व्यव हार</w>
वे ं।</w>
वा हन</w>
वा ना</w>
वर् ण
वर ण</w>
व न।</w>
ले श्वर</w>
ली ला</w>
लग नी</w>
रे ,</w>
राख त</w>
रा हत</w>
रह लीं।</w>
मै ं
में )</w>
मे र
म ।</w>
म रे</w>
बो र्
बे कार</w>
बुढ़ ऊ</w>
बतिया वे</w>
फेस बुक</w>
पुरा ण</w>
पापु लर</w>
पहुँ चल</w>
पह ले</w>
पवि त्र</w>
पर ल</w>
प ोजी
प ण</w>
निय ु
न दी,</w>
धरो हर</w>
दू सरी</w>
द स्त</w>
ठ ं
ट -
झाड़ ू</w>
जे ता</w>
ज मुना</w>
छ ी
छ ल</w>
चे तना</w>
घा त</w>
ग ,</w>
खास ियत</w>
ख ो</w>
का वल</w>
कर म</w>
क म्
क प</w>
क "</w>
ओ करी</w>
ई .</w>
आ रो
अनुसार ,</w>
अ हिजा</w>
9 )</w>
4 5</w>
स् ‍
स् तं
स् के
सु न्दर</w>
सार्वज निक</w>
साँ स</w>
समझ े</w>
सत ौर</w>
सं धि</w>
शि ला
लॉ जी</w>
लिख त</w>
लि मि
लव टि</w>
यू नानी</w>
माया वती</w>
म ले
भे जे</w>
भी री</w>
भा ई
भग वती</w>
भ ठ
बांग्ला देश</w>
बा दे</w>
बढ़ा वा</w>
ब हत</w>
ब चल</w>
पढ़ ल</w>
प रहे
निका लल</w>
नाँ व
ना ही</w>
ना ता</w>
ना ं
न वासी</w>
न तीजा</w>
दौ रा</w>
देखा वत</w>
दी प
द या
तकनी की</w>
त ः</w>
ज वार</w>
ज ता</w>
चा वे</w>
गौर व</w>
गी र</w>
गण ित</w>
गण ि
ग ंग
खु ल</w>
खा सतौर</w>
कू ल्
क ्यू
ओडि शा</w>
ओ ।</w>
ऑ न
ए ।</w>
ए कल
उदय पुर</w>
आप ने</w>
अहम द</w>
अन् ना</w>
अँ जोर</w>
r e
o g
194 7</w>
. 0
्र ा</w>
ि के</w>
ही ं
हिन्दु वन</w>
हा थ
ह ड़
सू रज</w>
सु हा
सं भावना</w>
स फे
ष ेक</w>
शी ला</w>
श ,</w>
वर् ल्ड</w>
लो नी</w>
ला ँ
राजन े
रा खे
रवि किशन</w>
यूरो पियन</w>
याद व,</w>
मोटर साइकिल</w>
मुख र्जी</w>
मु ताबिक</w>
मा लि
बाँ ट</w>
बा बु
बा जार
बा |</w>
बर ियार</w>
ब ती</w>
ब चा</w>
ब कुला</w>
ब ई
प्र दर्श
पी ट</w>
पि ंड</w>
परि वर्तन</w>
प थ
न्यू जी
नियंत्र ण</w>
निकल त</w>
नइख ी</w>
ध रा</w>
दो बारा</w>
देख ला</w>
दि सा</w>
द ह
ण ी
डेल् टा</w>
टे न
ज् म</w>
जो ड़ी</w>
जो ग
जाय े
जा हिर</w>
छो टा</w>
चो ट</w>
चै न
चक् र</w>
च त</w>
च ंद</w>
गु ण
ग ंड
कोशि का</w>
कार ्र
करो ड़
कम रा</w>
कइ लेन</w>
क सा
क मान</w>
उद्देश ्य</w>
इस्ला मी</w>
इस्ती फा</w>
इ ल।</w>
आव ते</w>
आतंक वाद</w>
आ ईं</w>
अश् ली
अथ वा</w>
a l</w>
7 8
6 )</w>
5 5
3 4</w>
हो ती</w>
हिमाल यी</w>
हा जि
स्टे ट</w>
स्टा इल</w>
सुन ले</w>
सु शील</w>
सार नाथ</w>
सा लाना</w>
सर् वे
ष क</w>
शता ब्दी</w>
श ही
श न
वि कसित</w>
वार ि
व जन</w>
व कील</w>
रामा यण</w>
रा हे</w>
र द्द</w>
मौ सी</w>
मुकाब ला</w>
भु ग
भावु क</w>
भ ंडा
ब्रह्म पुत्र</w>
ब्रह् मा
बै ल</w>
बै ठ
बाड़ ू</w>
बरी सन</w>
बर ,</w>
बतिया वत</w>
बतंग ड़</w>
पढ़ ाई</w>
पढ़ ल</w>
पो खरा</w>
पा ट</w>
परहे ज</w>
प ढ़</w>
प ना
ने -
न व</w>
न के</w>
न ंद
दा ता</w>
तत् त्व</w>
टो ला</w>
जे पी</w>
जर िये</w>
छोट- छोट</w>
छा त्र</w>
चला वत</w>
गो हार</w>
गो ला</w>
गुला म</w>
गा इ
गर् मी</w>
खे लत</w>
कुछ ु</w>
कु कु
कु की</w>
कि शोर</w>
कार े</w>
क मे
क मिश्
ऑ स्ट्रेलिया</w>
एह ि</w>
एयरला इंस</w>
इं जन</w>
इ यन</w>
आप ा</w>
आ ,</w>
अब तक</w>
अन ू
अक बर</w>
अँगरे जी</w>
अ मित</w>
अ ंड
ं टन</w>
ज़ ा
्य न</w>
हिं दी
ह े।</w>
सें टर</w>
सु ल्
सु नव
सी लोचन</w>
सी खे</w>
समर् पित</w>
सभ ,</w>
सक ल।</w>
सं पन्न</w>
शुक् ल</w>
विधा य
वि ल</w>
वर न</w>
लो ं</w>
ले -
लू ट</w>
ला ;</w>
लक्ष् मी</w>
लक्ष् मण</w>
रूप िया</w>
रु ख</w>
राष्ट्र भाषा</w>
रा ।</w>
रा व
र वी
र खा
य हाँ</w>
मु क्
म स</w>
म "</w>
भाष ित</w>
भ ी।</w>
बी या</w>
बी तल</w>
बा ज
बला त्कार</w>
ब लि
ब राम
ब -
फ़ ा
प्रोफे सर</w>
प्र ताप</w>
पूर् ब</w>
पू छे</w>
पुर् त
ध ्या</w>
द् धा</w>
देख ी
दिह ली</w>
दि वाली</w>
दा ल</w>
द वाई</w>
थल रूप</w>
तृ ण
ति -
त स्
त प
डा ले</w>
टि स</w>
जो ड़ी</w>
जी वी</w>
जि कल</w>
चे क</w>
चा य</w>
ङ ्
गैलेक् सी</w>
गुला ब</w>
गति वि
खा ड़</w>
की मत</w>
का न्त</w>
करे ं
करी बन</w>
कर न</w>
ओह में</w>
ए के
ई स
आप को</w>
आ फत</w>
अव तार</w>
अइस नो</w>
अंदा ज</w>
ंग र</w>
ं स
in g
200 5</w>
20 0</w>
।  
है दरा
ह िय
स्व रूप</w>
स्तं भ</w>
से स</w>
सी ल</w>
संबो धित</w>
संख्य क</w>
सं कलन</w>
ष ा
श्वे ता</w>
श य</w>
वि ंडो</w>
वा पि
वर् धन</w>
लो ड</w>
लेखि का</w>
लिह लें</w>
ला ज</w>
लघु कथा</w>
ल िये</w>
ल च्छ
रि पोर्ट</w>
राज स्था
मि शन</w>
मन् दि
म गढ़</w>
म कान</w>
भो ला</w>
बेड कर</w>
बे सिन</w>
बि ला</w>
बा मा</w>
बल ियाँ</w>
ब ंदर
प्रे र
पुरु ष
पा गल</w>
पहि ल</w>
पछि ला</w>
पंजा बी</w>
न्यूजी लैंड</w>
नि भा
न कल</w>
दु नियाँ</w>
दिह नी</w>
दरवा जा</w>
तो रा</w>
ते ं</w>
ति र
ता ई</w>
तक नीक</w>
त वा</w>
डा .</w>
ड ल
ट्र ो</w>
झ लक</w>
च स्
गा व
गर ,</w>
गद् दी</w>
गं ध</w>
कूल् हि</w>
की ,</w>
का लि
का बू</w>
कहा ला।</w>
ऑ र्
उठा वल</w>
इत्यादि ।</w>
इंजी निय
आइ ल,</w>
अन देखी</w>
अके ला</w>
अंगरे ज</w>
अ ग्र
अ ंद
ंद री</w>
y )</w>
u n
a c
5 )</w>
200 7</w>
. 5
ार ,</w>
हों ने</w>
हउ वन</w>
ह टे</w>
स्पे न</w>
स्ट ू
से ल</w>
सि रि
सार ित</w>
सा ई
स ल्
श्रे ष्ठ</w>
श्री लंका</w>
श्या म</w>
शिव सेना</w>
वि धे
वापि स</w>
वा सियन</w>
वर् गीकरण</w>
लिह ले।</w>
लई का</w>
र् ना
रह नी।</w>
र वा</w>
र म
य ॉर्क</w>
मै दानी</w>
मान वीय</w>
महारा ज</w>
मन ई</w>
भोजपुरि का</w>
भि तरे</w>
बे वस्था</w>
बा इ
बर सात</w>
बन वावल</w>
बँ टवारा</w>
ब ऽ</w>
ब द्ध</w>
फ्रां सीसी</w>
फो टो
फे यर</w>
प्रोजे क्ट</w>
प्रा थ
प्रति भा</w>
प्र भु
पारि वारिक</w>
पा वे।</w>
परि भाषित</w>
नि ज</w>
ना गिन</w>
न वी
तुलसी दास</w>
तत् कालीन</w>
त स्वी
त रा
त ट</w>
ड् डी</w>
ठो स</w>
टी सन</w>
जा ले,</w>
ज दि</w>
छोड़ ि</w>
चु न</w>
गृ ह
गीत गवनई</w>
गा ई</w>
खा ये</w>
खा ,</w>
खतर नाक</w>
ख ंड
कार्र वाई</w>
क ने
ऑन लाइन</w>
ए म्
उम्मी द</w>
इं दिरा</w>
आसा नी</w>
आर् य</w>
आधु निक
आ वे।</w>
अरवि न्द</w>
अपरा धी</w>
अना ज</w>
अखि ल</w>
ड़ त</w>
ू ,</w>
हो ई,</w>
ह ऽ
स् त्र</w>
सो चल</w>
सू रत</w>
सिपा ही</w>
सिने मा
सक ी।</w>
सं तान</w>
स वा</w>
श् न</w>
शु भ</w>
शिव जी</w>
श क्ति
व्यं जन</w>
विश्व नाथ</w>
वि मोचन</w>
ल् ट</w>
लोक गीत</w>
लिह लन।</w>
लाइ ब्रे
लक्ष् मी
रे गि
रू नी</w>
रि जर्
मो शन</w>
मु ला
मी ल</w>
मत ारी</w>
बढ़ त</w>
बुझा ता</w>
बिजने स</w>
बि ंदु</w>
बाटे :</w>
बा रह
बा ते</w>
बहा ली</w>
बर् गीकरण</w>
ब हरा</w>
ब ह</w>
प्रा ण</w>
पोजी शन</w>
पू री</w>
पाव ल।</w>
पा ली</w>
पर्यावर णी</w>
परी त</w>
पर ल।</w>
निदेश क</w>
धु री</w>
धी य</w>
ध ु</w>
दु प
दाखि ल</w>
त्रि भु
त ारे</w>
त त</w>
ड़ा ,</w>
ड र
ट्र ि
ट ं
जू ता</w>
ज़ ि
जइ हें।</w>
ज तव
चु ने</w>
चा लीस</w>
चल ऽ</w>
गु न
गर मी</w>
कै ं
के ंद्र
कु छे</w>
की न</w>
कारो बार</w>
कहा ए</w>
करें इसे</w>
करे ले</w>
ओह से</w>
ए से</w>
ए इजा</w>
उन् होंने</w>
उतर ल</w>
उ प</w>
इ मेल</w>
आद र</w>
आ शी
अभि षेक</w>
अख बा
u l
1 वाँ</w>
ौ ली</w>
े द</w>
होख ो।</w>
हो ने</w>
हि र
हप् ता</w>
हउ वें।</w>
ह र्
ह नी</w>
ह ड़
स् ना
सोच ले</w>
सो हा
सो नल</w>
सो ं</w>
सु ल
सित ारा</w>
सर् वे</w>
सं चार</w>
स दा
स टी
शि प</w>
वा इस</w>
लड़ ि
लोक प्रिय
लाइब्रे री</w>
लग ली।</w>
लउ कल</w>
मौ सा</w>
मो ं</w>
मू र</w>
मुर् गा</w>
मु केश</w>
मी ठ</w>
मि श्रा
मि लन</w>
मि नी</w>
मां कन</w>
मन सा</w>
म ्या
ब्रि ज</w>
बी त</w>
बि चला</w>
बर करार</w>
बद लल</w>
बंग ला</w>
फ़ ी</w>
पड़ ा</w>
प्राइ वेट</w>
प्रणा ली</w>
पो स्ट
पू ं
पर्या प्त</w>
परि सर</w>
पद् म</w>
पत् ता</w>
पड़ त</w>
प ू</w>
नी ’</w>
नी त</w>
नि को
नारा ज</w>
ध नु
द् वा
देखा ई</w>
देख े
दुल हिन</w>
दु ल</w>
दी या</w>
द िया
द िय
ती रे</w>
ती र</w>
ति त</w>
त न्
णा चल</w>
डा ँ
ठं ढा</w>
टेन मेंट</w>
टि न</w>
जिन कर</w>
ज़ ा
च -
गे ट</w>
ग -
ख़ा स</w>
को च</w>
की करण</w>
काल् ह</w>
कार ्य</w>
करे के</w>
कर वा</w>
कई ले</w>
क बी
औ प
ए न्
उत्सा ह</w>
उ ठ</w>
ई श्वर</w>
इ ब</w>
आस मान</w>
आ फ</w>
अन् तर
अइ ले</w>
अ ली
अ भाव</w>
i d
I n
? “</w>
7 5</w>
4 )</w>
	 .</w>
ोज न</w>
े र</w>
हो ई
हर ो</w>
ह ल्ला</w>
स्ट िक</w>
से ल्
सुन वाई</w>
समु द्र
समी क्षा</w>
सभ ्य</w>
सफे द</w>
संबो धन</w>
स ह</w>
स ता
शि ल्
शा सित</w>
श निक</w>
वै श्
वि का
वि ं
वार् ता</w>
वगै रह
व इसहीं</w>
ल् ला
लोक पाल</w>
लड़ े</w>
लग ि
रुप या</w>
रह ी,</w>
मो नालि
मैने ज
मे श्वर</w>
मा फी</w>
महा द्वीप</w>
भाष ाई</w>
भ ु</w>
बाँ के</w>
फ्ट वेयर</w>
फार् म</w>
फ ान</w>
फ इला
प्रती क</w>
पा हि
पा ल
पर े</w>
प वले</w>
प ठ
प ँ
नी रज</w>
नि बन्ध</w>
ध रा
दे वाल</w>
दु न्
दि ग्
दा माद</w>
दर बार</w>
द ंगा</w>
थ ी
त ब्
त नाव</w>
त )</w>
ढ ी</w>
ड ू</w>
टे ं
ट ।</w>
ट ला</w>
ज्ञ ा</w>
जाय ज</w>
छा त्र
ची न्
चि कि
चा उर</w>
च ारा</w>
घ रा
ग् गा</w>
गुं जन</w>
गु रू</w>
गि री</w>
गर दन</w>
ख इ
क् वा
को त
कै से</w>
केजरी वाल</w>
कू द</w>
का ला</w>
का ंड</w>
कउ नो</w>
क पि
ओ बामा</w>
ओ प
आदित्य नाथ</w>
अफ़ ्रीका</w>
अंद रूनी</w>
6 5</w>
6 4</w>
5 00</w>
3 3</w>
200 4</w>
। “</w>
। ’</w>
ौ ती</w>
ा त</w>
हिमा चल</w>
स्प ष्ट</w>
साम ना</w>
सर ,</w>
सगर ो</w>
संचा लित</w>
स न,</w>
वे शन</w>
वे ल्स</w>
विधे यक</w>
वरि ष्ठ</w>
लोकप्रिय ता</w>
लिमि टेड</w>
लि खे
लच्छ न</w>
र् न</w>
रो इन</w>
रू म</w>
रू ण</w>
राज न</w>
रा शि</w>
रा र</w>
रा धा
रा उ
रचना त्मक</w>
र स्ता</w>
या ।</w>
य ार
मै ना</w>
मे ट्रो</w>
मु आ</w>
मान व
मान ता</w>
मा ई,</w>
भी ड़</w>
भ ि</w>
भ रे</w>
बी डियो</w>
बिसे सता</w>
बिल् डिंग</w>
बि ष्ण
बा जा</w>
बर दाश्त</w>
बने ला।</w>
बंग ला
फोर् निया</w>
पु स्त
पाव त।</w>
पा वर</w>
पा तर</w>
पहि चा
पहा ड़
पस न्द</w>
प नी
नि पट
न ’</w>
दो स</w>
दो ं</w>
दि साईं</w>
द ही</w>
द म्
द बा</w>
ते रह</w>
त रह
डा लल</w>
ड़ ाई</w>
ड ो</w>
टे म्प
ट करा
जो गा
ज हिया</w>
चिकि त्
चा हब</w>
गण तंत्र</w>
गँ वई</w>
ग जल</w>
को वि
कृ ति
कु मारी</w>
कर्म चारी</w>
कं ट्रोल</w>
क ियो</w>
क ले
एही से</w>
उठ वले</w>
उछा ह</w>
उ सके</w>
इंडो -
इ हँवा</w>
आका श</w>
अन् हरिया</w>
अने क</w>
अत्या चार</w>
अं चल</w>
अ प</w>
अ त</w>
ं टी</w>
b r
3 7</w>
199 0</w>
। 	.</w>
ै तिक</w>
ियर पन</w>
है या</w>
हा लही</w>
ह की
स् पर्
सोच ीं</w>
समुंद्र ी</w>
सके ला,</w>
सकी लें</w>
संगी ति</w>
सँ उसे</w>
स प
स ना</w>
स त्तर</w>
ष् ण</w>
श्र द्धा
व्या करण</w>
विष्ण ु
विश्वविधा लय</w>
वि स्
वा ही</w>
वा ता
ले वल</w>
लगा व</w>
लई की</w>
ल िय
ल .</w>
रो शनी</w>
रे ट</w>
री ।</w>
रि मा</w>
राम रक्षा</w>
र जि
यू रेश
मे ज</w>
मा था</w>
मस् जिद</w>
मर दाना</w>
मज गर</w>
मं त्रि
म पुर</w>
भो ज</w>
भी तरी</w>
भंडा र</w>
ब्या पार</w>
बेव हार</w>
बि रोध</w>
बा ला</w>
बा धा</w>
बराम द</w>
बचा व</w>
बइठ े</w>
बंदर गाह</w>
फि क</w>
फ ला
प्री म
प्रा न्त</w>
प्र ार्थ
प्र जा
पे ट्रोल</w>
पु नर्
पा ती
पा ट
पहा ड़</w>
पत्र कारन</w>
प सरल</w>
न्या य</w>
नो द</w>
नो कसान</w>
निय े</w>
निय मित</w>
नि का</w>
ना मे</w>
न गरी</w>
धी श</w>
दे बे
दुश् मन</w>
दु खी</w>
दु ख
दार् शनिक</w>
त्या ग</w>
ते रे</w>
तू ं</w>
ता ह</w>
त स</w>
डा ं
ट िया
झग ड़ा</w>
जो ड़ल</w>
जल वा</w>
चंद्र गुप्त</w>
ग्रे ट</w>
गो र</w>
गा ।</w>
गा ली</w>
ग ॉ
खेला ड़ी</w>
क् वी
की र्
कर ु
कर सु</w>
कर ना</w>
कम ल</w>
कब् बो</w>
क ू</w>
क ली</w>
क मी
क प्
क क्षा</w>
ओ हि</w>
ओ इसहीं</w>
एन डी
एक -
ए फ
उपा य</w>
उन करा</w>
उच्चार ण
उ जा
ई ॰</w>
इस् कूल</w>
आला वा</w>
आतंक वादी</w>
आ धिकार
u m
6 7
ू र</w>
ू न</w>
होख ब</w>
स्वा भा
स्थ ी</w>
स्टू डियो</w>
सु ने
सिं गा
सामा जि
साफ -
संवेद न
स खी</w>
ष ि
शि क्षक</w>
शत्र ु
श शिका
व्यव सा
वाद ,</w>
ल् हा</w>
ले आम</w>
ली -</w>
लग ली</w>
ल िया
मो र
मेघ ना</w>
मि लि
महारा नी</w>
मत ल
मण ि</w>
म ला
म थु
भार ती
भा ड़ा</w>
भरो से</w>
भठ ियरपन</w>
ब्र त</w>
बोल ल,</w>
बो ले
बु ल
बन र्जी</w>
बदमा श</w>
ब ियन</w>
फा गुन</w>
प्रार्थ ना</w>
प्र थम</w>
पे न</w>
पूर् व
पुण े</w>
पु लि
पि ता
पह ली</w>
परसिद् धि</w>
पत् ति</w>
पक वान</w>
नि ती</w>
नारा य
नाग रि
ना ल
न या
ध नी</w>
ध इ
द् वार</w>
दो सरो</w>
देख व
दे ब।</w>
दे ने</w>
दाय रा</w>
द पुर</w>
थ ान</w>
त् ति</w>
ते ल
तरी न</w>
त ला</w>
डी पी</w>
ड क्ट</w>
ड "</w>
जी वि
जा लीं।</w>
जवा नी</w>
जन ,</w>
छु ट्टी</w>
चौ क</w>
चेन् नई</w>
चल ल।</w>
च ले
च तुर्
घे राइल</w>
गो बर</w>
गो ड़</w>
गंभी र</w>
खो ल
खि ं
खा त</w>
ख म्
काठमा ंड
काग ज</w>
कहा ं</w>
क ड़ा</w>
क ले</w>
क माल</w>
ओप निंग</w>
ऐ तिहासिक</w>
एक् वा
ए हिजे</w>
ए ब</w>
ए करो</w>
उड़ ी
ई स्ट</w>
इला कन</w>
इतिहा सकार</w>
आर क्षण</w>
आधिकार िक</w>
आदि वासी</w>
आज मगढ़</w>
आं खि</w>
अरु णाचल</w>
अंतर् गत</w>
en t
4 ,
3 6</w>
( S
्य ,</w>
ि ंग</w>
हो गा</w>
हो ,</w>
हृ दय</w>
हिन् दी
हा उस</w>
हउ वे।</w>
स्त ु</w>
स् वर्ग</w>
सू चित</w>
सुन य
सि विल</w>
समु द्र</w>
समु ंदरी</w>
सटी क</w>
ष ित</w>
शास्त्र ीय</w>
श शि</w>
विवि धता</w>
वि त्त</w>
वर्त नी</w>
व ल्ड</w>
व ल,</w>
लि न।</w>
लाल च</w>
लव ट</w>
लउके ला।</w>
राज भाषा</w>
रहे ले</w>
रचना कार</w>
र चल</w>
योज क</w>
यूपी ए</w>
यू नियन</w>
मु द्रा</w>
मि सिर</w>
मा घ</w>
महा विद्यालय</w>
मंड ली</w>
म लेश
भे ंटा</w>
भ री</w>
बेह तरीन</w>
बे ल</w>
बू न</w>
बि ना
बर् ण
बन वा</w>
बन ला</w>
बत कही</w>
ब रा</w>
ब जाय</w>
ब क
फ ्री
फ ्यू
पड़ ल।</w>
प्रोड्यू सर</w>
प्रेर णा</w>
प्र दीप</w>
पुर् नवासी</w>
पा त्र</w>
पड़ ेला</w>
न् ट</w>
नेश ंस</w>
नि स्तान</w>
नि मन</w>
नाग पुर</w>
नव का</w>
न न्द</w>
ध िक</w>
देख नी</w>
दूर बीन</w>
द हे
द ल
ती ं</w>
ती -
त ल
ड़ा व</w>
ठ ि
टे स्ट</w>
टी -
ट ले</w>
झ ल
जॉ न</w>
जे श</w>
जि न्
जि ंग</w>
जाला ;</w>
जा ते</w>
चु न
च ंद
घू मे</w>
घ ्
ग्रा फी</w>
गृ ह</w>
गठ बंधन</w>
ग ु</w>
खिला ड़ी</w>
खरी दे</w>
ख ारि
क् सि
के दार</w>
कृष् णा</w>
कु टी</w>
कु छु
कामया बी</w>
कला म</w>
क च्
ओह नी</w>
ए हि
ऋ तु</w>
उन् हें</w>
इज् ज
आप ना</w>
आधुनिक ता</w>
आकर् षण</w>
आ या
अस् सी</w>
अश्ली लता</w>
अर थ
अन् दर</w>
अ ती
ंगा बाद</w>
us ")</w>
o f</w>
i v
8 %</w>
2 वाँ</w>
18 9
( P
िया ं</w>
ार् क</w>
हो ।</w>
हु ं</w>
हिन् द</w>
हा य</w>
हरा वल</w>
सो न</w>
से -
सुन ते</w>
साध ना</w>
सम झा
स ले</w>
स की</w>
शा ब्
शही द</w>
विष्ण ु</w>
वि कल्प</w>
व सू
ले शन</w>
लसि ,</w>
लम् बा</w>
राष्ट्र िय</w>
राजे न्द्र</w>
र बि
य ही</w>
मोह ल्ला</w>
मो र</w>
मिल ल,</w>
मि ंग</w>
मा वल</w>
मन्दि र</w>
मण्ड ल</w>
म नी
भाव शाली</w>
बढ़ े</w>
ब्रा उ
बि देसी</w>
बांग्ला देस</w>
बल् ली</w>
बल् कि</w>
ब रेली</w>
ब रि
ब ड
ब ग
फो र्ड</w>
फिल्म कार</w>
फ री
प्रसिद् द</w>
प्र ौ
प्र सारित</w>
प्र शं
प्र वासी</w>
प् ट</w>
पो ख
पु रो
पहुँ चे</w>
पह ल
पद् म
पड़ ो
पट कथा</w>
पक ड़</w>
प हल</w>
नेता जी</w>
नि हार</w>
नि शान</w>
द् दी</w>
दे वे
दर भ
द ्य
त् मक
ति सरा</w>
तह सील</w>
त :</w>
ड िया
ठ ु
ट्र ंप</w>
टि कल</w>
जो ड़</w>
जो ड़े</w>
जम शे
जं क्शन</w>
ज ियत</w>
छ ू</w>
चौ ड़ाई</w>
चाही ं,</w>
चा हें</w>
च इत</w>
घ र-
खोज ल</w>
ख त्म</w>
क् र</w>
कै लि
की र</w>
का तिक</w>
का टे</w>
कल म</w>
करे ं।</w>
करी हें</w>
एयर वेज</w>
उत्पा द</w>
उत् सव</w>
उठ ि</w>
उ ।</w>
आत् म
आइ टम</w>
आ यर
आ मिर</w>
आ क्र
अव ार्
अव धी</w>
अ मौसा</w>
अ मन</w>
अ ऊर</w>
ं परिक</w>
s )</w>
200 2</w>
- साथ</w>
१ ९
ॅ ा
ी ओ</w>
ार्थ ियन</w>
ार् ध</w>
हे ं,</w>
हजार न</w>
हँ सी</w>
स्पे शल</w>
स्था यी</w>
सोच नी</w>
सू त्र
सु आ</w>
सीबी आई</w>
सी रियल</w>
साथ ,</w>
सा ह
सर् विस</w>
सर कारन</w>
शु रु
शि क</w>
शार ी
शाब् दिक</w>
शशिका ंत</w>
विरा सत</w>
लु का
लि श</w>
लाइ ट</w>
लव टल</w>
ल य
रो म</w>
रि टा
रउ रे</w>
मो ती</w>
मे श</w>
मे र</w>
माई भासा</w>
मा स</w>
महो त्सव</w>
मंजू री</w>
म जा
भोजपु री,</w>
भ या
बे स</w>
बे तिया</w>
बे ट
बे चैन</w>
बी स
बि परीत</w>
बाड़े ं,</w>
बा उर</w>
फार् मे
फा ँसी</w>
प्रो ॰</w>
प्रचार क</w>
प् पी</w>
पुर ब</w>
पार ंपरिक</w>
परि चित</w>
ने तवन</w>
नव रा
नइख े
दुप हरिया</w>
दी हें।</w>
दी र्
दि न
दरभ ंगा</w>
द खल</w>
थ ्र
थ ू
ती ज</w>
ति थी</w>
तस्वी र</w>
डि वाइस</w>
डा ई
टू टल</w>
टी शन</w>
ट स</w>
झा ँ
जि ंदा</w>
जाय ेला।</w>
छोट की</w>
चार ू</w>
चा ही</w>
चल न
च लेला</w>
गो टी</w>
गु ल्ला</w>
ग ढ़</w>
ग ार्
ग जब</w>
खे ति
खु श
खु लेआम</w>
को ण</w>
कै थी</w>
कि त</w>
का व</w>
का ट
कर ता</w>
कं ठ</w>
क श्मी
क टा
ए कल</w>
उहाँ के</w>
उपा धि</w>
उप जल</w>
उ तरे</w>
इंत जाम</w>
इ जा
आतं की</w>
आज मग
आं खिन</w>
आ ।</w>
आ म
आ ऊर</w>
अश् लील</w>
अनु सं
अन ंत</w>
अई सन</w>
अ ति</w>
अ क्स
ंग ु
ं घ
6 ,
) "</w>
( C
( 200
! ”</w>
ड़ न</w>
िय री</w>
हैदरा बाद</w>
हर ि</w>
ह रे
स्वाभा विक</w>
सी मित</w>
सिं धु</w>
सा ध</w>
समर्थ क</w>
सं वत</w>
स क्ष
शा न्ति</w>
वि वा
वि न</w>
वा क्य</w>
व ल्
ले कर</w>
ली ं
ललि ता</w>
रोमां टिक</w>
रु क</w>
राज्य क्षेत्र</w>
राजन ैतिक</w>
रा वे</w>
रा य,</w>
र मा
मो हम्मद</w>
मो ल</w>
मुला कात</w>
मु हा
मि ले।</w>
मा लिनी</w>
मा ई-
महा सचिव</w>
मछ री</w>
म च</w>
भो रे</w>
भा गल
भ क्
ब्य व
बि न्
बि द्र
बा हु
बर्ण ित</w>
बर् णन</w>
फो ट</w>
फे ंक</w>
फुट बाल</w>
पढ़ ा
प्ले ट
प्रयोग कर्ता</w>
पूर् वा
पा य
पची स</w>
प ्य
न्या स</w>
ने ंस</w>
नजदी क</w>
नक् शा</w>
न उ
धू म
द् य</w>
देहा ती</w>
दू सरे</w>
ते लु
तब से</w>
तक ले</w>
ण् डा</w>
डॉ क्टर</w>
टी का</w>
टि वि
झ ट
जे ठ</w>
जु ल</w>
जु डल</w>
जा त
ज -
छत्तीस गढ़</w>
छ वि</w>
चू ंकि</w>
चि च
चम् पा</w>
गो वि
गै र-
गै र
गि निती</w>
गहि रा</w>
गवर् नर</w>
गरी य</w>
गण ेश</w>
ग ये</w>
खू बे</w>
खि सिया
खा ँ
खरी द
ख निज</w>
का ना</w>
कर ब।</w>
कठो र</w>
क ्या
ए इसन</w>
ए -
उ हां</w>
उ तार</w>
ई )</w>
इ हाँ
इ ड</w>
आ व</w>
आ टा</w>
आ ए</w>
अल्प संख्यक</w>
अन्तर ्राष्ट्रीय</w>
अनु मंडल</w>
अन ्या
अइ लन</w>
e p
________ ________
3 वाँ</w>
195 0</w>
10 0
” ।</w>
ड़ ि</w>
ोज ना</w>
हँ ,</w>
स्ट ल</w>
से वक</w>
सु ग्गा</w>
साइ त</w>
सा ठ</w>
सा ंग</w>
समा पन</w>
समा ज,</w>
सक्ष म</w>
संस्कृ ति,</w>
स जा
वि नोद</w>
वारि स</w>
व इसन</w>
लो ।</w>
लिह लन</w>
ल ग</w>
रो व
रै ली</w>
रेगि स्तान</w>
रही ं,</w>
यो ं</w>
महे न्द्र</w>
महा दी
मह राज</w>
मशी न</w>
मथु रा</w>
म च
भू मध्य</w>
बाने ,</w>
बर त</w>
फ़ ्
फ ंड</w>
पूर् ण
पाहि ले</w>
पा इल</w>
परो सल</w>
पट िया
प ईसा</w>
ने ह
नी कज
निशा ना</w>
निकल ि</w>
नि गम</w>
ना त्मक</w>
न वा</w>
न गी
धु न</w>
धन ्यवाद</w>
दे शां
दे न</w>
दा दा</w>
द िये</w>
त्रि वे
तृण मूल</w>
तु म्
तह रे</w>
तर क्की</w>
डू ब</w>
ठी के</w>
टू र्ना
जता वत</w>
जग ी</w>
छे ना</w>
छे द</w>
चो पड़ा</w>
चे यर
ची झ
चार् ज</w>
चलन सार</w>
चरि त
घो र</w>
घा म</w>
ग्रा मी
गोल ार्ध</w>
गू गल</w>
गार ह</w>
ग ई</w>
खु लता</w>
ख लील</w>
क् क
को ।</w>
कुमार ,</w>
किर ण</w>
कि मी
कामया ब</w>
का ॅ
कहा ला</w>
कर वले</w>
कम जो
क मे</w>
उल् टा</w>
उप निवेश</w>
उतर ि</w>
ईस वी</w>
ईमान दारी</w>
इलेक्ट ्रा
इलेक्ट ्र
आर् कि
आर एस
आका श
आ ँ</w>
अस् मिता</w>
अफ ्रीका</w>
अनुसं धान</w>
अनु पात</w>
अधिकार ियन</w>
अठ ार
अंगु री</w>
अ ति
ं जलि</w>
ं :</w>
o t
o c
e t
br ></w>
6 8
5 9
18 6
.. ..
. 7
’ ’</w>
ॉ प</w>
िय न
हिं द</w>
ह ज
स्वा भि
स् कर</w>
सोना ली</w>
सु न्
सां प्र
सा मु
स वाद</w>
स ना
स कारात्मक</w>
ष्ठ ित</w>
शा ला</w>
शब् द
विवे का
वार न</w>
वा ड़</w>
वगैरह ।</w>
व लें</w>
लड़ े</w>
लें ;</w>
ले स</w>
लु म</w>
लिह ली।</w>
लि ।</w>
ला वे</w>
ला ई
ला :</w>
लग लें।</w>
रि पोर्
रि जल्
रहे ला,</w>
रंग मंच</w>
यू ने
य दि</w>
मोनालि सा</w>
मैनेज मेंट</w>
मिश्र ,</w>
मिथि ला</w>
मर ले</w>
मधु मा
म कर</w>
भू टान</w>
भर ती</w>
भइ ल
ब्राह् मण</w>
बेह वार</w>
बुझा ला</w>
बि टो
बा त।</w>
बा घ</w>
बर् फ</w>
बता ईं</w>
ब ्यू
ब सा
ब या
फा य
पो स्टर</w>
पै ं
पू नम</w>
पुर म</w>
पुर निया</w>
पी रिय
पार े</w>
पा प</w>
पहिल के</w>
पर्य टक</w>
पत्रि कन</w>
प िया</w>
प क्का</w>
न् दन</w>
नेश िया</w>
नीकज बून</w>
निर्देश ित</w>
ना गरी</w>
नजदी की</w>
ध मा
द्विवे दी,</w>
द् वि
दाखि ला</w>
तो ं</w>
ते ह
ती ।</w>
त ्</w>
त फ
टो पी</w>
टूर्ना मेंट</w>
टर् न</w>
झा ड़
झ ं
जीव धारी</w>
जहा ँ
जरु र</w>
जबा न</w>
जबर दस्त</w>
जन गण
जनगण ना,</w>
जन -
ज हर</w>
छो टे</w>
चि ह्न</w>
ग्र ो
गाँ वे</w>
गंड क</w>
खारि ज</w>
खा ति</w>
ख रा
क्षेत्र ,</w>
कैलि फोर्निया</w>
कु रु
कु टिया</w>
किरा या</w>
कि स्
कि लो</w>
कार्य कर्ता</w>
का ?</w>
कव ा</w>
कर ,</w>
क िये</w>
क दार</w>
ओ इसे</w>
एक्वा डक्ट</w>
एकल ौता</w>
ए प</w>
ए तने</w>
उप चुनाव</w>
उठा वत</w>
उजा गर</w>
ई द</w>
इं टर</w>
इ ंद
अब् दुल</w>
अब हिन</w>
अन् दा
अइस ना</w>
अं श</w>
ंद गी</w>
ं वा</w>
ं ?</w>
o s
i r
9 0</w>
हौ ।</w>
हु सैन</w>
स् विक</w>
सॉ फ्टवेयर</w>
सें सर</w>
सू र</w>
सू त</w>
सुपर स्टार</w>
सि ंगल</w>
साइ ड</w>
सर्वे क्षण</w>
सं जोग</w>
स चाई</w>
शे ष</w>
श पथ</w>
श नल</w>
व्यक्ति त्व</w>
वो ं</w>
वि मानन</w>
व लसि</w>
ली प</w>
लिख ा</w>
ला ’</w>
लक ड़ी</w>
ल ु</w>
रोज े</w>
रिजर् व</w>
रा जा
रा घ
रा इन</w>
यूने स्को</w>
मे क</w>
मृ त्य
मिश्रा ,</w>
माँ स</w>
मा स्ट
मा नु
मं तर</w>
म च्छ
भोजपुरी -
भे द
भाव -
भ ट
ब्र ज
ब् लै
बै स्विक</w>
बे ,</w>
बू ढ़</w>
बिभा जित</w>
बि लय</w>
बाड़ ऽ</w>
बाँ टे</w>
बा ड़</w>
बा लेश्वर</w>
बर् ट</w>
बन वावे</w>
बद ला</w>
बत ौर</w>
बच वन</w>
बइठ ले</w>
ब हार</w>
ब स
ब ति
फिलि म)</w>
पढ़ त</w>
प्राथ मिक</w>
प् लस</w>
पौ रा
पें टिंग</w>
पे रिस</w>
पे यी</w>
पू छ</w>
पुरा ने</w>
पा थर</w>
पहि ले,</w>
पटिया ला</w>
प शु
नू न</w>
नी ंद</w>
निशा ंत</w>
निर् देश</w>
ना पल</w>
नई खे</w>
ध्व नि</w>
देशां तर</w>
दे हि</w>
दू बे</w>
द ऽ</w>
द ह</w>
द ब
ता )</w>
ण् डिया</w>
डॉ ॰</w>
डा क्ट
ज्ञा न
जे मे</w>
जी तल</w>
जा ती</w>
जा ंच</w>
ज हवाँ</w>
चित्र कूट</w>
च ढ़</w>
च ली।</w>
गिर ल</w>
गि रि
गा -
गद हा</w>
ग ते</w>
ग ढ</w>
खु ला
खु ल
खी ंच</w>
खि च
खा र</w>
कोवि ंद</w>
कोत वाली</w>
को ठ
के वल</w>
कु छे
किसा नन</w>
किता बन</w>
काब ्य</w>
का व्य
का इ
कर् मी</w>
कथा -
कइ ल,</w>
क ड़ी</w>
ओ म
ए सो
उ दास</w>
इरा दा</w>
इंड ि
इ सी</w>
इ बे</w>
इ ए</w>
आज काल</w>
आ स्ट्रेलिया</w>
अहम दाबाद</w>
अरवि ंद</w>
अफ गा
अनु मति</w>
अध ीन</w>
अती त</w>
अठ वीं</w>
अं जना</w>
अ झू
o p
at ion
a s
18 0
0 )</w>
. 4
" ए
” ,</w>
्ट र</w>
है ,</w>
हम ला
हकी कत</w>
ह टावे</w>
स् वर्ण</w>
स् तरी
सोच ि</w>
से वी</w>
सुभा ष</w>
सी -
सि ख
सामु दायिक</w>
सम् पन्न</w>
सदस् यता</w>
सक ीं</w>
सं हार</w>
सं शो
सं ग्र
स वारी</w>
स द्
ष् ठा</w>
शारी रिक</w>
वो त्तर</w>
वि जेता</w>
वास्त विक</w>
व ्र
ल् हा
लै टिन</w>
लि केशन</w>
ला ह</w>
ला )</w>
ल वी</w>
ल ंग
र् ती</w>
रे लगा
रिजल् ट</w>
रि श</w>
रि टी</w>
राज ू</w>
रा ँ
र क्षा
या ँ</w>
मेहरार ु
मू ली</w>
मि स</w>
मि त्र
मान सिक</w>
मा ंस</w>
मंत्र ियन</w>
मंजू र</w>
भुग तान</w>
भागल पुर</w>
भइ लें।</w>
भ द्र</w>
भ ँ
ब् बा</w>
बैठ क</w>
बै ं
बू ढ़</w>
बिष्ण ु</w>
बि गा
बान् हल</w>
बा रा
बा .</w>
बन लें।</w>
बजा वे</w>
बंगला देश</w>
ब हे
ब त्
फ्र ी</w>
फूह ड़
प्रो टो
प्रीम ियर</w>
प्राय दीप</w>
प्रदर्श ित</w>
प्रतिनि धि
प्रगति शील</w>
प्र वृ
प्र त्या
पास वर्ड</w>
पा दन</w>
पर ी।</w>
प न्
प ग
न् त
नि स</w>
ना न्
ना चे</w>
न हान</w>
ध ड़
ध ौ
ध इले</w>
ध ँ
दी हें</w>
दा मो
दर सन</w>
द या</w>
त् व
तो हरे</w>
ता ला
ता ज</w>
त े।</w>
ड ि</w>
ट्वी ट्स</w>
टा ई
टा ,</w>
जो श</w>
जु ड़ाव</w>
जि न्दा</w>
जि न</w>
जय पुर</w>
जन् म
जन ी
जन न</w>
छू त</w>
चिन् हित</w>
चि ल्
चा ह</w>
चा वल</w>
चट्ट ा
गो त</w>
गा यन</w>
ग ढ़
खोज त</w>
क्ल ब,</w>
क्रां ति
क् लि
को ह
को इ
कै मूर</w>
के न्द्र
कृ पा</w>
कार्य कारी</w>
कार्ट ून</w>
कना डा</w>
और ंगाबाद</w>
ऐ सी</w>
एका ध</w>
उर् जा</w>
उच् च
ई ं,</w>
इ हें</w>
इ हवाँ</w>
इ सके</w>
इ श्
इ मारत</w>
इ ण्डिया</w>
आदि त्य</w>
अम् मा</w>
अभ िया
अभ य</w>
अनि ल</w>
अधि वेशन</w>
अ ग्
e m
6 %</w>
5 8
200 3</w>
18 7
15 0</w>
िय ोजना</w>
ारा ,</w>
ार े
हि च
हरा ई</w>
हम े</w>
हम ार
ह ऽ,</w>
ह वीं</w>
ह वां</w>
स्ट ार
स्क्र ीन</w>
स्के ट
स् त्री</w>
से के
सू री
सिद् धार्
सि म
साथ -साथ</w>
सर दार</w>
सब कुछ</w>
सदस् यन</w>
सत् ता
सँ ग</w>
स फ़
स ध
स को।</w>
शुभ कामना</w>
शु द्ध</w>
शि ष्ट</w>
शि ला</w>
शर् मा,</w>
विद ्या</w>
व िय
लॉ ग</w>
लु का</w>
ला इल</w>
लउक ल।</w>
रै ंक</w>
रा णा</w>
रही त।</w>
रह ते</w>
रस गुल्ला</w>
र सो
यु वक</w>
याद गार</w>
मेर ठ</w>
मूल ्या
मु झे</w>
मु क्ति</w>
मा फ</w>
मा न्य</w>
भो पाल</w>
भार त-
भ दो
ब्रा ंड</w>
बेच ारा</w>
बे रोज
बूझ े</w>
बी ,</w>
बि ता
बि क्र
बाबु जी</w>
बा ब</w>
बा ती</w>
बद नाम</w>
फी ट</w>
फ़ ो
फ जी
प् ती</w>
पौरा णिक</w>
पे ट्रो
पूर् वोत्तर</w>
पू जा
पाट लि
पर ौ
पर ियोजना</w>
पछि ली</w>
पं च</w>
प छ
नौ टं
निहार न</w>
नि के</w>
ना मांकन</w>
ना ग</w>
न ार्
धम की</w>
द्यो गि
दो षी</w>
दे सु।</w>
दुर् घटना</w>
दिह नी।</w>
दि नेश
दा ँ
द हि
द स्ता
था ।</w>
त्र ि</w>
ते ज
ति लक</w>
ता जा</w>
तब हियों</w>
त ियों</w>
त लाश</w>
डा ।</w>
ड़ -
ड ै
ड िय
टा र</w>
जीव न-
जी तन</w>
जि किर</w>
ज़ ा</w>
जय ललिता</w>
ज ई
ज ंग</w>
छो ड़े</w>
छा या
चौ बे</w>
चम् पार
च तु
ग्रामी ण</w>
ग्र न्
गौर इया</w>
ग ्या
ग ह
ग रहन</w>
ग ण</w>
खो ं</w>
क् सीजन</w>
को लं
करे वाला</w>
करी ,</w>
कइ के</w>
क ु</w>
क पड़ा</w>
क थन</w>
एश िया,</w>
ए कह
उप भो
उठ त</w>
उ चित</w>
आर् य
आर् क
आरएस एस</w>
आत् मी
आग मन</w>
आइ एस
आ श्
आ ड
अव रू</w>
अर्थ शास्त्र</w>
अरु ण
अर बी</w>
अनु सूचित</w>
अधि सूचना</w>
अखबा रन</w>
अक्स रहा</w>
अ सम
अ यो
अ ंडा</w>
ंग ि
201 9</w>
199 8</w>
199 1</w>
(अंग्रेजी: )</w>
(अंग्रे ज़ी
" (
‘ अ
ै ंड</w>
ॅा ०</w>
ी ल</w>
होख ी,</w>
हू ँ
हरा वे</w>
हरा वत</w>
हर दम</w>
हम हीं</w>
हँ सत</w>
ह स्त
ह में</w>
ह न।</w>
ह ंस</w>
स्वाभि मान</w>
स्क्र ी
सै कड़
सू तल</w>
सी ता
सिक् का</w>
सि ख</w>
सा स
सा झे
सा इल</w>
सा इंस</w>
समु न्द्र</w>
सच् चाई</w>
सके ले</w>
सं योजक</w>
स िय
स श
स ने
स कु
श र</w>
वैश् विक</w>
वे ल्
वे ले।</w>
वे ली</w>
वा हा</w>
व ले।</w>
ल् क</w>
लट कल</w>
लग ु
रे स्ट</w>
रे ं</w>
रि ली
रि कार्
राम लीला</w>
राम पुर</w>
रा ल</w>
रं जू</w>
य श
मि न</w>
मार् क</w>
मान वता</w>
मा मूली</w>
महारा जग
महत् त्व</w>
म ्</w>
भाग वत</w>
भा गे</w>
बुद् धि</w>
बु झा</w>
बि भाग</w>
बाड़ ू
बा ।
बा त-
बा डर</w>
बा कायदा</w>
बने ला</w>
फ्रे ंच</w>
फै लल</w>
फ ौ
पड़ े</w>
पड़ त</w>
प्र खंड</w>
प् पा</w>
पै दा
पे ड़</w>
पे शा
पी र</w>
पि ंग</w>
पा नी
पा ण्ड
पह लू</w>
पर् व
पं थ</w>
प च
न्याया धीश</w>
नै तिक</w>
नी ला</w>
नी न</w>
नारा जगी</w>
ना प</w>
न द
धूम धाम</w>
दे बू</w>
दक्षि णी</w>
थो रे</w>
थ ल</w>
ते -
तरह -
तरह- तरह</w>
तर फा</w>
तक ली
डो र</w>
डा उन
डा ंस</w>
ड ॅा०</w>
ड ियन</w>
ठ हर
टाइ म्स</w>
टा ँग</w>
ज्योति ष</w>
जु ड़</w>
जी डीपी</w>
जाला :</w>
जाइ ब</w>
जा ही</w>
जला शय</w>
ज रत</w>
ज ज</w>
छा पे</w>
छ प</w>
चुना वी</w>
चार ि</w>
चाइ ना</w>
च ढ़</w>
घू स</w>
घा व</w>
घरा ना</w>
घ ीव</w>
गोर खा</w>
गो स्वामी</w>
गर् व</w>
गण राज्य</w>
ग य
ग ट</w>
ख्या त</w>
खु ले</w>
खीं चे</w>
ख न्ना</w>
क् श
कै रे
के ं
का ला
कह वाँ</w>
कम्युनि स्ट</w>
कम लेश</w>
कन् हैया</w>
कठ ि
कंप नियन</w>
क टो
औप चारिक</w>
ओ हि
ऑ फ़</w>
ऐ सा</w>
ऋ ग्
ऊ हाँ</w>
उप -
उड़ी सा</w>
उठ े</w>
इन्त जार</w>
इं स्टी
इ ये</w>
आव श्य
आई आई
आ मद
आ फि
अव ध</w>
अला वा,</w>
अर्थ व्यवस्था</w>
अरु ण</w>
अमी र</w>
अन् तर्
अधि ग्रहण</w>
अच्छ र</w>
अइ लें</w>
ंत्र िक</w>
ं त
ं ट
ं कार</w>
a d
6 वाँ</w>
4 9</w>
4 2</w>
. 9
‍ य
ी ं,</w>
िया त</w>
ि र</w>
ार थ</w>
होला ;</w>
होख सु</w>
हॉ लीवुड</w>
हाजि र</w>
हम ी</w>
स्तरी य</w>
सो चल
से क्
सिंगा पुर</w>
सा जि
सा इन</w>
सरकार ।</w>
सम् मान
समृ द्धि</w>
समा लो
समा धान</w>
सके ले।</w>
सक ू
सक त।</w>
संप्र दाय</w>
संघ तिया</w>
स मानता</w>
स जाव
शै व</w>
शी तो
शार दा</w>
शर् त</w>
शर ण</w>
शत्रु घ्
विवे क</w>
विद्य ार्थियन</w>
वि जन</w>
वाता वरण</w>
व ॉ
व ही</w>
व चन</w>
लोक -
लु आ</w>
लिह ली</w>
लिह ला</w>
ल प
रे व
रि ज</w>
रा -
रही हें।</w>
रही हें</w>
रह ो</w>
रवि रंजन</w>
र थ
म् प</w>
मोह ब्
मेहरार ु</w>
मु हम्मद</w>
मु रा
मि ली
मा लुम</w>
मर ला</w>
मनु ष
भ तीजा</w>
बढ़ ावे</w>
ब् ल
बो स</w>
बे कत</w>
बूझ ल</w>
बुद्धि जीवी</w>
बु ल</w>
बिग्या नी</w>
बि रा
बा र्
बना वट</w>
ब म्
ब चे</w>
ब उ
फ्रे ं
फिल् मों</w>
फिल् मी</w>
फि ल
फि जी</w>
फा इल</w>
फ र्जी</w>
प्रा सं
प्र संग</w>
प्र श्न</w>
प् ता
पी यर</w>
पाव ली</w>
पार् वती</w>
पर् वत</w>
पक ड़
प ति
न् व
न् नी</w>
न् तु</w>
नो ए
नेपा ल,</w>
निर् ण
धि कार</w>
ध राइल</w>
ध इल</w>
दे साई</w>
दे वी
दू त</w>
दर् द</w>
द वारन</w>
थ िये
तो र</w>
ती र्थ</w>
ति र</w>
तार न</w>
ता ’</w>
त ौ
त ियो</w>
ढ़ ा</w>
डे ंट</w>
डू बल</w>
डा ॅ
झ ल</w>
जो शी</w>
जु ड़े</w>
जान कार</w>
जा त।</w>
जय प्रकाश</w>
जनम दिन</w>
ज मल</w>
छो टी</w>
चौ था</w>
चीझ ु</w>
चित्र ण</w>
चा ,</w>
घ ट</w>
गो ली
गो त्र</w>
गुजरा ती</w>
गिर ि</w>
गांव पालिका,</w>
गा व</w>
गहि राई</w>
गइल .</w>
खु र
ख र्
ख ं
क्षे प</w>
क्रा ंत</w>
कौ शल</w>
के न</w>
कुछे क</w>
कि रि
कि ए</w>
कार्य काल</w>
का ईं</w>
कर ।</w>
कर ऽ</w>
कर सु।</w>
कमा ए</w>
कपि ल</w>
ओ जोन</w>
ओ इसने</w>
ऑफि शियल</w>
एप् लिकेशन</w>
एक जुट</w>
ए सी</w>
ए ंड
उ मि
इन्त जाम</w>
इन् द्र
इन् टर
इ सकू
इ ल,</w>
इ यो</w>
आमद नी</w>
आप की</w>
आन् हर</w>
अन जान</w>
अधिक तम</w>
अधि बरिस</w>
अउ रियो</w>
अ वि
ंग न</w>
ंग टन</w>
  में</w>
u t
is ")</w>
e d</w>
a n</w>
a m
6 2</w>
17 9
10 00</w>
( 199
( 196
" बै॰:
" अ
! “</w>
‘ का</w>
ो ,</w>
े ंगे</w>
ार्थ क</w>
ार् दन</w>
हो श</w>
हे ग
हि ल</w>
हार ल</w>
हर लाल</w>
हर ,</w>
हम से</w>
हउ वन।</w>
ह ने</w>
स्पर् धा</w>
स् या</w>
स् क</w>
सेके ंड</w>
सुनय ना</w>
सु नी
सु ना</w>
सिरि फ</w>
साव ंत</w>
साक्ष ा
सा प्ता
सा गर,</w>
सह जोग</w>
सर् वा
सम् हार</w>
सम् पर्क</w>
सम ा</w>
स बेर</w>
श हा
श तर
शतर ंज</w>
व्या व
वे ले</w>
विभा जन</w>
वि हार</w>
वि ल्
वाइ ड</w>
व ऽ</w>
व लें।</w>
व इसने</w>
लेख क,</w>
लें :</w>
ले ह
लाग ल,</w>
ल री</w>
रू चि</w>
रि वाज</w>
राजने ता</w>
राज ,</w>
रबि न्द्र</w>
रण नीति</w>
रंग श्री</w>
र कार</w>
म् भ</w>
मो र्चा</w>
मो ती
मो ड़</w>
मू ँ
मि ल्
मि टर</w>
मा न्‍
मलेश िया</w>
मल या
भेद भाव</w>
भू मध्य
भुला इल</w>
भा ल</w>
भग वान
भई या</w>
भइ ली</w>
भ लहीं</w>
ब्र ो
ब् लू</w>
बु ड़
बि नेट</w>
बि न</w>
बि दे
बलि दान</w>
बर धन</w>
बँ टल</w>
ब रे</w>
ब खरा</w>
फै शन</w>
फे ड
फु र
फ न</w>
प्रकाश क</w>
प्र त्य
पों छ</w>
पूछ ल</w>
पु रू
पा क</w>
पहु ंच</w>
पतो ह</w>
पड़ो सी</w>
पट री</w>
प दा</w>
प तन</w>
निर् धारित</w>
नि कहा</w>
नाल ंदा</w>
ना श</w>
न ये</w>
न दिन</w>
न क्ष
ध्रु व</w>
धा तु</w>
ध ी,</w>
दें हि</w>
दूर दर्शन</w>
दू -
दु री</w>
दि आवे</w>
दा ं
दहे ज</w>
दलि तन</w>
थ रा</w>
त्मक ता</w>
तू र</w>
ता क
त िया
त म
त थ
ण ीय</w>
ढे ला</w>
ढ ू
डा ,</w>
ठ ंडा</w>
जो गी</w>
जे ं
जीवि का</w>
जि उ
जा मा</w>
जवा हरलाल</w>
जन ार्दन</w>
ज )</w>
चो ं</w>
चे ता
चे तन</w>
चक्र वात</w>
घे रा</w>
गुल शन</w>
गीत -
गी ।</w>
गा था</w>
ग मन</w>
ग म
ग उ
खू बी</w>
ख ला</w>
ख ड़
क्ष ी</w>
के ने</w>
कि सुन</w>
कि शन
कि नी</w>
कि नार</w>
कह लन।</w>
कस म</w>
कर म
कत नो</w>
कइ लीं।</w>
औ द्यो
उन् हन</w>
उत्त रा
उ मर</w>
इंड िया
इ सरो</w>
आयर लैंड</w>
आद मी
आँ खिन</w>
आ स्था</w>
आ यु
अव स्थित</w>
अ मर
  की</w>
e c
an d
8 6.
( N
( E
्र म</w>
हो गी</w>
हो ं</w>
ही ं,</w>
हल चल</w>
हम हूं</w>
हम नियो</w>
ह ंगा
स्था ई</w>
स्ता न,</w>
स्ट ,</w>
सो र</w>
सूर् य
सु सु
सु विधा
सि ने</w>
साहित्य ,</w>
साजि श</w>
सा नी</w>
सह योगी</w>
सर जू</w>
समुझा वे</w>
सभ े।</w>
सप् ताह</w>
संवेद ना</w>
सं पति</w>
स ार्थक</w>
स स्ता</w>
स राय</w>
स पोर्ट</w>
ष्ट ि
श् वर
श ृ
वे वाला</w>
विशेष ता</w>
विवे की</w>
वि क्रांत</w>
लॉ न्
लाग ि</w>
ला ह
ला वारिस</w>
ला द</w>
ला ंच</w>
लगा म</w>
लक ड़ी</w>
रे ला</w>
रिश् ते
राजस्था नी</w>
रा मा</w>
रह र</w>
र "</w>
यु व
य ्य
मॉ ड
मू न</w>
मान्‍ यता</w>
माओ वादियन</w>
मां झी</w>
माँ झी</w>
महे श</w>
महे ंद्र</w>
मत दान</w>
मजू री</w>
मज दू
मंत्रि मंडल</w>
म थ
म चल</w>
भौ ति
भर म</w>
भई ल।</w>
बढ़ ा</w>
बृ जेश</w>
बु जुर्
बि स्वा
बि र
बि छा
बा कि
बन वला</w>
बइ ठा
ब छ
फै क्ट
फें ड़</w>
फूह ड़
फु ल</w>
फिल्म फेयर</w>
पड़ ेला।</w>
प्रति भा
प्र वक्ता</w>
प् शन</w>
प् ति</w>
पे न्
पु न
पी ड़ा</w>
पि का
पर ि</w>
प निक</w>
प दा
प कावल</w>
न्द ु</w>
नौटं की</w>
ने वता</w>
नी के</w>
नी ं
निका य</w>
ना ’</w>
नगर पालिका,</w>
न ॉर्
न े।</w>
न शा</w>
न मा
न कर</w>
धर म
ध वा</w>
द् दा
दो कान</w>
देहा त</w>
देश ,</w>
देव नागरी</w>
दे ले।</w>
दे लस।</w>
दु सरी</w>
दिल् ली,</w>
दार न</w>
दामो दर</w>
द वा</w>
द रा</w>
थो ड़</w>
तेल ंगा
तुर् की</w>
तारी फ</w>
ता ना
ता छ</w>
तन् त्र</w>
त ला
ड्राइ वर</w>
डा लर</w>
ड नी</w>
ड )</w>
ट्र ल</w>
ट् स
ट ल।</w>
झ ि</w>
जि लन</w>
जि क्र</w>
जा सु</w>
जा बाद</w>
जा द</w>
जा ईं।</w>
जन पद</w>
ज ।</w>
ज री</w>
चैन लन</w>
चुना वन</w>
चिकित् सा</w>
चा लक</w>
चा कर</w>
चहुँ पे</w>
चढ़ ल</w>
च इ
घु स
ग्लो ब</w>
गि नी</w>
गा ड़
खो ले</w>
खेति हर</w>
खा नी</w>
ख रि
ख ण्ड</w>
ख ,</w>
क्रा इ
क् वार
को सी</w>
को श</w>
कै बिनेट</w>
काल् पनिक</w>
कार त</w>
कां स्य</w>
का ई
कह ेला।</w>
कह लस</w>
करा वत</w>
कर जा</w>
कन् नौ
क हि
क श्य
क व</w>
क बी</w>
क टे
ओम प्रकाश</w>
ओ से</w>
ऑ परे
एल् बम</w>
उष्णकटिबं धीय</w>
उप देश</w>
उद ार
ई सा
इ मेज</w>
इ चि
आवा जाही</w>
आखि रकार</w>
आ भार</w>
आ पु
अस्प ता
अफ ्री
अफ सर</w>
अन्या य</w>
अनु भूति</w>
अधि कां
अके ल</w>
ँ आ</w>
: "
9 वाँ</w>
8 1.
197 5</w>
( या</w>
( I
( A
‘ भोजपुरी</w>
० ०</w>
्य म</w>
ॉर् ज</w>
े वाला</w>
हो लिका</w>
हॉ ल</w>
हु ई</w>
हि म</w>
हि ं</w>
हा सन</w>
हा इल</w>
हवे ;</w>
हंगा मा</w>
ह टावल</w>
ह टा
स्टे ट्स</w>
सो स</w>
सें टी
से ना
सु ष
सु प
सु झा
सु जीत</w>
सु घर</w>
सु ,</w>
सी ।</w>
साय िक</w>
सा वे</w>
सहम त</w>
समा प्त</w>
सक ीं।</w>
सं पाद
सं पत्ति</w>
सँ ख्या</w>
स तीश</w>
स ती</w>
शुरूआ ती</w>
शाय दे</w>
शहर ,</w>
शब् दा
व्य ू</w>
वो टिंग</w>
वे न</w>
वी रे
वि क्रम</w>
वा ल्
वर् ती</w>
वर् गी
ले ंस</w>
लिख ला</w>
लग ्
रु आ</w>
रि त</w>
रि ओ</w>
रामा य
राज पूत</w>
रहे ले।</w>
रह ो।</w>
य िक</w>
य श</w>
म्ब ु</w>
मो टो</w>
मै न
मूल्या ंकन</w>
मुं ब
मु न्ना</w>
मिल के</w>
मार ्ट
माइ क्रो
माँ गे</w>
मा व
महा वीर</w>
मह जिद</w>
मल् टी
मध े
मंदि रन</w>
मं त्र</w>
म ने
भोजपुरि हा</w>
भू ख</w>
भाष िक</w>
भा ई,</w>
भदो ही</w>
भग वा
भ ंड
बै ड
बे ल
बूझ त</w>
बी मारी</w>
बिस् लेषण</w>
बिद्र ोह</w>
बिज्ञा न,</w>
बाँ स</w>
बरो बर</w>
बनाव टी</w>
बन के</w>
बजा वल</w>
ब हा</w>
ब च</w>
ब खान</w>
फु ल
फ़ ार
फ इल</w>
प्रौ द्योगि
प्रधा न
प्रण व</w>
पो सुआ</w>
पै टर्न</w>
पृथ ि
पूर् णि
पूं जी</w>
पाठ ्य
पर गना</w>
पर कार</w>
पद्म श्री</w>
पंड ि
पंचा य
प घि
नी ति
निर् मित</w>
नियु क्त</w>
ना जी</w>
न ली</w>
न ग
ध माल</w>
ध क</w>
द्र ो
दाय ि
दा स,</w>
दा द</w>
थ ,</w>
त्रि पुरा</w>
तेलंगा ना</w>
ते ,</w>
तू फान</w>
तु म
तिब् बती</w>
ति ह
ता नी।</w>
तर कारी</w>
तब हियो</w>
तकली फ</w>
त ड़
ढे रे</w>
ढ़ े</w>
ठ िया</w>
झु ंड</w>
जु लत</w>
जिम्मे दार</w>
जिम् मा</w>
जा नी</w>
जरू रे</w>
जम् मू
जन ो</w>
ज ि</w>
ज बे</w>
ज ड़</w>
छू टल</w>
छा प</w>
चेयर मैन</w>
चा व</w>
चहुँ पावे</w>
चर् स</w>
घु स</w>
गो ल्
गो बरधन</w>
गू ँ
गुण व
गु फा</w>
गतिवि धि</w>
गणि त
गं तव्य</w>
ग हराई</w>
ग हना</w>
खी स</w>
खा ते</w>
क्रिया -
क् लो
के )</w>
कि क</w>
का लत</w>
का जल</w>
का उं
कह लीं</w>
कह ंवा</w>
कर त।</w>
कथा कार</w>
कठि नाई</w>
ओ ढ़
ओ ही
ओ सहीं</w>
ओ झा</w>
एजे ंसी</w>
एक्स प्रे
एं टर
ए ल।</w>
ए ट</w>
ए गारह</w>
ए का</w>
ए ं</w>
ऊ ,</w>
उच्चारण :</w>
ईं धन</w>
ई ॰
इसकू ल</w>
इ तना</w>
आर ।</w>
आक्र मण</w>
आई ए
अव ै
अद मी</w>
अंग्रे जन</w>
अ रा</w>
अ छ
ं ची</w>
t er
r i
i on</w>
T h
6 7</w>
4 00</w>
17 7
( 198
‘ पाती
्र ी</w>
ि ए</w>
ऽ तार
स्मार क</w>
स्टै ंड
स् व</w>
स् कॉ
से ठ</w>
सू खल</w>
सुष मा</w>
सी ता</w>
सी )</w>
सि कता</w>
सास ाराम</w>
साफ- साफ</w>
साप्ता हिक</w>
सात वाँ</w>
सांप्र दायिक</w>
सा मं
सह जता</w>
सम् म
समुझ ल</w>
सत मे
सतमे झ
संख ्या
सं हि
स .</w>
शु रुआती</w>
शि क्षण</w>
शत्रुघ् न</w>
श ह
व्या पक</w>
व्यक्ति गत</w>
वै ष्ण
वा ड़ा</w>
वं श
व लन</w>
ले क</w>
लिह लस</w>
लिह नी</w>
ल ’</w>
ल ार्ड</w>
र् षि</w>
रौ ना</w>
रे ला।</w>
रे डियो
रूप या</w>
राम चरित
रा वल</w>
रा क</w>
रत् न</w>
र क्
यू ँ</w>
म् बि
मौ लिक</w>
मुहा ना</w>
मुसल मानन</w>
मि सि
मार् केट</w>
मार ि</w>
मान -
मले टरी</w>
मध ु</w>
मजा क</w>
म नो</w>
भु त</w>
भी ,</w>
भागी दारी</w>
भा गल</w>
भ लही</w>
भ ंग</w>
भ ं
बढ़ ि</w>
बेह द</w>
बुद् दीन</w>
बु रा</w>
बिचार धारा</w>
बाड़ ी,</w>
बा चल</w>
बहु ता
बतव ली</w>
बढ िया</w>
फू लन</w>
प्रौद्योगि की</w>
प्रेम चंद</w>
प् स</w>
पृथ् वी
पूछ त</w>
पू जन</w>
पू ँ
पी ड़ा</w>
पिका सो</w>
पि ए</w>
पहल वान</w>
पर मान</w>
पद ार्थ
पक ड़
प सर</w>
प न्द्र
प ञ्
नी ल
नी यर</w>
निर्वा चन</w>
निपट े</w>
नि श्चि
ना ला</w>
न मी</w>
न द्दी</w>
ध िया</w>
ध री
ध क्का</w>
दे शा
दु बई</w>
दि शा
दि लीप</w>
दा ब</w>
त्रि पाठ
तिहा ई</w>
ता ंत्रिक</w>
तप स्या</w>
त नि</w>
त "</w>
ण ु</w>
ठा ँ
टू र</w>
जो न्
जे म्स</w>
जु ंग</w>
जिय तार</w>
जिउ तिया</w>
जान वरन</w>
जा लीं</w>
जमशे दपुर</w>
जन सँख्या</w>
ज ँ
छि पल</w>
छा ँ
चो रा</w>
चू ँ
चि ंग</w>
च मक</w>
च नर
च ड्
च ंडी
घ रन</w>
घ ड़ी</w>
ग्रे जु
गु ल</w>
गु मान</w>
गी त,</w>
गि द्ध</w>
गाँ वन</w>
गाँ धी
गल तफ
ग म्
ग ड
क्षेत्र न</w>
कॉ र्
कुर् सी</w>
कुछ ऊ</w>
कु ंड</w>
कालि दास</w>
कान् ह</w>
काठमा ंडो</w>
कह ें</w>
कवि ,</w>
कव ियन</w>
करो ड़
कमिश् नरी</w>
कच् चा</w>
कच रा</w>
क ियन</w>
एसो सि
एश ियन</w>
एयर बस</w>
ए हु</w>
ए रो
ए नी
ऋग् वेद</w>
उहाँ का</w>
उप राष्ट्रपति</w>
उनु करा</w>
उठ ल।</w>
इस का</w>
इंडो नेशिया</w>
इ ब।</w>
आय ेंगे</w>
आठ वाँ</w>
आ य</w>
आ पा
आ इ</w>
अपरा धियन</w>
अपना वल</w>
अध ी
अदा कारा</w>
अ हम</w>
अ टल</w>
अ क्
ंड न</w>
  –</w>
an d</w>
8 3.
5 वाँ</w>
5 6</w>
5 4
5 2</w>
199 2</w>
185 7</w>
, 7
, 6
( वर्तमान</w>
( बहु
( ए
( अब</w>
‘ स
ऽ ?</w>
ऽ .</w>
होखे वाला</w>
हिस् से
हाइ वे</w>
हर कत</w>
हथ ियार
ह वाला</w>
स्वि ट्
स् त्र
सो नपुर</w>
से क्टर</w>
सु नील</w>
सिक ंदर</w>
सि लसि
सि ंग
साँ प</w>
सहम ति</w>
सर् वो
सभ न</w>
सतमेझ रा</w>
सके ,</w>
सं देह</w>
सं तु
स नी</w>
ष् ‍
श् ती</w>
शो भा</w>
शीतो ष्ण</w>
शि क्षित</w>
श िया</w>
श रा
व्र त</w>
व्यवसा य</w>
विस् फोट</w>
विधाय कन</w>
वि ड</w>
वा शि
व कालत</w>
लोक भाषा</w>
लै ण्ड</w>
ले व।</w>
लू र</w>
लउके ला</w>
ल भ</w>
रे ज</w>
रु चि</w>
रिटा यर</w>
रहे वाला</w>
रह लन,</w>
र ’</w>
र ियन</w>
र ब
र जनी
मो ति
मे गा</w>
मु ग़
मिल ि</w>
मि क्स</w>
मि ंटन</w>
माओ वादी</w>
मा प</w>
मध्य प्रदेश</w>
मणि पुर</w>
म री
भो रन</w>
भार तो</w>
भार ते
भा त</w>
भइ ले।</w>
भ लाई</w>
भ य</w>
भ भोरन</w>
भ जन</w>
ब्रह्मा ंड</w>
बोल ल।</w>
बॉ क्स</w>
बैड मिंटन</w>
बेच ारी</w>
बे द
बे ड़ा</w>
बे क
बु राई</w>
बु ड़
बिग हा</w>
बि छ
बि का</w>
बा …</w>
बा ला
बहुता यत</w>
बर बाद</w>
बना ने</w>
बढ़ ा</w>
बइठ ा</w>
फ्रे ंस</w>
फ् तार</w>
फे लिनी</w>
फ़ा इल</w>
फ ॉर्
प्र िया</w>
प्र बंधन</w>
पे शा</w>
पृथि वी</w>
पू जा,</w>
पु ष्
पी आर
पाकिस्ता न,</w>
पा उ
पा ई
पा ,</w>
पहिचा नल</w>
पना मा</w>
पढ ाई</w>
पछि म</w>
पंचा ंग</w>
प ’</w>
प ढ़</w>
नी ज</w>
नी ं।</w>
निर्ण य</w>
नाट कन</w>
नाट क
ना सा</w>
न यी</w>
न दी
धी र</w>
द् धि
दै लेख</w>
दे ं</w>
दुआ री</w>
दिनेश लाल</w>
त्रिपाठ ी,</w>
तो ड़</w>
तो ष</w>
ति ।</w>
ता ना</w>
त हाँ</w>
त सर</w>
डि सन</w>
ड़ ी,</w>
ट्ट र</w>
टै क्
टे लि
ट कर
जो ड़
जीव न
जा दू</w>
जब से</w>
जग हे</w>
ज ्य
ज िये</w>
ज या</w>
चो खा</w>
चार ियन</w>
चढ़ ा
चंद्र शेखर</w>
च लेला।</w>
च न
गृ हम
गुणव त्ता</w>
गी ता</w>
गिर मि
गां वे</w>
गाँव -
गा इ</w>
गइ लीं</w>
खो दाई</w>
खुला सा</w>
खा ई</w>
को ष</w>
को प</w>
को टा</w>
कॉ ले
कै त</w>
कुश वाहा</w>
कुर सी</w>
कु वै
किलो मिटर</w>
कार् बन</w>
का )</w>
कला प</w>
करे ली</w>
करे ला,</w>
कर वावे</w>
कथ ित</w>
कइ लस,</w>
क ी।</w>
क ल,</w>
क के</w>
औद्यो गिक</w>
ऐ से</w>
एक द
ऊ ँ</w>
उमी द</w>
उपे क्षा</w>
उप ो
उत् तरी
उतार ल</w>
ई रानी</w>
इम् तिहा
इंजी नियर</w>
इ मान
इ नाम</w>
इ क्
आशी र्
आर्कि टेक्
आरो पी</w>
अव स्थी</w>
अप नो</w>
अगु आई</w>
अंड मान</w>
अ रा
अ जी
il l
d e
< br></w>
8 वीं</w>
8 वाँ</w>
4 8</w>
3 3
2 -
199 7</w>
0 .
. 8
- अपना</w>
( एक्ट
( c
% बढ़ल</w>
" स्
“ भोजपुरी</w>
िया ना</w>
हे ड
हिन्दुस्ता नी</w>
हिन् दी-
हा ॅ
हा जीपुर</w>
हम हि</w>
ह वन</w>
स्ट्रे ल
स्ट ्रा
सोन भद्र</w>
से व
सुझा व</w>
सु न्द
सु थरा</w>
सी नियर</w>
सिन् हा,</w>
साउ थ</w>
सा ड़ी</w>
सम् पादक</w>
समाज सेवी</w>
सम न्व
सम कालीन</w>
सङ े</w>
संहि ता</w>
संशो धन</w>
संग ति</w>
सं कल्प</w>
स हन</w>
स वालन</w>
शो ह
शे ट्टी</w>
शिक्षा ,</w>
शि खर</w>
शर द</w>
श न)</w>
व्या स</w>
व्य ंग
वेबसाइ ट्स</w>
वा हक</w>
वा ल
वर्ग किलोमीटर</w>
व श</w>
लोक गीतन</w>
लो टा</w>
लाग ऽता</w>
ला ली</w>
लव टे</w>
लग न</w>
लं पिक</w>
ल ियो
रो हि
रेव न्त</w>
रूप ,</w>
राम चंद्र</w>
रा नी
रहे लें।</w>
रहे .</w>
रसो ई</w>
रघु वीर</w>
र ला</w>
र जत</w>
र खा</w>
य हां</w>
य र,</w>
मौ न</w>
मोति हारी</w>
मै ग्
मे ट</w>
मृत्य ु</w>
मूल ्य
मू ड़ी</w>
मू ड</w>
मु सु
मी टिंग</w>
मी टर
मार वा
माध्य मिक</w>
महाराजग ंज</w>
मह र्षि</w>
मर म</w>
मधु र</w>
मंड ी</w>
मं चन</w>
म गर</w>
भूगो ल
ब् लाक</w>
बे च</w>
बुढ़ वा</w>
बी ज</w>
बिस्वा स</w>
बिल् कुल</w>
बि धि</w>
बि जय</w>
बा ह</w>
बा लि
बन ले</w>
बद ली</w>
बत िय
ब द्
फ् लै
फुर सत</w>
फिल हाल</w>
फि न</w>
फा ल्
फ ल
प्रे सि
प्रति ष्ठित</w>
प्र माण
प्र गट</w>
पो रेशन</w>
पृ ष्ठ</w>
पुर्त गाली</w>
पुरन की</w>
पिक् चर्स</w>
पाँ ख</w>
पा टी</w>
परे म</w>
पर म</w>
पर चार</w>
पढ़ ा
पट्ट ा</w>
पट वारी</w>
नेटवर् किंग</w>
नु भूति</w>
नी ंव</w>
निष् ठा</w>
नि लं
नि ग
नाम करण</w>
ना हीं।</w>
ना पुर</w>
ना )</w>
न म्बर</w>
न फ
धो बी</w>
धू म</w>
धी रज</w>
धार णा</w>
दे स,</w>
दुर् गा
दु सरकी</w>
द िया।</w>
तेलु गु</w>
तिह वार</w>
ता ं
त ’</w>
त नो</w>
त था
ड्रा मा</w>
डाय रे
ड बल</w>
ठ ि</w>
ट्र िक</w>
टा इल</w>
ट पटा
जे से</w>
जी यत</w>
जा पानी</w>
जल् दिये</w>
ज नी</w>
ज "</w>
चढ़ ल</w>
चा ल
चा त</w>
चल ,</w>
च वा</w>
घट ित</w>
ग्रा फर</w>
गो दी</w>
गो दा
गे म</w>
गी ,</w>
ग ू</w>
ग वाह</w>
ग न्
ग ढ़ी</w>
खै र,</w>
खे सार
खु सी</w>
ख ट
क्र म
क्ट ो
क् वां
क् लाइ
कौ न</w>
को र्स</w>
को र्
कै ले
के .</w>
कुवै त</w>
कुल दीप</w>
कुकु रन</w>
कु आर</w>
कु आ</w>
कि स्तान</w>
कार खाना</w>
काय म</w>
का बि
का फ़ी</w>
का "</w>
कहा नियन</w>
कहा ई।</w>
कवि ताई</w>
कर् ण
करे ंसी</w>
कमजो री</w>
क मा</w>
क ण</w>
ओ लंपिक</w>
एल बम</w>
एनी मे
एन ॰</w>
ए ट
उष्णकटिबं धी</w>
उत्तराख ण्ड</w>
उज् जर</w>
इंजीनिय रिंग</w>
इंग् लिश</w>
इ मा
इ क
आर्क टिक</w>
आड वाणी</w>
आजु काल्हु</w>
आज ो</w>
आई टम</w>
आँ गन</w>
आ सरा</w>
आ लोक</w>
आ र्ट</w>
असल म</w>
अयो ध्या</w>
अम् बेडकर</w>
अमेरि कन</w>
अप नहीं</w>
अनु बाद</w>
अधिकां श</w>
अदा ल
अक्षा ंश</w>
अ सी
th e</w>
is t
C h
2 1
199 4</w>
‘पाती ’</w>
‘ प्रेम
२०१ २</w>
२ ०</w>
ज़ा र</w>
ग़ ज़
्रे स)</w>
ी दार</w>
ी करण</w>
िया वल</w>
िया -
होखी हें।</w>
होइ हें</w>
हो स</w>
हि रोइन</w>
हवा ई
हर न</w>
हम ारा</w>
ह र्ष
स्व रुप</w>
स्थि र</w>
स् पि
स् पा
सौ र
से नानी</w>
से तु</w>
सुल् तान</w>
सुर क्षा
सुधार े</w>
सु ंदर
सी ख</w>
सि तारन</w>
साहित्य कारन</w>
साक्षा त्कार</w>
सां सदन</w>
सम् हार
समु ंदर</w>
समी ति</w>
समालो चक</w>
समझ दार</w>
सत् तन</w>
संग त</w>
स रि
स पे
स ट
स :</w>
ष्ठ िर</w>
ष ड
श्रे य</w>
श्र द्धा</w>
शो षण</w>
शे ख
शी र्ष
शा हा
शा ंत</w>
वी ं-
विद्या पति</w>
वार ,</w>
वाइ रस</w>
लू स</w>
लि ं
लाह ौर</w>
लग ी
ल द्दा
ल क्
रो कल</w>
रेलगा ड़ी</w>
रे घर
रू सी</w>
री -
रामचरित मानस</w>
राम नाथ</w>
राज पुर</w>
राज नाथ</w>
रमा कांत</w>
र मेश</w>
र थी</w>
मो टर</w>
मैं टल</w>
मै सूर</w>
मै क्सि
मै क्स</w>
मूर् ती</w>
मुग़ ल</w>
मु नि</w>
मिठा स</w>
मि डि
मा हिर</w>
मा वे</w>
मा मर</w>
मा ंगे</w>
मन -
मंदि र,</w>
म ईया</w>
भै र
भेज ले</w>
भू त
भा ई-
बड़ े</w>
ब्रा जी
ब्र ॉ
ब् ला
बी बी</w>
बी जेपी</w>
बी एन</w>
बिग ड़</w>
बि देस</w>
बा ढ़</w>
बा )</w>
बरा बरी</w>
बरा क</w>
बना के</w>
बद लि</w>
ब रह
ब ंद
फू ँ
फ़ ि
फ तेह
फ ं
फ ,</w>
पड़ ो
प्रो ।</w>
प्रत्या शी</w>
प्र वाह</w>
पॉ लि
पूछ ले</w>
पूछ ताछ</w>
पुरो हित</w>
पुर न</w>
पु ट</w>
पि टक</w>
पाटलि पुत्र</w>
पा वेला</w>
परि वेश</w>
पर साद</w>
पक ड़</w>
प सीना</w>
प शु</w>
नोट बंदी</w>
नोए डा</w>
ने व
निको बार</w>
नि रिमा</w>
नि धि</w>
नाँव :</w>
ना जायज</w>
ना गा
नई ख
न तम</w>
न गरीय</w>
न कार</w>
धार न</w>
दो नों</w>
देस वन</w>
दे लन</w>
दे ते</w>
दीह ल।</w>
दि ना
दा ँव</w>
दा ,</w>
दर जा</w>
थिये टर</w>
थ ॉ
तो हन</w>
तो ह
तो पाइल</w>
ते यार</w>
ती ं।</w>
तब् बो</w>
तब हिए</w>
त लाक</w>
त ंग</w>
ण -
ढ र
डे ढ़</w>
डे ट</w>
डि स्
ड ्यू
ट्रे लर</w>
ट् वि
टो क</w>
टू टे</w>
टी )</w>
ञ् चल</w>
ज्ञा पन</w>
जे ही</w>
जु ड़
जी -
जिला धिकारी</w>
जाला )</w>
जाय सी</w>
जान ल-
जा तीय</w>
जन जाति</w>
छो ह</w>
छ ु</w>
चु प्पी</w>
चि का</w>
चाही ं
चाह ी।</w>
घू मि</w>
ग्रे गोर
ग्रेगोर ियन</w>
गो री</w>
गैर कानूनी</w>
गुला मी</w>
गु री</w>
गद् य</w>
गई ल,</w>
ग वले</w>
ग ला</w>
खु लल</w>
खि ल
ख ण्ड
ख इले</w>
क्यो ं</w>
कोठ री</w>
कॉ म</w>
के शस</w>
कुछु ओ</w>
कुँ वर</w>
का ऊ</w>
कहा वत</w>
कहा नी,</w>
कर वा
कप् तान</w>
कटे गरी</w>
कइ लीं</w>
क ष्ट</w>
ओ इसन</w>
एयर पोर्ट</w>
एक ड़</w>
ए लि
ए फ</w>
ए च</w>
उत्तरी -
उत् पन्न</w>
ईमान दार</w>
इलेक्ट्रा निक</w>
इ ग्
आशीर् वाद</w>
आव ऽ</w>
आं ख</w>
आ ध्या
अव धि</w>
अर्थ ी)</w>
अभि नीत</w>
अफगा निस्तान</w>
अपना -अपना</w>
अनु प
अग ल</w>
अं त
अ गुआ</w>
i a</w>
a g
I I</w>
9 1.
8 5</w>
4 वाँ</w>
2 ,0
197 2</w>
197 0</w>
196 0</w>
(बहु अर्थी)</w>
(एक्ट ्रेस)</w>
… .
िया वत</w>
ि म</w>
होखे ला,</w>
हाव ड़ा</w>
हा वी</w>
हरी केन</w>
हम हू</w>
हम र</w>
स्विट् जर
स्व यं
स्व च्छ</w>
स्पी कर</w>
स्कू लन</w>
स् तन</w>
सौ भाग्य</w>
सो ल
से हत</w>
से लु
सू ँ
सुल् ता
सुन ला</w>
सुख -
सु राज</w>
सु धीर</w>
सी डी</w>
सा फ़</w>
सा ढ़े</w>
सा ज</w>
सह ार
ससु रा</w>
सर त</w>
सम्म लेन</w>
सम ी</w>
सम हर</w>
सम य,</w>
सजाव ट</w>
सं भ
सं बाद</w>
सं पादन</w>
स ली
स ज्
स जल</w>
स ई</w>
ष्ठ ान</w>
श्र ो
शि ष्य</w>
शि क्ष
श िय
व्यंग ्य</w>
व्य स्त</w>
वेबसाइ टन</w>
वे दी</w>
वे दन</w>
विरो धियन</w>
विभा गा
विभागा ध्यक्ष</w>
विचार धारा</w>
वि लियम</w>
वा ँ
व ारे</w>
लड़ िका</w>
लौ ना</w>
लु ंग</w>
लि न,</w>
लि ट्टी</w>
लग ला</w>
लउक त।</w>
ल ियो</w>
ल ऽ।</w>
रो क
रे ड</w>
रू र</w>
रु पी</w>
राजे ंद्र</w>
रा क्ष
रहे लें</w>
रह बे</w>
र े।</w>
र ियम</w>
या ता
या चिका</w>
य म</w>
म् ब</w>
मैथि ली,</w>
मे मो
मे गा
मिल जुल</w>
मि नल</w>
मा नीं</w>
मा क
मही न</w>
मलया लम</w>
मधुमा खी</w>
मजदू रन</w>
म म
म ठ</w>
म चा</w>
भे ड़</w>
भा प</w>
भा ँ
भया नक</w>
भ न</w>
भ ड़
बड़ -
बो र</w>
बेव कू
बेरोज गारी</w>
बे मतलब</w>
बे ई
बे इ
बृ ह
बीस वीं</w>
बिया ,</w>
बि मान</w>
बि पत</w>
बारह वीं</w>
बा बा,</w>
बा चा</w>
बबु आन</w>
बच ऊ</w>
ब नइ
फे क्शन</w>
फूह ड़</w>
फर का</w>
पढ़ ला</w>
प्रासं गिक</w>
प्रा ं
प्रस्तु ति</w>
प्र भु</w>
पो ल</w>
पूर्णि मा</w>
पुरा तत्व</w>
पार िक</w>
पाठ्य क्रम</w>
पहि ना
पह िया</w>
परि स्थिति</w>
परसिद् धी</w>
पर न्तु</w>
पन डु
पनडु ब्
पत झ
प िये</w>
प ियर</w>
प सार</w>
नोट बन्दी</w>
ने वि
नि ंदा</w>
ना वे</w>
ना मक</w>
ना नाजी</w>
ना ना</w>
ना ती</w>
न ्य
न ह
न क्स
धो खा</w>
धरी छन</w>
ध -
द् दीन</w>
देश -
देव रा</w>
दुन् नों</w>
दा हि
दा त</w>
दा ग</w>
थ्र ि
थो ड़ी</w>
त् सा
त् मिक</w>
ती सरी</w>
ति कव
ता ली</w>
ता ब</w>
तत् वन</w>
त ट
ण् डी</w>
डे विड</w>
डे मो
डाउन लोड</w>
डा र</w>
ठ न</w>
ट्र ी</w>
टे र</w>
टे बल</w>
टी न</w>
टि फि
टा उन</w>
टकरा व</w>
ट ी।</w>
ट ार्
झा ,</w>
झग ड़ा</w>
जै सन</w>
जे टली</w>
जी र</w>
जाए ।</w>
जा ली।</w>
जा उ।</w>
जा उ</w>
जग न्
ज ियम</w>
ज ार्
ज उन</w>
छा पा</w>
छ ल
चौ हान</w>
चे त</w>
चू ल्हा</w>
ची र</w>
चिं तन</w>
चा य
चा इल</w>
चढ़ ाई</w>
चउ थी</w>
च ्यू
च ियन</w>
घो ड़ा</w>
घु सल</w>
ग्लो बल</w>
गो तिया</w>
गो ता</w>
गिर ला</w>
गा वि
ग़ ा
गलतफ हमी</w>
ग ्रेस</w>
खो ं
खीं चल</w>
खिसिया इल</w>
खिच ड़ी</w>
खान दान</w>
खा तीर</w>
ख ड़
ख र्चा</w>
क्ष र</w>
क्वी न</w>
क् चर</w>
को रा</w>
के दार
के ज</w>
कु मर
कु न
कि ं
का लोनी</w>
कह िया</w>
कश्य प</w>
कश्मी री</w>
कर्म चारियन</w>
कर ऽ।</w>
कर ती</w>
कन् न
क लेंडर</w>
क पारे</w>
और  
ओ हु</w>
ओ मे</w>
एंटर टेनमेंट</w>
एं जे
उपलब् धि</w>
उप ज</w>
उज् जैन</w>
उ दित</w>
उ गि
उ खा
इन् स</w>
इको नॉ
इ क</w>
आलो चक</w>
आय टम</w>
आफि स</w>
आतं क</w>
आज ़
आज म</w>
आई फोन</w>
आइ डिया</w>
आ ने</w>
अर्थ ी</w>
अर्थ शास्त्री</w>
अफ सोस</w>
अपना वे</w>
अप मान</w>
अन् न</w>
अच्छ ा
अइ ले।</w>
अं सारी</w>
अ दा</w>
अ गो
ंग् स</w>
ंग े।</w>
o d
9 %</w>
8 8</w>
8 3</w>
7 वाँ</w>
7 2</w>
6 8</w>
6 1</w>
3 -
194 8</w>
. 00</w>
(अंग्रेज़ी :
( M
‘ हम</w>
‘ लोक
‘ ई</w>
। ”</w>
िय ु
ार ि</w>
हो ले,</w>
हो ल</w>
ही रा
हिस्से दारी</w>
हिं दी-
हि अ
हाइ पर
हट े।</w>
ह ्यू
ह .</w>
स्मार ्ट
स्ता नी</w>
स् वाद</w>
सौ री</w>
से मी
से कु
सू री</w>
सुप रहि
सुपरहि ट</w>
सु शीला</w>
सु घ
सी ख
सिलसि ला</w>
सिद्धार् थ</w>
सिं थे
सिं गार</w>
सि लि
सि पी</w>
साहि त</w>
साथ ै</w>
सल मान</w>
सर् ग</w>
सरो वर</w>
सक सु।</w>
संग ही</w>
स वार
स वर्ण</w>
स ले
स त्या
स च</w>
स कारे</w>
ष न</w>
श्री लं
श्रद्धा ंजलि</w>
श् व
शु ल्क</w>
शिवा लिक</w>
श ।</w>
श हरी
श शि
वे ला,</w>
वृ द्धि</w>
विवा दित</w>
वि तर
वि ड
वर्गी य</w>
व स्तु</w>
व इया</w>
व इ
व )</w>
ल् ली</w>
लो -
लॉन् च</w>
लै ंड,</w>
लें -</w>
ले ब</w>
ले .</w>
लू ,</w>
लु प्त</w>
ली टर</w>
लिखा इल</w>
लाल सा</w>
ला ख
लड़ की</w>
लग लें</w>
रे ख</w>
रे ंज</w>
रू क</w>
रु द्ध</w>
री ति</w>
रि मोट</w>
रा न,</w>
रा त्रि</w>
रा ठ
रहु वे,</w>
रह ब</w>
रह ने</w>
रह न,</w>
र च्छ
र कम</w>
र ई</w>
यूरेश िया</w>
यू नान</w>
यु नि
याता यात</w>
मेहरारू न</w>
मे ,</w>
मुंब ई,</w>
मु ग्
मी रा</w>
मी कि</w>
मि जा
मा ।</w>
मा यूँ</w>
मा मा</w>
महि ना</w>
मह ँ
मर म्मत</w>
मध्य काल</w>
मजबू ती</w>
मज दूरी</w>
मग ही</w>
मं ड</w>
म ोज
म ियाँ</w>
म सला</w>
म स
म लिक</w>
भो ट</w>
भेंटा इल</w>
भू बिज्ञान</w>
भी ं
भि तरी</w>
बौ द्ध
बोल वले</w>
बोल ले</w>
बोल चाल</w>
बु निया
बी सी</w>
बी चो
बिधा नसभा</w>
बिद ्य
बिक्र ी</w>
बान् हि</w>
बाड़े ं:</w>
बाड़ ी
बाज पेयी</w>
बाँ चल</w>
बा ल
बा री
बा रात</w>
बा दर</w>
बा जन</w>
बहा ना</w>
बम् पर</w>
बद् धता</w>
बढ़ा वल</w>
बड़ की</w>
बं बई</w>
ब हू</w>
ब सन्
ब ट
ब क्
फै जाबाद</w>
फिल् मन</w>
फिर का
प्ला स्टिक</w>
प्रतिनिधि त्व</w>
प्र ार
प्र सा
प्र बंध</w>
प् लो
पो ता</w>
पैदा इ
पूर् ति</w>
पूछ ीं</w>
पुरा णन</w>
पी के</w>
पह चा
पर वाह</w>
पब् लि
पं त</w>
पं क
प "</w>
न्यू यॉर्क</w>
नो टिस</w>
ने शन</w>
ने ता,</w>
नु मा</w>
नी रन</w>
नी दर
निर्वा ण</w>
निरा ला</w>
निर पे
नाइ ट</w>
नर् म
नय की</w>
नक्स ली</w>
नइख न।</w>
न ”</w>
न सी
न कारात्मक</w>
धो ती</w>
धि ष्ठिर</w>
दे लें।</w>
दे लें</w>
दिग् विजय</w>
दि वा
दि ना</w>
दम दार</w>
द ्रा
द रिया</w>
द य,</w>
थॉ मस</w>
था ह</w>
त्रिभु ज</w>
तु रं
तु ,</w>
ता वा</w>
ता त्
ता ओं</w>
तर फ
तमा शा</w>
त वले</w>
त ली</w>
ण ो</w>
ड्र ा</w>
डि शन</w>
डा कु
ड ्रे
ड ह
टें शन</w>
टिवि टी</w>
टा टा</w>
झी ल,</w>
जोग दान</w>
जु री</w>
जु ट
जीव नी</w>
जाव ?</w>
जाइ त</w>
ज़ र</w>
जरू र
जरा वे</w>
ज ड़</w>
ज ्य</w>
ज रे</w>
ज तरा</w>
ज तने</w>
छठ वाँ</w>
छ ीन</w>
छ त</w>
च्छ ेद</w>
चे री</w>
चु नरी</w>
ची ,</w>
चि चि
चर म</w>
चम्पार ण</w>
च हे
च रा</w>
घू र</w>
घू मत</w>
घा टा</w>
घ ड़ी</w>
घ टल</w>
ग्री न</w>
गे शन</w>
गा ढ़</w>
ग़ ज़
गहि र</w>
ग ढी</w>
खो र</w>
खो टाँग</w>
खेसार ी
खुद कु
खि सिया</w>
खाति र
ख िया</w>
क्रिया कलाप</w>
क्रि ए
को स</w>
कुं वर</w>
कु म्
किता बि</w>
काहे ंकि</w>
काठमांड ू</w>
कह ऽता</w>
कह ली-</w>
कह के</w>
कव लेज</w>
कर् क</w>
कन ंदा</w>
कइ नी।</w>
क मि
औ जार</w>
ओ में</w>
एसोसि एशन</w>
एक् टिव</w>
एके ड
एं कर</w>
ए स्टे
ए मि
ऊ ।</w>
उल् लेख
उप स्थित</w>
उ भरल</w>
ई॰ पू
ई ंग</w>
इजा जत</w>
इचि को</w>
इको सिस्टम</w>
इ स्टेशन</w>
इ ंद्र
आवा गमन</w>
आव त।</w>
आर्किटेक् चर</w>
आय कर</w>
आप न-
आदि मी</w>
आ श
आ लम</w>
आ रा
आ कर</w>
अल कनंदा</w>
अमरी का</w>
अब हियो</w>
अने रिया</w>
अनू प</w>
अधि नियम</w>
अठार ह</w>
अच्छ ी</w>
अ ह
अ वा</w>
अ रो
ंग े
ं दी</w>
ं त्री</w>
  क</w>
u c
en s
e d
an g
al l
a y
: -</w>
8 2.
7 7</w>
6 6</w>
5 5</w>
5 1</w>
4 6</w>
3 00</w>
197 4</w>
197 1</w>
194 5</w>
16 0
15 0
1 -
- जंतु</w>
( B
’ ’
‘ ठीक</w>
्यो ं</w>
ो त्
ी ’</w>
िये शन</w>
िय नो</w>
होखी हें</w>
हा ले</w>
ह त्या
स्व राज</w>
स्व च्छ
स्पी ड</w>
स्त रा
स् लै
स् या
स् फी
सो साइ
सो रह</w>
सेंटी मीटर</w>
सूर् यो
सूरी नाम</w>
सु र्
सु रु</w>
सु दूर</w>
साहित्य -
सा लन</w>
सा ख</w>
सला ह
सर्वो च्
सर् जन</w>
सम् हर
समु न्दर</w>
समझ ल</w>
सम तल</w>
सप् त
सत्य े
सच हूँ</w>
सं छे
स ियत</w>
स ारे</w>
स रे
स तु
ष ्य
ष ण,</w>
शी य</w>
शहा बुद्दीन</w>
शब्दा वली</w>
वै शाली</w>
विश्वविधा लय
वि शिष्ट</w>
वि द्वा
वि .
वर ,</w>
व न्
लो गिन</w>
लै ंड
लि म्
लि ंग
लाग ल
लाग ता</w>
लड़ि कन</w>
लड़ ा
लई कन</w>
ल य,</w>
रोज ी</w>
रो वे</w>
रे स्तरा
रे स</w>
रे ट्स</w>
रू द</w>
रिय लिटी</w>
राम बाबू</w>
राज ी</w>
राघ वानी</w>
रा ’</w>
रह ता</w>
रख ना</w>
रंग ी</w>
र फ्तार</w>
य ौ
म्या ं
मोती लाल</w>
मु हाव
मु ठ
मु ग
मी ठा</w>
मिला के</w>
मिल िय
मिडि ल</w>
मि नि
माल वीय</w>
मार धा
माने ला</w>
मा नो</w>
मर ण</w>
मच्छ र</w>
मंगल यान</w>
मं द</w>
म िया</w>
म स्ता
म रीज</w>
भोजपुरि ए</w>
भोजपुर ियो</w>
भी ष्
भाषा वन</w>
भा दो</w>
भा खा</w>
भउ जाई</w>
भ ट्ट
बड़ की</w>
ब्र ू
बोल ली</w>
बै ंड</w>
बै ंकन</w>
बे ल्
बुड़ बक</w>
बीचो बीच</w>
बिद्य ार्थी</w>
बाहु बली</w>
बा ल्
बा ना</w>
बड़ े</w>
बटो र</w>
ब सं
ब नि
ब द</w>
ब झा
फे स्टि
फिलि मो</w>
प्लेट फार्म</w>
प्रो ग्रा
प्रति द्व
प्र मुख
प्र गति</w>
पोस्ट स</w>
पैदाइ श</w>
पे ड़-
पू रे</w>
पुर बी</w>
पु त्र
पीरिय ड</w>
पी छा</w>
पिक् सेल</w>
पाण्ड े</w>
पा नी,</w>
पा टिल</w>
पा ख</w>
पहुँ चावे</w>
परो से</w>
परि ष
पर भावशाली</w>
पनडुब् बी</w>
पद् ध
पढ़ ावे</w>
पड़ े।</w>
प सार
प नि
प ते</w>
प तु
ने हा</w>
नी र
नि क्स</w>
नाट ्य</w>
ना ल</w>
ना इल</w>
ना "</w>
नया -
नइ हर</w>
न मस्
न न
धो खा
ध ्य</w>
ध व</w>
देव लास</w>
देव ,</w>
देख वले</w>
दू न</w>
दुल हि
दु सार</w>
दु ः
दी वाना</w>
दिखा ई</w>
दाँ त</w>
दा मा</w>
दस्ता वेज</w>
द य
द त्त</w>
था ई</w>
थ ियरी</w>
ते रस</w>
ती रथ</w>
ती पुर</w>
ताड़ ें</w>
ता कत
तर ,</w>
तकनी कों</w>
त रूण</w>
त ई</w>
ण्ड र</w>
डॉ न</w>
डॉ .</w>
डि क</w>
डाय री</w>
ड़ा -
ड़ न</w>
ड ्रो
ड ौ
ड ग
ठा कु
टॉ प</w>
टै गोर</w>
टेली फोन</w>
टे शन</w>
टे निस</w>
टाइ गर</w>
ट ल,</w>
झा पा</w>
झ िया</w>
झ ान</w>
झ रिया</w>
ज्ञा नी</w>
जो ख</w>
जु टल</w>
जि ल्ला</w>
जि ले</w>
जाय सवाल</w>
जान ते</w>
जा लें,</w>
जा त्रा</w>
जवा हर</w>
जन संख्या
जगन् नाथ</w>
ज थ
छा हीं</w>
च्छ ा
चि त्
च री</w>
च मक
च क
घु मा</w>
घु म
घ ं
ग्रो वर</w>
ग्रन् थ</w>
ग् र</w>
गे ं
गृहम ंत्री</w>
गृह स्थ</w>
गू ं
गाइ की</w>
गा ,</w>
गढ़ वाल</w>
गंगा -
गँ वा</w>
ग यी</w>
ग द</w>
खेसारी लाल</w>
खु म्बु</w>
खा न,</w>
खल नायक</w>
खर च</w>
ख बर
क्रो ध</w>
कै सेट</w>
कै लाश</w>
कुमर पत</w>
कुं भ</w>
कु श्ती</w>
कार े
कार ल</w>
का शी
का श</w>
कह ऽ
कह लस,</w>
कह लन,</w>
कर ू
ओ री</w>
एव रेस्ट</w>
एम् मे</w>
एनडी टीवी</w>
एक- एक</w>
एक मत</w>
एं टी
उल् लास</w>
उल टा</w>
उल ट</w>
उपा सना</w>
उप नि
उन को</w>
उ वा</w>
उ ड़</w>
ई ज</w>
इस्ला मिक</w>
इस में</w>
इन् फेक्शन</w>
इन ,</w>
इंड ी
इं ट</w>
इ टा
आयु र्
आया म</w>
आपन- आपन</w>
आप का</w>
आन ंद
आजमग ढ</w>
आ श्र
आ शु
आ वि
आ लू</w>
आ ये</w>
आ धार
अल -
अर् न
अप भ्र
अन्दा ज</w>
अनु या
अनु भ
अध्य य
अच्छ े</w>
अ द्
अ काल</w>
ं दे
ं के</w>
ं कल</w>
ँ ।</w>
i m
e a
7 3</w>
6 00</w>
5 9</w>
5 8</w>
5 .
4 .
199 9</w>
199 3</w>
198 9</w>
198 8</w>
( R
( G
‘ ना</w>
‘ अरे</w>
॰ एन॰</w>
्य -
ो तरी</w>
ै या</w>
ृ त</w>
ार त</w>
हो लें,</w>
हो ता।</w>
हे र
हे ड</w>
हु ँ</w>
हिस् सन</w>
हिन् द
हार् दिक</w>
हल् का</w>
हम री</w>
हँ स
ह रान</w>
स्व ार्थ</w>
स्व स्थ</w>
स्मार्ट फोन</w>
सोसाइ टी</w>
सोल ह</w>
सो ल</w>
सो चे
सै कड़
सेकु लर</w>
सें ट्रल</w>
सु रंग</w>
सिद्धा न्त</w>
सिं ह।</w>
सि वा
सि ल्
साव धानी</w>
साव धान</w>
सा ।</w>
सा वल</w>
सा ली</w>
सहार नपुर</w>
सर् वर</w>
सम् हारे</w>
समुझ त</w>
समा इल</w>
सम रस
सभा गार</w>
सब कर</w>
सफ़ ेद</w>
सङ ही</w>
सके लें</w>
संछे प</w>
संगी त,</w>
सं क्रांति</w>
स सुर</w>
श्री राम</w>
श्री धर</w>
श्र ृ
श्र ु
शै ले
शुक् ला</w>
शा यर</w>
वेस्ट र्न</w>
वे ल</w>
विश्वविद्याल य,</w>
विश् वा
विज्ञा प
वि ज
वाशि ंगटन</w>
वा ।</w>
वा क
वर्ण माला</w>
व शि
व ली।</w>
व लन।</w>
व रु
व क्त</w>
लै पट
लेख कन</w>
लेख ,</w>
ले यर</w>
लुका इल</w>
ली ह
ला वल</w>
लड़ ल</w>
ल मेल</w>
ल खी
रु के</w>
राष्ट्र वादी</w>
राँ ची</w>
रा ह
रह स।</w>
रह लऽ</w>
रं जीत</w>
र स्
यो गे
य ि</w>
मौ र्
मो ं
मेह न
मे ँ</w>
मूल ्यन</w>
मूल भूत</w>
मी -
मिजा ज</w>
मारधा ड़</w>
मान नीय</w>
माइ कल</w>
मां तरण</w>
माँ गत</w>
माँ ग
महो दय,</w>
महारा जा</w>
महा मंत्री</w>
महा नगर</w>
महा देव</w>
मह ँग</w>
मर् या
मर जे
मज ह
म िया
भार वि</w>
भागी रथी</w>
भाग ि</w>
भा वी</w>
भगवान ्</w>
भ द्र
भ ंगि
बढ़ ावल</w>
ब्रे किंग</w>
ब्रज भूषण</w>
ब्या ख्या</w>
बै क्ट
बेटा ,</w>
बुजुर् ग</w>
बि भिन्न</w>
बि क्रम</w>
बि ंग</w>
बाड़ू ।</w>
बाड़ ीं।</w>
बा बरी</w>
बा प-
बा तो</w>
बर बस</w>
बन ल,</w>
बत् ती</w>
बताव ऽ</w>
बढ़ न्ती</w>
बं धा</w>
फे ंकू</w>
फु स
फी स</w>
फार सी</w>
फा उ
फला ं</w>
फर् स्ट</w>
फँ स</w>
प्रेसि डेंट</w>
प्र था</w>
प्र ताप
प्र णाम</w>
प्र जनन</w>
प् ले</w>
पै दल</w>
पेशा ब</w>
पेट्रो लियम</w>
पे य</w>
पूर्ण िया</w>
पु कार</w>
पी स</w>
पी पर</w>
पी एच
पालि का
पार ित</w>
पाठ कन</w>
पा ला</w>
पा के</w>
पहुँ चा
पहिल हूँ</w>
परिवार न</w>
परि क्र
पड़ ा
पट ल</w>
प रा</w>
प ता
न्याय पालिका</w>
न् त्र
नो ज</w>
नेवि गेशन</w>
ने ह-
ने स</w>
निय ों</w>
नि श</w>
नि ओ</w>
ना बाद</w>
ना चत</w>
ना च
नरे श</w>
नक्ष त्र</w>
नक् सल
नईख े।</w>
न हीं
न मर</w>
न मन</w>
न का</w>
धर् मांतरण</w>
द्र ब्य
दो हा</w>
देश ो</w>
देश मुख</w>
दुर् भाग्य</w>
दुआ रे</w>
दिल् ली
दिल चस्
दि न,</w>
दि ंग</w>
दा -
दब ंग</w>
द त</w>
द खिन</w>
तो ड़</w>
तू ड़े</w>
तुल सी</w>
ति उ
ताकत वर</w>
त रिक</w>
ण्ड ,</w>
ण ों</w>
ढु ंगा</w>
ड् ड
डे ढ़</w>
डे ंग
डा ई</w>
ड़ िया</w>
ड ंडा</w>
ठा ,</w>
ट् ठ
टि हा</w>
झाड़ ू</w>
झ ट</w>
जि ल</w>
जाय ेला</w>
जा गल</w>
ज़ ी</w>
ज़ माना</w>
जन क
जं घा</w>
ज ौ</w>
छु ट
छि न</w>
छ टपटा
चै ंप
चि दम्
चाह ब।</w>
चार् ल्स</w>
चल नी</w>
चउ थ
च नर</w>
च का
च ंदा</w>
घे र</w>
घुस पै
घट ना
ग्र ैंड</w>
ग्र स्त</w>
गोली बारी</w>
गोरख नाथ</w>
गो रख</w>
गु लाल</w>
गिरफ् तारी</w>
गि र्
गइ लीं।</w>
ग न्ना</w>
खे याल</w>
खू ब
खुदकु शी</w>
खी र</w>
खि ल</w>
खा ं
ख गोल
क्ष ्
क्रांति कारी</w>
क्र स्ट</w>
क्या म्प
को शी</w>
कॉ लोनी</w>
कॉ मन</w>
केदार नाथ</w>
के  
कुश लता</w>
कु श</w>
कु टु
कु कुर
कां से
काँ ग्रेस</w>
का नदार</w>
का न
कसा न
कल् पित</w>
करी ं,</w>
कर ियर</w>
कर स</w>
कम ला</w>
कम र</w>
कच हरी</w>
क ़</w>
क न्या
क त्
क क्ष</w>
ओ नके</w>
ऑ स्ट्र
एनीमे शन</w>
एजे न्
ए ब।</w>
ए कीकरण</w>
ए ,</w>
उर् फ</w>
उमी दवार</w>
उपन्या सन</w>
उपजा वल</w>
उप महाद्वीप</w>
उप करण</w>
उत्तर- पूरुब</w>
इलेक्ट्र िक</w>
इंस्टी ट्यू
आस -
आम ्र
आउ ट</w>
आं कड़ा</w>
आ ह</w>
आ रं
आ प्रवासी</w>
आ कास</w>
आ ईल</w>
अव शेष</w>
अर्थ ात</w>
अरथ :</w>
अभ ्या
अनुप म</w>
अनु शासन</w>
अझु राइल</w>
अक्षा ंस</w>
अउ रिओ</w>
अइ ली</w>
अ स्था
अ चार</w>
ंप ल</w>
ंगा र</w>
ंग िक</w>
i p
e 9
9 4</w>
84 .
8 ,
7 4</w>
5 4</w>
3 2
25 0</w>
198 2</w>
196 5</w>
12 0</w>
1 10
( सामुदायिक</w>
( संस्कृ
( जइसे</w>
( H
( D
१ ४</w>
ढ़ े</w>
्य ो</w>
ौ लत</w>
ौ रा</w>
ौ प
ै ला</w>
िय ता</w>
होख ि
हो म</w>
हु मायूँ</w>
ही रोइन</w>
हिंदी :</w>
हिं दी,</w>
हार िक</w>
हस्त क्षेप</w>
हरी श</w>
हरि द्वार</w>
हर -
हमला वर</w>
हउ वे</w>
ह र्ष</w>
स्विट्जर लैंड</w>
स्केट बोर्
सो लु
सो झ</w>
सो ची
सेवा एँ</w>
सेकू लरि
सू ख</w>
सुना वल</w>
सु री
सु रिया</w>
सु गंध</w>
सी री
साह स</w>
सामाजि क-
साम यिक</w>
साध ु</w>
सा व</w>
सा फे</w>
सा पे
सहा नुभूति</w>
सह भा
ससु राल</w>
सर्वोच् च</w>
सर्वा धिक</w>
सर्व श्रेष्ठ</w>
सरो कारन</w>
सरा हे</w>
सरा हल</w>
समुद्र ी</w>
समस् तीपुर</w>
समर् थ</w>
समरस ता</w>
सभ े,</w>
सत्ये न्द्र</w>
सत र्
संर क्षित</w>
सं ज्ञा</w>
स पूत</w>
स पुर</w>
स जाय</w>
श्री कृष्ण</w>
श् मा</w>
शे र
शृ ंगार</w>
शीर्ष क</w>
शिला लेख</w>
शरी फ</w>
शक्ति शाली</w>
व्या पारी</w>
व्य क्त</w>
व् हाइ
वै चारिक</w>
वे श
वी र
विश् लेषण</w>
विल् सन</w>
वि वाह</w>
वि तरण</w>
वा या</w>
वा ज
वर् मा,</w>
वं चित</w>
व री,</w>
व ंद
लैपट ॉप</w>
ले )</w>
लिख ीं।</w>
लिख लें।</w>
ला खों</w>
ला खन</w>
ला ए</w>
ला ंग</w>
लद्दा ख</w>
लड़ि की</w>
लउ की
ल हर
ल ट</w>
रो वत</w>
रै डिसन</w>
रे न्द्र</w>
रू ,</w>
रु कल</w>
रिली ज़</w>
राज्य मंत्री</w>
रा ए</w>
रा ंची</w>
रह ली,</w>
र म</w>
य )</w>
म् "</w>
मौ समी</w>
मैक्सि को</w>
मै दा
मे न्द्र</w>
मे डी</w>
मुहाव रा</w>
मुरा दाबाद</w>
मु हल्ला</w>
मु फ्
मार् ग
मान सिकता</w>
मान वी</w>
मा ह
मा बाद</w>
मा थे</w>
मह ंगी</w>
मर ल</w>
मर जी</w>
मंड ल,</w>
म ले</w>
म ली</w>
म क्
भूत पूर्व</w>
भारते न्दु</w>
भा ट
भग द
भउ री</w>
भइ लें</w>
ब्ल ड</w>
ब्राउ जर</w>
ब्रह् म</w>
बो ध
बो ईंग</w>
बै द</w>
बिना स</w>
बिदे सिया
बिज्ञा न)</w>
बि जेता</w>
बाद ल</w>
बाकि र,</w>
बाँ ध</w>
बा सी</w>
बा गी</w>
बा उ
बा !</w>
बह रें</w>
बर् तन</w>
बन िया</w>
बढ़ ियाँ</w>
बचा वल</w>
बं धित</w>
ब हार
ब धार</w>
फो र्स</w>
फॉ र</w>
फे ल</w>
फूहड़ पन</w>
फू टल</w>
फी ट)</w>
फि ल</w>
फि क्शन</w>
फ़ार सी</w>
फ रि
प्रोटो काल</w>
प्रभा वी</w>
प्रभा कर</w>
प् लान</w>
पै लेस</w>
पै रामा
पू .</w>
पुर्त गाल</w>
पु रानी</w>
पिय री</w>
पाँच वाँ</w>
पा पा</w>
पहिना वा</w>
परि चा
पर क</w>
पन्द्र ह</w>
पड़ े
पड़ ला</w>
पड़ रौना</w>
पंक ज</w>
प ियल</w>
प तरा</w>
प ड
न् दर्
नै ति
ने ं</w>
ने ं
नु सार</w>
नी "</w>
निलं बित</w>
निर् धारण</w>
नियु क्ति</w>
निय ो
निम् न</w>
निम् न
नि बंध
नि कास</w>
ना श्
नर क</w>
नया- नया</w>
न ंदन</w>
ध्या चल</w>
धा दिंग</w>
ध न्य</w>
द्रब्य मान</w>
देवे न्द्र</w>
देखा व
देख ें</w>
दे ।</w>
दे वा
दे ब
दे ता</w>
दू सरका</w>
दु आ</w>
दु अरा</w>
दर्श कों</w>
द वा
द दरी</w>
द ंगल</w>
था ई
त्रिवे णी</w>
ते री</w>
तुरं ते</w>
ती र्थ
तिकव त</w>
ति ल
ति ए</w>
ताला ब</w>
ता प्ले
ता "</w>
तव ने</w>
तरि त</w>
ण् डि
ढा ँ
डेमो क्रे
डेंग ू</w>
डि वी
डाई "</w>
ठाँ वे</w>
ट्रे निंग</w>
टो ं</w>
टेली विजन</w>
टे ंट</w>
टी य</w>
ट र,</w>
झा र</w>
झ क
जोन् हिया</w>
जोगा ड़</w>
जो गी
जै सी</w>
जे एन
जु लूस</w>
जि स</w>
जि त
ज़ि ला</w>
जर् म
जन ि</w>
जथ ारथ</w>
ज ला</w>
छप ल।</w>
छ त्र
चौ राहा</w>
चौ की</w>
चेता वनी</w>
चि न</w>
चाहे ला</w>
चार ,</w>
चा -
चंपार न</w>
च नो</w>
घो ं
घ रा</w>
ग्रा फ</w>
गौ री</w>
गो वर्धन</w>
गु ल्
गु र
गु ना
गावि स)</w>
गा ने</w>
गा छ</w>
गंगा देवी</w>
ग ले</w>
खे ते</w>
खे ती-
खा द</w>
खा ं</w>
ख जाना</w>
ख गो
क्ला सि
क्र ू
को लो
को पेन</w>
केश व</w>
के हू
कु रता</w>
कु णा
कु ट</w>
कार्य कारि
कार्यकारि णी</w>
कार न,</w>
कार -
काम ो</w>
का श्मी
का व
का ले
का नी</w>
कह ता</w>
कव र</w>
करा के</w>
कर हीं</w>
कम ्यू
कट हर</w>
कइ लें,</w>
ओ ठ</w>
ओ ं
एमि रेट्स</w>
उप स्थिति</w>
उन से</w>
ई रान</w>
ई याद</w>
इहाँ के</w>
इन् दिरा</w>
इज्ज ति</w>
इंटर टेनमेंट</w>
इं द्र</w>
इ हा</w>
इ मरजे
इ ज
इ ंग
आशु तोष</w>
आप त्ति</w>
आं तरिक</w>
आ ल्
आ ल</w>
आ ल
आ ना</w>
अस हीं</w>
अमृ तसर</w>
अनु राग</w>
अध्य क्ष
अध ू
अइ हें।</w>
अइ लें।</w>
अं टार्
अँ गुरी</w>
अ हिंसा</w>
अ लेक्
अ पार</w>
ंगा ई</w>
ं गो</w>
r an
ig h
es t
el l
a b
a )</w>
] ]
85 .
7 .
7 %</w>
6 9</w>
6 3</w>
199 5</w>
196 9</w>
19 12</w>
1  
1 1,
0 -
( फिलिम)</w>
( जनम
" ;</w>
‘ ‘
‘ ल
॰ पी
॰ एस
। <br></w>
ड़ ु
्र ू
ै ।</w>
ी ं
ियन शिप</w>
िय ारा</w>
ि ल</w>
ि क,</w>
होइ ए</w>
हो स्ट</w>
हु र</w>
हु द
हिअ ।</w>
हिंद ू,</w>
हि म्
हाजि री</w>
हाई स्कूल</w>
हरि राम</w>
हर मे
हजार ों</w>
हँ वे</w>
ह ्र
ह िया
ह स्ता
ह त्य
स्ना तक</w>
स्ना त
स्त ृत</w>
स्ट्रेल ियाई</w>
स्ट्रे शन</w>
स्ट्र क्चर</w>
स् र</w>
स् कै
सौ न्दर्
सो गह
सो ख</w>
से ंस</w>
से ?</w>
सूर्यो दय</w>
सुना ई</w>
सु मन</w>
सु दामा</w>
सु गं
सी ॰</w>
सी वान</w>
सिनेमा घरन</w>
सिनेमा घर</w>
सि व</w>
साहि ब</w>
साँ ढ़</w>
सा धे</w>
सा इं
सर् वि
सरकार ो</w>
सम् पूर्ण</w>
सम य-
सक्र ियता</w>
सके लें।</w>
सकी लें।</w>
सक न</w>
सक ती</w>
संवेदन शील</w>
संग्र हा
स ू</w>
स स्पे
स उसे</w>
स उ
स ं</w>
श्री वास्त
श् लोक</w>
शोह दा</w>
शिका गो</w>
शि कारी</w>
शास्त्र ,</w>
शा सन
श े</w>
श पुर</w>
श क्
वै से</w>
वै या</w>
वे स्ट</w>
वे ंट</w>
विवेका नंद</w>
विभा जित</w>
वि धि</w>
वारा ना</w>
वा सन</w>
वा ली,</w>
वा ली
वा इंट</w>
व स्त्र</w>
व न,</w>
लड़ि की</w>
ले बी</w>
ले ना</w>
लु रु</w>
लु ध
ली- भोजपुरी</w>
ली क</w>
लिह ल।</w>
लाइ फ</w>
ला ?</w>
लग नी।</w>
लइ किन</w>
ल ौर</w>
ल वा</w>
ल ड्
रो हा</w>
रु झान</w>
रि सो
रि तु</w>
राष्ट्र वाद</w>
राव ण</w>
राज्य ,</w>
राज मार्ग</w>
राज दूत</w>
राख ि</w>
रा स</w>
रा प्ती</w>
रा कां
राकां पा</w>
रहल ;</w>
रह ले,</w>
रखा व</w>
रख त</w>
यो द्धा</w>
या ति</w>
य हू
य ं</w>
मोह न
मॉ रि
मैथि ली-भोजपुरी</w>
मै दा</w>
में  
मे डी
मे घा
मुख्य पृष्ठ</w>
मु अ
मि र
मि थ
मान ना</w>
मां चल</w>
मा य
मा तर
मा ं</w>
मा -
मह तारी
मह क</w>
मल् ल</w>
मलि का
मरा ठा</w>
मर ि</w>
मर द-
मने जर</w>
मनी ष</w>
मध्य म</w>
मत दाता</w>
मच वले</w>
म ्य</w>
म स्त</w>
म इया</w>
भ्र मण</w>
भि न्
भाष ियन</w>
भा सी</w>
भा वन</w>
भा इयन</w>
भर तपुर</w>
भ गा</w>
ब्राजी ल</w>
बोल ले,</w>
बै टरी</w>
बै ंग
बे न</w>
बे गम</w>
बे ंच</w>
बूझ ि</w>
बुड़ बक</w>
बुझा ते</w>
बी त
बी -
बिद ्या
बिग ड़ल</w>
बि तरण</w>
बि ख
बाबू ,</w>
बा लू</w>
बा यो
बहु धा</w>
बन् हले</w>
बद ौलत</w>
बता ई</w>
बजा वत</w>
बंग लौर</w>
ब हाल</w>
ब स्
ब गइ
ब खूबी</w>
फेड रेशन</w>
फूह ड़</w>
फार स</w>
फार म</w>
फाइ नेंस</w>
फ रार</w>
प्रो फ़ाइल</w>
प्रेम ियन</w>
प्रति बद्धता</w>
प्र हार</w>
प्र युक्त</w>
प्र भावशाली</w>
पोख री</w>
पूजा -
पुरू ष</w>
पी डिया</w>
पी ए</w>
पार्ट ियन</w>
पा टन</w>
पहुं च
पहि रे</w>
परौ ठा</w>
परे ड</w>
परिवार ,</w>
परि निर्वाण</w>
परि चर्चा</w>
पर देस</w>
पर त
पढ़ त</w>
प रान</w>
प ति,</w>
प ंद्र
न् स
नो बल</w>
नी ला
नी यत</w>
नी .</w>
निवे श
नि रं
नि न्दा</w>
नि चली</w>
नाश् ता</w>
नाम वर</w>
नाथ ,</w>
ना ई
ना ?</w>
नमस् कार</w>
न कल
धु आँ</w>
धर् म,</w>
ध ना</w>
द् ध,</w>
दो स्ती</w>
देख िके</w>
दे ही</w>
दे हल</w>
दे हरा
दे लन।</w>
दुल् हा</w>
दुन् नो</w>
दु सम
दु निया
दी दी</w>
दिह लस,</w>
दा ।</w>
दर ्रा</w>
दर बारी</w>
दर कार</w>
दया शंकर</w>
द स्
थु न</w>
थाई लैंड</w>
तु ंग</w>
तब ियत</w>
त टीय</w>
ढ़ ाई</w>
ढ ि
ड्र ि
डॉ क्ट
डे वल
डाइरे क्ट</w>
डा लत</w>
डा ढ़</w>
ड़ ी-
डल ले</w>
ड क</w>
ठे ठ</w>
ठाकु र,</w>
ठा करे</w>
ठ ,</w>
टे ंडर</w>
टु की</w>
टाइ प</w>
झे लत</w>
झ टका</w>
जोगी रा</w>
जो ल</w>
जे शन</w>
जे ने</w>
जे करी</w>
जू नियर</w>
जु बान</w>
जी आइ
जि ट</w>
जा सु।</w>
जा ल
जा गत</w>
जा ग</w>
जरा वल</w>
ज लो
ज पुर</w>
ज तन</w>
ज गावे</w>
छि ट
छा या</w>
छ ि</w>
चुना इल</w>
चिदम् बरम</w>
चिच िया
चि हुँ
चि स्तान</w>
चा हिए</w>
चा ण
चन्द्र मा</w>
चतुर् वेदी</w>
चढ़ ावे</w>
चढ़ ावल</w>
चट्टा नी</w>
चंडी गढ़</w>
च यन</w>
च न्द</w>
घो ड़ा</w>
घे रले</w>
घू म</w>
ग्रे ड</w>
गो लाई</w>
गो लन</w>
गो मती</w>
गुला बी</w>
गि रत</w>
गां धी
गर् ल</w>
ग ौर</w>
ग रु
ग ज</w>
ग ंदा</w>
ग ंदगी</w>
खु स</w>
खि लौना</w>
खा ल</w>
खा द्य</w>
खंड )</w>
ख ियन</w>
ख तिर</w>
ख ट्टर</w>
क्ष य</w>
क्वार ्टर</w>
क्यो ंकि</w>
कौ र</w>
कॉ केशस</w>
कैरे बियन</w>
कै श</w>
के ल</w>
कुल पति</w>
कु म</w>
कु आ
कार्य कर्
काबि ज</w>
का वत</w>
का या</w>
का ज
कहा उ
कह सु</w>
कह ँ
कर् तव्य</w>
करी ं
कमी शन</w>
कटि का</w>
कटा व</w>
क भार</w>
क टिया</w>
क टा</w>
ओ पन</w>
ऐ सन</w>
एह सास</w>
एह नी</w>
एस्टे रॉ
एनडी ए</w>
एकद मे</w>
एक नी</w>
ए मे</w>
ए .</w>
उस का</w>
उम्मी दवारन</w>
उम ंग</w>
उपाध्या य,</w>
उप हार</w>
उन हीं</w>
उद्यो ग
उच्च तम</w>
उ ड</w>
उ ज
ई स</w>
ई ओ</w>
ई .
इंद ू</w>
आशी ष</w>
आर ॰</w>
आध्या त्मिक</w>
आ ज़ा
आ चरण</w>
आ गे
आ -
अस् मिता
अमृ ता</w>
अफ्री की</w>
अप ील</w>
अप न
अन् न
अनु च्छेद</w>
अध्या देश</w>
अधू रा</w>
अद् भुत</w>
अ हं
ंगा ,</w>
ं दा
ं खला</w>
ँ ,</w>
ra ph
i f
g e
er s
e s</w>
? "</w>
9 8</w>
9 7</w>
9 3</w>
9 2</w>
7 9.
7 6</w>
5 -
198 4</w>
198 0</w>
197 9</w>
196 2</w>
194 9</w>
194 2</w>
0 ,000</w>
(अंगरेजी :
( गाविस)</w>
% )</w>
" ),</w>
‘प्रेम ’</w>
‍य क्ष</w>
२ १</w>
ढ़ ि</w>
्रा ंस</w>
ौ ना</w>
े ले</w>
ारा नी</w>
ार न</w>
ा पा</w>
होखे ं</w>
होख सु।</w>
है सियत</w>
हेग ड़े</w>
ही रो
हिमा नी</w>
हिडि म</w>
हिंदु स्तान</w>
हिंद ू
हि ष्ण
हा टी</w>
हड़ ताल</w>
ह सन</w>
ह ईं,</w>
स्नात को
स्टैंड र्ड</w>
स्ट ॉ
स् का</w>
स् क
सो लर</w>
सेक् सु
सेकूलरि ज्म</w>
से न्
सू ट</w>
सुल्ता नपुर</w>
सुन् नर</w>
सुना वे</w>
सुघ राई</w>
सु नी</w>
सी रिया</w>
सी ढ़ी</w>
सिखा वे</w>
सिखा वल</w>
सि रीज</w>
सा दी</w>
सा ड़ी</w>
सा ंग
सहा य</w>
सर ी
सर धा</w>
सम् मत</w>
समा नां
समझ त</w>
सम शीतोष्ण</w>
सम ता</w>
सब् सि
सन् ना
सन् दर्भ</w>
सत ल
सजा वल</w>
संग्रहा लय</w>
सं वेदन</w>
सं बै
संबै धानिक</w>
सं जु
संजु क्त</w>
सं जीव</w>
सं कर</w>
स सुर
स पाट</w>
स न्न</w>
ष्ट मी</w>
ष ण
श्रे णी
श्री मती</w>
शिव पाल</w>
शिका य
शि वि
शा न्त</w>
शं करा
वे शी</w>
वे त्ता</w>
वीरे न्द्र
विश्वविद्याल यन</w>
विद्या निवास</w>
विका स
वि श्रा
वि राम</w>
वि न्
वि धि
वि द्
वा ड़ी</w>
वा यर
वर्ग किलोमिटर</w>
व लसि।</w>
लो को
लो का
ले वा</w>
ली .</w>
लिह नी।</w>
लाग ी,</w>
ला ल,</w>
ला गो</w>
लग े।</w>
लग ल</w>
लउ की</w>
ल ड़</w>
ल छि
र् द
रो प
रू पां
रू ट</w>
री न</w>
री ओ</w>
री )</w>
रि क्
राष्ट ्री
राम देव</w>
राज घराना</w>
राज कुमारी</w>
रह वीं</w>
रह ब।</w>
रवि शंकर</w>
रच ना,</w>
रख ला</w>
र मन</w>
र ति</w>
र तन</w>
यु नाइटेड</w>
यर "</w>
म् मी</w>
मोहब् बत</w>
मो दी
मो ताबि
मो टू</w>
मैने जर</w>
मेहरारू वन</w>
मे ़</w>
मे ल
मू ड़ी</w>
मुद् दन</w>
मुठ भेड़</w>
मुँ ह
मु काम</w>
मु क</w>
मी ।</w>
मी ल)</w>
मी त</w>
मिर् जा</w>
मि स्र</w>
मा ली</w>
मा न्
मा ंड</w>
महा काव्य</w>
मह बू
मह ंगाई</w>
मरद- मेहरारू</w>
मनो रं
मना वत</w>
मधु बनी</w>
मधु कर</w>
म ’</w>
म नव
म नगर</w>
म चा
भौ गो
भो ग</w>
भी त</w>
भी खा</w>
भार ते</w>
भा स्कर</w>
भा गत</w>
भइ लन</w>
भ र्ती</w>
बे र-
बू ढ़
बु ता
बिग्या न</w>
बि लुप्त</w>
बि ला
बान र</w>
बाजार ू</w>
बा ह
बा रूद</w>
बा याँ</w>
बा पे</w>
बा पी</w>
बा डे
बर् मा</w>
बन ने</w>
बतव लें</w>
बँ वारा</w>
ब से</w>
ब से
ब सिया</w>
ब घ
फ्रें चाइ
फ्रे ड
फ् लो
फिलि म,</w>
फिरका वाराना</w>
फार्मे ंस</w>
फा टल</w>
फ़ ्रांस</w>
फ इले</w>
पड़ ी,</w>
प्रे शर</w>
प्रि ं
प्रा णी</w>
प्रभु नाथ</w>
प्र शिक्षण</w>
प्र वास</w>
प्र मोशन</w>
पैरामा उंट</w>
पै र</w>
पूर् वक</w>
पूछ नी</w>
पू ल</w>
पुरा वे</w>
पि न</w>
पि ट
पि का</w>
पा यल</w>
पा ड़ा</w>
पहि र</w>
पव लस।</w>
परे ला</w>
पर फार्मेंस</w>
पनी र</w>
पत् थ
पतु रिया</w>
पढ़ ावल</w>
पठ ारी</w>
पक ड़े</w>
पंच मी</w>
पं जा</w>
प ै</w>
प ला</w>
प ढा
न् नि
ने त
नी च</w>
निय ति</w>
निम्न लिखित</w>
निक से</w>
नि री
नि खिल</w>
नि कन</w>
नाटक कार</w>
नागरि कता</w>
ना मा</w>
नवरा त्र</w>
नव मी</w>
नर संहार</w>
नम कीन</w>
न ष्ट</w>
धन बाद</w>
देहरा दून</w>
देख ली</w>
देख ने</w>
दे सु</w>
दे वी,</w>
दे ली</w>
दे ल</w>
दे ना</w>
दु ब
दु अर्थी</w>
दी पिका</w>
दी प,</w>
दी क्षित</w>
दि नन</w>
दि आ
दार ू</w>
दलि त-
दर असल</w>
दक्खिन- पूरुब</w>
द ्</w>
द ंग</w>
थ्रि लर</w>
थो लिक</w>
थो रि
त्र ित</w>
त् वा
तै नात</w>
ते रा</w>
तुर ंत</w>
तु र</w>
ती तर</w>
ति रहु
तर ल</w>
तर -
तथा कथित</w>
त रे
त निक</w>
त काल</w>
णा ,</w>
डे र
डि ट</w>
ड़ ,</w>
ड बिंग</w>
ड च</w>
ठ हरा
ठ ठा</w>
टे क</w>
टू टि</w>
टी ला</w>
टि का</w>
टा स</w>
ट ्री
झु काव</w>
झा ँसी</w>
झक झो
झ ँ
जेएन यू</w>
जे ब</w>
जु ड़</w>
जी वित</w>
जी प</w>
जानल- मानल</w>
जाइ त।</w>
जब -
जन मत</w>
जग नाथ</w>
ज ियो
ज तवले</w>
छू टे</w>
चौ दह</w>
चू से</w>
चि हा</w>
चि ता</w>
चाण क्य</w>
च लीं।</w>
च नी</w>
घु से</w>
घट त</w>
घ ी</w>
ग्रे टर</w>
ग्र ि
गो ला
गो इ
गो ंडा</w>
गो ंड
गुज रल</w>
गु ड़ी</w>
गु ड</w>
गिर फ
गि री
गि नत</w>
गाँ ठ</w>
गा जिया
गर् दन</w>
गरे ट</w>
गणित ज्ञ</w>
गइ लेन।</w>
गंग ो
ग ्य</w>
ग एल।</w>
खो द
खास कर</w>
खम् हा</w>
ख ारा</w>
ख न
ख इला</w>
क्ष ु</w>
क्लासि कल</w>
क्रि सम
क्र ी
को न</w>
को ख</w>
को इला</w>
को ंक
कै नियन</w>
कै थोलिक</w>
के करो</w>
कुणा ल</w>
कुछ ो</w>
कु शल</w>
कि रन</w>
कार ण,</w>
का मना
का ठ</w>
का ंग</w>
कहा नी
कह ऽ</w>
कह लें,</w>
कह ते</w>
कसान देह</w>
कला त्मक</w>
कलक त्
कर ले</w>
कर प्शन</w>
कर त,</w>
कम्प ्यूटर</w>
कमे टी</w>
कन्नौ ज</w>
कज रा</w>
कउ वा</w>
कइ लन,</w>
क लिंग</w>
क टल</w>
ओही जे</w>
ऑ क्सीजन</w>
एहि से</w>
एक्ट र,</w>
ए ॰</w>
ए नालि
ए तिहा
ए ई
ऋ तु
उर् दू
उत्तरा धिकारी</w>
उत जोग</w>
उ लु
उ ड़ा
उ ड
ई या
इला म</w>
इम्तिहा न</w>
इत्यादि )</w>
इंड े
इ हें।</w>
इ स्टे
इ ब्रा
इ नार</w>
आर् काइ
आम्र पाली</w>
आतंक वादियन</w>
आजु ए</w>
आकर् षित</w>
आइ ब</w>
आँ च</w>
आ सन</w>
आ क्
अल गा-
अर् चना</w>
अमी रात</w>
अभ्या स</w>
अन् तर</w>
अनु रोध</w>
अन जाने</w>
अध्य क्षा</w>
अझु रा</w>
अछ रंग</w>
अक सर</w>
अइ हें</w>
अंग ी
अ रूण</w>
अ ढ़ाई</w>
अ जा</w>
अ छा
ंग ी
  °
r ic
og raph
i s</w>
er )</w>
8 4</w>
4 3</w>
4 3
3 1
195 5</w>
193 6</w>
17 0
14 0
1 17
( W
( 3
" ओ
… ’</w>
‘ सु
‘ चल
‍ ली</w>
३ ०</w>
ॉ निक</w>
ियो ग</w>
िय र्
होख ब।</w>
होख बे</w>
है री</w>
है ं
हे ं
हु सै
हिन् दु</w>
हि रा
हार ,</w>
हाँ ।</w>
हा ला</w>
हर भ
हमार ’</w>
हँ सि</w>
ह ारा</w>
ह कदार</w>
ह ?</w>
स्थि ती</w>
स्थ ली</w>
स्ट्र ि
स्टी ल</w>
स्ट ंट</w>
स् सा</w>
स् य
स् नान</w>
स् तिक</w>
स् ति
स् की</w>
सो म
सो नू</w>
सो चि
सेमी फाइनल</w>
सृ ष्टि</w>
सू क्ष्
सुनी ता</w>
सु री</w>
सु बह</w>
सु खा
सु ंदर</w>
सु ंद
सीता म
सी रिज</w>
सिं ध</w>
सि ग्
सि क्यो
सि ंगर</w>
सांस् कृति
सां सद
सां स</w>
सां चो</w>
सा हु</w>
सा म्
सा धु
सा -
सल् त
सल्त नत</w>
सर् कु
समा हित</w>
समा जिक</w>
सम खास</w>
सप् लाई</w>
संर क्षक</w>
संप्र भु</w>
सं श्
सं था
स पोर्
स ने</w>
स जीव</w>
श्रीवास्त व,</w>
श्री नगर</w>
श् वरी</w>
शो ध
शै क्ष
शे क्स
शी ,</w>
शिल् पा</w>
शाय री</w>
शशि कला</w>
शरा ब
शं कु</w>
शं का</w>
श व</w>
श मी</w>
श म
व्हाइ ट</w>
व्याव सायिक</w>
व्या ख्या
व्य ंग</w>
वेल् थ</w>
वितर क</w>
वि ख्यात</w>
वाल् मीकि</w>
वान गी</w>
वा ह
वा सि
वा णि
वा ट्स
वा इल</w>
वसू ली</w>
वर् दी</w>
वर् क</w>
व हार</w>
व ण</w>
लड़ की</w>
लो ,</w>
लॉ स</w>
लै ंगिक</w>
ले बे
ले न
ले ;</w>
ली हें।</w>
लिखे -
लागे ला,</w>
लाइ व</w>
ला व</w>
लन -</w>
लग ी</w>
लउ क</w>
ल पे
र् ग</w>
रोज ी
रेस्तरा ं</w>
रे ंस</w>
रि ज्म</w>
रि क्त</w>
राम चनर</w>
राम गुलाम</w>
राज गीर</w>
राज ग</w>
रा मेश्वर</w>
रा ते</w>
रहि त।</w>
रह स</w>
रब ंदर</w>
र की</w>
यो द्धा
यू रे
या त्र
यहू दी</w>
म्यू जियम</w>
मोताबि क,</w>
मो हि
मॉ न्
मे म</w>
मे टा</w>
मुग् ध</w>
मु न</w>
मिला वे</w>
मिल ले</w>
मिल त।</w>
मि स्टर</w>
मार् क्स
मार ि
माने ला।</w>
मान ्य
माई- बाप</w>
मा ही</w>
महे न्दर</w>
मन ले</w>
मन न</w>
मत ।</w>
मजू र</w>
मक बरा</w>
मँ गावत</w>
म ह</w>
म दर
म झि
म झ
म जाल</w>
भौगो लिक</w>
भूगोल वेत्ता</w>
भीष् म</w>
भार त।</w>
भाग ्य
भाग न</w>
भर सक</w>
भंगि मा</w>
भ विष
बढ़ा वा</w>
बढ़ वले</w>
बढ़ नी</w>
ब्लै क</w>
ब्राह् मण
ब्र ा</w>
बौ ना</w>
बोल ऽ</w>
बो झ</w>
बो कारो</w>
बॉ स</w>
बै र
बेर- बेर</w>
बे रिया</w>
बे दी</w>
बे टन</w>
बुझा ए</w>
बु ध
बु झ</w>
बु ंदे
बिल कुल</w>
बिद ्या</w>
बिं दुसार</w>
बि स्य</w>
बि जन
बाड़ े
बाड़ न,</w>
बाटे ;</w>
बा तन</w>
बर् दाश्त</w>
बर नन</w>
बया न
बन् ह
बना वेला।</w>
बन े।</w>
बतिया वल</w>
बता वेला</w>
बझा ँव</w>
बच् ची</w>
बचा वत</w>
बंगा ल,</w>
ब ऽ।</w>
फो र</w>
फो ड़</w>
फो कस</w>
फेस्टि वल</w>
फू ट</w>
फी चर</w>
फा स्ट</w>
पढ़ ले</w>
पड़ ेला</w>
प्री तम</w>
प्राइ मरी</w>
प्रति रोध</w>
प्र ा</w>
प् लै
पो रबंदर</w>
पूर्वा ह्न</w>
पूं जी
पीआर ओ</w>
पिय ला</w>
पिछ लका</w>
पिछ ड़ा</w>
पांड ि
पाँच वा</w>
पा ।</w>
पा लक</w>
पहि रल</w>
पहि र
पल ट</w>
परिचा लन</w>
पर म-
पद्ध ति</w>
पंजा ब,</w>
पं थी</w>
प सन</w>
प टा</w>
न्द्र नाथ</w>
न् ही</w>
न् वित</w>
न् तर</w>
नी तिक</w>
नी )</w>
निभा वे</w>
निग रानी</w>
नि हाल</w>
नि चे</w>
नागा लैंड</w>
ना म,</w>
नवा ज</w>
नर्म दा</w>
नक ली</w>
न िया,</w>
धड़ कन</w>
धो नी</w>
धु ँआ</w>
धा -
धा ,</w>
धमा का</w>
ध पुर</w>
द्य नाथ</w>
दौ रान,</w>
देख ब</w>
दे बि।</w>
दीर् घ</w>
दीप समूह</w>
दी पावली</w>
दी दा</w>
दी क्षा</w>
दिल् ‍ली</w>
दिना ंक</w>
दर्श को</w>
दक्खि नी-
द स्त
द फ्
द ं
थ े।</w>
त्र ,</w>
त् ति
तो स</w>
ते या
तू ड़</w>
ताप्ले जुंग</w>
त ह</w>
त पे
त न।</w>
ण े</w>
डो ल</w>
डे रा
डी एम</w>
डि ब्बा</w>
डि क्श
डायरे क्टर</w>
ड़ ु
ड ार्
ठु मरी</w>
ठा कुर
ट्रै क्टर</w>
टेक् नो
टे क
टु कड़ा</w>
टा वर</w>
ट करा</w>
जो ड़े</w>
जो र-
जै विक</w>
जे ने
जे ,</w>
जु ला
जु टावे</w>
जी बी</w>
जाइ ब।</w>
जा ऽ
जा दू
जने ऊ
जनेऊ धारी</w>
जइ से-
जइ सहीं</w>
जं तर</w>
ज ॉर्
ज ियन</w>
ज ले</w>
ज रि</w>
ज टिल</w>
छोड़ ीं</w>
छ ान</w>
छ ंद</w>
चौ बीस</w>
चौ ड़ा</w>
चे ,</w>
चु अल</w>
चिर ई)</w>
चिं तित</w>
चा नी</w>
चा ंग</w>
चहुँ पा</w>
चड् ढ़ा</w>
चउथ का</w>
च हु
घा र</w>
घ े</w>
ग्रा फिक</w>
गौ री
गोदा वरी</w>
गो ।</w>
गुरु त्वा
गुं जाइ
गिरी श</w>
गि रा</w>
गर मा
गढ़ ,</w>
गंगो त्री</w>
गँ वे-
ग ॉर्ज</w>
ग ार्ड</w>
ग या
ग एल</w>
खोज ले</w>
खो लल</w>
खो री</w>
खे ला</w>
खान पान</w>
खा ।</w>
खा समखास</w>
खरी दारी</w>
ख त
क्स फोर्ड</w>
क्ट र
कोह बर</w>
कोर ियो
कॉ म्
कॉ पी</w>
कैं सर</w>
कै मरा
के ॰</w>
के मि
के बिल</w>
कु रा</w>
किस् मत</w>
किमी ²</w>
कि डनी</w>
कार्य क्र
कांसे प्ट</w>
कांग्रे से</w>
कांग्रे सियन</w>
का ले</w>
का लय</w>
का टि</w>
का टत</w>
क़ ा
कही ं-
कह लें-</w>
कवि तन</w>
कल् चर
कले क्शन</w>
कल र</w>
कर् षण</w>
करो ड</w>
करा ची</w>
कर वट</w>
कबी र
कठो रता</w>
कइ ल
कंप ्यू
कं चन
क ला,</w>
क नो</w>
औ कात</w>
ओह के</w>
ओ खल
ओ इजा</w>
ऑ टो
एह ले</w>
एयर वे
ए ला
ए काद
ऊँ ख</w>
उम् र</w>
उदा सी</w>
उद ्यम</w>
ईसा पूर्व</w>
ई स्वी</w>
इन हीं</w>
इन कार</w>
इग् नू</w>
इको लॉजी</w>
इंडी ज</w>
इ च्छा
इ ंग</w>
आवश्य क</w>
आव त-
आर्काइ व</w>
आग म</w>
आकाश वाणी</w>
आइएस ओ</w>
आ चार</w>
आ चार
आ खर</w>
आ आपा</w>
असम िया</w>
अव ले</w>
अव धारणा</w>
अमरी की</w>
अब् बो</w>
अन् तिम</w>
अनु रूप</w>
अनु ज</w>
अन शन</w>
अन गिनत</w>
अज मेर</w>
अज बे</w>
अग हन</w>
अक्ष य</w>
अँ कव
अ बीर</w>
अ ड्
अ कस
ंद्र नाथ</w>
ंड िंग</w>
ंग "</w>
u b
o w
in g</w>
i n</w>
d e</w>
a v
a p
C )</w>
A n
9 1</w>
8 6</w>
8 1</w>
6 -
4 4</w>
4 2
4 1</w>
4 %</w>
3 20</w>
2 2
2 10
198 5</w>
197 3</w>
193 4</w>
193 0</w>
10 ,
00  
(अंग्रेज़ी: )</w>
( L
( 197
…. ।</w>
२० ०
। ।</w>
।  </w>
ड़ -
ग़ज़ ल</w>
् ठा</w>
ै ं</w>
े य</w>
ी "</w>
ि ला</w>
ा इल</w>
ऽ तानी</w>
ऽ ता,</w>
ऽ !</w>
होखे ं।</w>
होइ हें।</w>
हे लो</w>
हे ,</w>
हु ये</w>
ही र</w>
हिस् सा,</w>
हिष्ण ु
हिमा लिनी</w>
हिच कि
हि ला</w>
हार् ड
हाइ ड्रो
हा स</w>
हा लिया</w>
हा द</w>
हर त</w>
हम नी
हज ारे</w>
ह जारी</w>
ह ऊ</w>
स्व ॰</w>
स्व ।</w>
स्व यं</w>
स्पे क्ट
स्टे ज</w>
स्ट न</w>
स्कॉ ट
स् पै
स् पर</w>
सौ दा</w>
सो हर</w>
सो ं
सै टे
से ज</w>
सूँ स</w>
सू ते</w>
सुख द</w>
सु रू
सु निके</w>
सु तल</w>
सी सी
सी टन</w>
सी क्
सी एम</w>
सिं धु
सि हं</w>
सि गरेट</w>
सार धा</w>
साम्राज ्यवाद</w>
साथ ।</w>
साथ ियन</w>
साइ बर</w>
सां के
सा यन</w>
सलाह कार</w>
सर् जिकल</w>
समानां तर</w>
समाज वाद</w>
समर्थ कन</w>
समर् पण</w>
सम े</w>
सच हूं</w>
सं धि
सँ उप
सँ ,</w>
स रह
स नोज</w>
स तरह</w>
स चेत</w>
स को</w>
श्रो ता</w>
शु क्र
शी ट</w>
शि रो
शहरी करण</w>
शनि वार</w>
शत्र ु</w>
व्यवसा यी</w>
वै ज्ञा
विद्या पीठ</w>
वि संग
वि लय</w>
वि मान
वि नय
वि दा</w>
वि त्
वि केट</w>
वि ंड
वाद क</w>
वशि ष्ठ</w>
व स</w>
व रा</w>
व त्
व त,</w>
व त
ल् फ</w>
लोक तांत्रिक</w>
लोक जीवन</w>
लो कार्
लॉ जिकल</w>
लॉ क</w>
ले ले।</w>
लु फ़्
ली केशन</w>
लिख ीं</w>
लि हा
लाख )</w>
ला ला</w>
ला ड
लग वला</w>
ल घ
लघ ु</w>
रो मांस</w>
रो जाना</w>
रो ं
रै न
रैन सम
रेडियो एक्टिव</w>
रे प</w>
रे ड्डी</w>
राष्ट्र गान</w>
राम ,</w>
राठ ौ
रह मान</w>
रस ड़ा</w>
रम बोला</w>
रत् ना
रच यि
रख लन</w>
रंग कर्मी</w>
रंग -
र सा</w>
र वरी</w>
र पुर</w>
यूरेश ियाई</w>
यू के</w>
य ें</w>
य ार्क</w>
य ज्ञ</w>
म् हा</w>
म् मा</w>
मेह मान</w>
में ह
मूल्य वान</w>
मूर् ति
मुस् कान</w>
मुकाब ले</w>
मुं बई
मु का
मी न</w>
मिले ला,</w>
मिला वल</w>
मि ट</w>
मि जोर
मार्ट िन</w>
मार् ट</w>
मार् क्स</w>
मार् के
मान सरोवर</w>
मातर म</w>
मा दि
महे ंदर</w>
महा बली</w>
महा जनपद</w>
मह फिल</w>
मल किनी</w>
मर्या दा</w>
मरा व</w>
मछ ली</w>
मंत्र ी
म रि
म न,</w>
म ट
म जि
भूगो ल,</w>
भू -
भि क</w>
भाव नात्मक</w>
भाई- बहिन</w>
भा स</w>
भा व,</w>
भा ई।</w>
भउ जी,</w>
भ ू</w>
भ द्रा</w>
भ ण्
भण् डार</w>
बढ़ न्ती</w>
ब्रह् मा</w>
बौद्ध िक</w>
बू ंट</w>
बुढ़ िया</w>
बुढ़ ऊ</w>
बु आ</w>
बी बीसी</w>
बिता वे</w>
बिका स
बाड़ ी
बाला जी</w>
बा ही</w>
बा रिश</w>
बा बा
बा ड
बबु आ
बन वासी</w>
बत इ
बगइ चा</w>
ब ु</w>
ब चन</w>
फ्रेड रिक</w>
फ्रा स्ट्रक्चर</w>
फे री</w>
फूहड़ ता</w>
फू ल
फु आ</w>
फिल् मावल</w>
फाय रिंग</w>
फाउ ंडे
फा र</w>
फा ँ
फरी क</w>
फ लन
फ ट
पढ़ ीं</w>
पढ़ ि</w>
प्ले क्स</w>
प्री ति</w>
प्रि ंट</w>
प्रा धि
प्रसा द,</w>
प्र ू
पूर्वां चल
पूछ लन</w>
पुस्त कालय</w>
पुर खा</w>
पु जारी</w>
पिता मह</w>
पाल तू</w>
पांड व</w>
पा हु
पा ए
पहि रले</w>
पहि चानक</w>
पव ले।</w>
पल् ली</w>
परे ला।</w>
परी क्षण</w>
परिक्र मा</w>
परि कल्पना</w>
पतझ ड़</w>
पटा खा</w>
प ारा</w>
प ने</w>
प का</w>
नो किया</w>
नै नी</w>
नेहर ु</w>
ने हा
ने र</w>
नू ।</w>
निर् यात</w>
निकल ले</w>
नि रूप
नि पा
नि पट</w>
नि त</w>
नि डाई"</w>
ना ल्ड</w>
नव ो
नगी चे</w>
नक दी</w>
न न्दन</w>
न दिया</w>
न ंगा</w>
न ,
ध्रु वीय</w>
धा ँ
धरम पत्नी</w>
धनु ष</w>
द्र व</w>
द् धन</w>
द् दर</w>
दौ ड़</w>
देह ले</w>
देख लें</w>
देख भाल</w>
दे वर
दे लस</w>
दू र-
दुः ख</w>
दु लार</w>
दु आरा</w>
दिशा ईं</w>
दि व्य</w>
दि ख
दा यक</w>
दा न
दा ंत</w>
दल दल</w>
दउ रल</w>
द हा
द हन</w>
था न्
था ती</w>
थ र्
त्रि शू
त्र ता</w>
ते ं
तू ड़</w>
तू त</w>
ता लिका</w>
तल वार</w>
तब ,</w>
तत् काल</w>
त ारा
त वाद</w>
ण ्य</w>
ढे रहन</w>
डेमोक्रे टिक</w>
डे न</w>
डू बत</w>
डी एम
डिक्श नरी</w>
डाॅ 0</w>
डा ल
ड़ त</w>
डब् लू
ड रे</w>
ठे हु
ठा क</w>
ठहर ल</w>
टे ला</w>
टु क
टाइ टिल</w>
टा इन</w>
टा ँ
झा ं
झ र
ज्या मि
ज्ञा न-
जो धपुर</w>
जो खि
जे तने</w>
जू झ
जु ड़
जु लल</w>
जु टि</w>
जी य
जी ता</w>
जि ल्ला
जान बूझ</w>
जाति -
जाए ब</w>
जा बे
जा इ</w>
जवा नन</w>
जल पान</w>
जय कान्त</w>
जता वल</w>
जग ह,</w>
जई सन</w>
ज क</w>
छो ड़ल</w>
छाया ंकन</w>
छा ड़</w>
छ त्ता</w>
चढ़ ि</w>
चै म्प
चुनौ तियन</w>
चु ं
ची फ</w>
चिन् हा
चिं टू</w>
चि न
चाह ता</w>
चार न</w>
चा प</w>
चा नके</w>
चहुँप ल।</w>
चल ला</w>
च हूँ</w>
च उद
घोष ,</w>
घा घरा</w>
घा घ</w>
घ ंटी</w>
ग्रं थन</w>
ग्र ियर्
गो ण्डा</w>
गे ज</w>
गुंजाइ श</w>
गु र्
गिर् द</w>
गिरफ तार</w>
गि ल</w>
गाजिया बाद</w>
गा ते</w>
गरी बन</w>
गय ल।</w>
गम् भी
गई ल
गइ लेन</w>
गंभी रता</w>
गँवे- गँवे</w>
ग या।</w>
ग जे
खू ँ
ख़ा ली</w>
ख़ ान</w>
खगो लीय</w>
खं भा</w>
ख ू</w>
ख याल</w>
ख दे
क्र िये
क्क ड़</w>
क् लिक</w>
कोर ियाई</w>
कोय लरी</w>
को ं
के ’</w>
के हूँ</w>
के ?</w>
कृष्ण देव</w>
कृष् ट</w>
कृ त्या
कृ त
कि स</w>
कि र्
कि छु</w>
काव्य -
कार ्या
कहे लें</w>
कहीं- कहीं</w>
कही ं,</w>
कहा त</w>
कर ण,</w>
कट ौती</w>
क मेंट</w>
क मंडल</w>
क बाब</w>
क तार</w>
क जा
क गार</w>
ओहि जो</w>
ओ रच
ओ ठ
ऑ न</w>
एस .</w>
एलि जाबे
एतिहा द</w>
एक त्रित</w>
एई जा</w>
एंड ्र
ए स्
ए सि
उस की</w>
उपो ष्णकटिबं
उप योगी</w>
उद गम</w>
उत् पाद
उ हं
उ छ
उ ख
इश् क</w>
इया ँ</w>
इमान दारी</w>
इमरजे ंसी</w>
इतिहा स
इंडि गो</w>
इंटर सिटी</w>
आस- पास</w>
आय रिश</w>
आप से</w>
आत्मी य</w>
आज कल</w>
आका शीय</w>
आकर् षक</w>
आउ ट
आ हि</w>
आ लेख</w>
आ युक्त</w>
आ क्सीजन</w>
आ कलन</w>
आ ए
असी म</w>
अल् लाह</w>
अलगा- अलगा</w>
अल बम</w>
अर्न मा</w>
अमे ठी</w>
अपरा ह्न</w>
अप हरण</w>
अन्न पूर्
अनुया यी</w>
अनु ष्ठान</w>
अध्या य</w>
अति रिक्त</w>
अक्ष रा</w>
अइ नी</w>
अंटार् कटिका</w>
अंगी कार</w>
अंग ू
अं बेडकर</w>
अं क
अ ड़
अ सा
अ सहज</w>
अ नो
अ चानके</w>
अ गर
ंग -
  के</w>
  %</w>
us )</w>
um b
s ।</w>
o r</w>
o b
m ent
m a
d ic
c on
U S
Th e</w>
O )</w>
In d
9 9</w>
7 6.
5 ,
30 0
2 1,
199 6</w>
198 3</w>
19 24</w>
19 20</w>
12 9
1 18
1 16
( लगभग</w>
( मने</w>
( जेकरा</w>
( F
( 18
… …</w>
” हम</w>
‘ योद्धा
‘योद्धा ’</w>
‘ खून</w>
‍ य</w>
‍ त</w>
२ ५</w>
१ ७</w>
० ००</w>
। ’’</w>
ड़ ियन</w>
ो न</w>
ू क</w>
ि ओ</w>
होख ीं</w>
होख ऽ</w>
हो वे</w>
हो र</w>
हो य</w>
हे रा
हुद हु
हि ल
हाई वे</w>
हा की</w>
हस्ता क्षर</w>
हरे क</w>
हर िय
हम ।</w>
हउ ए।</w>
हँ दी</w>
ह ड़</w>
ह िये</w>
ह व</w>
ह लुक</w>
ह न,</w>
स्‍ था
स्वा य
स्वा धी
स्वच्छ ता</w>
स्लै ंग</w>
स्पे निश</w>
स्त ार
स्त म्भ</w>
स्ट म</w>
स्क्री निंग</w>
स्क्री न
स् नेह</w>
सौन्दर् य
सोलु खुम्बु</w>
सोच ते</w>
सोगह ग</w>
सो श
सो नी</w>
सो ता</w>
सॉ फ्ट</w>
सै य
से लि
से क्रे
सेक्रे टरी</w>
सूर दास</w>
सुर भि</w>
सुन के</w>
सी य</w>
सी त
सिद् ध
सिग् नल</w>
सिं घा
सा ग</w>
सह स
ससुर ारी</w>
सर ू</w>
सर म</w>
सर न</w>
सम् बन्
सम् पति</w>
समुद्र गुप्त</w>
समन्व य</w>
सब र्ग</w>
सना तन</w>
सड़ कन</w>
सचि न</w>
संप्र भु
संतो ख</w>
संघ र्ष
सं बद्ध</w>
स दर</w>
स त्र
स तन</w>
श्रृ ंखला</w>
शो क</w>
शू न्य</w>
शिवा जी</w>
शि मला</w>
शाह रुख</w>
शंकरा चार्य</w>
वो ह</w>
वृ त्त</w>
वीं- सदी</w>
विश्रा म</w>
विशा खा
विजय ी</w>
वि मर्
वि कि
वा ती</w>
वा कां
वर् तित</w>
वर ो</w>
व सु
ले ब।</w>
ले ट
लू ची</w>
लुफ़् थान्
लुध ियाना</w>
ली न</w>
ली ट</w>
लिख निहार</w>
लि बर्
लि च्छ
लाग े,</w>
ला भ
लघु कथन</w>
लगा के</w>
लग ो
लक् खी</w>
ल र
ल टक</w>
ल ?</w>
रो मा
रो चक</w>
रॉ य</w>
रे ड
रे कार्ड</w>
रु द्दीन</w>
राय बरेली</w>
राज धा
रा हो</w>
रा हि</w>
रहे ं</w>
रह ू
रह ऽ</w>
रह नी,</w>
रवि कांत</w>
रजि स्ट्रेशन</w>
रजि स्टर</w>
रचयि ता</w>
रच नन</w>
रक्षा बंधन</w>
र तिया</w>
यूनि वर्
यूनि ट</w>
मौ नी</w>
मो हक</w>
मो लायम</w>
मो र्
मॉरि शस</w>
मेह ता</w>
मेघा लय</w>
मे ।</w>
मे हँदी</w>
मे रि
मे ट्रो
मे ंबर</w>
मुर् गी</w>
मुर ली</w>
मुक् के
मुं शी</w>
मु ंड
मिल ते</w>
मि का</w>
मार् मिक</w>
माय ने</w>
मा छी</w>
मा ई।</w>
मा ंड
महो दय</w>
महा सभा</w>
महा द्वी
महा काब्य</w>
महत् वाकां
महँ गाई</w>
मनो बिज्ञान</w>
मदर सा</w>
मथ ैला</w>
म स्ती</w>
म रत</w>
म य
म द्
म दार</w>
म टिया
म का
म ए</w>
भ्र ष्ट</w>
भू ल</w>
भु ज</w>
भा ला</w>
भा न</w>
भई ंस</w>
भ ड़
ब्रॉ ड
ब्राउ ज़र</w>
ब्यव स्थित</w>
ब् बे</w>
बोला वे</w>
बोध गया</w>
बो ट</w>
बो ं</w>
बैक्ट ी
बै र</w>
बै क</w>
बेवकू फ</w>
बे र
बे द</w>
बे ंग
बुध वार</w>
बु रा
बु ढ
बी ते</w>
बी छल</w>
बी ए</w>
बिहार )</w>
बिल ग</w>
बिज्ञा नी</w>
बिग ड़ल</w>
बिग ड़</w>
बि सु
बि लाई</w>
बि रो
बि रि
बि टिया</w>
बान् हे</w>
बाड़े ,</w>
बाड़ ऽ</w>
बाँ ह</w>
बा …।</w>
बा ट</w>
बा झल</w>
बर् टो
बर्टो लूची</w>
बरो बरी</w>
बर ियार
बर दान</w>
बर तन</w>
बबु अवा</w>
बना म</w>
बन -
बता या</w>
बड हन</w>
बइठा वे</w>
बइठ की</w>
बँ ट</w>
ब हरा
ब ?</w>
फ्र ै
फ् ले
फोटो ग्राफी</w>
फैक्ट री</w>
फे ड़</w>
फतेह पुर</w>
फइला व</w>
फ िया</w>
फ गु
प्ले स</w>
प्रोजे क्शन</w>
प्रो टीन</w>
प्रेम शीला</w>
प्रे म,</w>
प्राय ः</w>
प्रा सेस</w>
प्रमुख ता</w>
प्रगति शीलता</w>
प्य ारे</w>
पौ धन</w>
पोर् ट
पो सल</w>
पै सा</w>
पै रो
पै केज</w>
पे श
पे टी</w>
पे टा</w>
पे ंच</w>
पूर्व ज</w>
पू जल</w>
पुलि स।</w>
पुरुष ार्थ</w>
पु रहर</w>
पी पी
पी ड़
पी एल</w>
पिछ ले</w>
पि टाई</w>
पांडे य,</w>
पहुँच ल।</w>
पहुँ चा</w>
पसं दीदा</w>
पश्चि मांचल</w>
पल् लवी</w>
परि णा
परि चि
पर सों</w>
पर सो</w>
पर बत
पर ति
पदा धिकारी</w>
पत् ती</w>
पटा इल</w>
पछ ता
पंचा ंग,</w>
पं चि
पं खा</w>
प ी।</w>
प टी</w>
न्यू यार्क</w>
न्याय िक</w>
नैति कता</w>
ने ंट</w>
नी मत</w>
नी म</w>
नी पुर</w>
निय र,</w>
निय न्त्र
निकल ल।</w>
निकल ला</w>
नि पु
नि तिन</w>
नि ख
नि क,</w>
नागरि कन</w>
नाँ व,</w>
ना पे</w>
ना प
ना ते</w>
ना चि</w>
नहीं ’</w>
नवो दित</w>
नद ियन</w>
नगर न</w>
नउ वाँ</w>
न रक
न म्
न न्
न कोट</w>
धोखा ध
धन तेरस</w>
ध म्
ध ड़
द्व ार
दो हरा</w>
देखे वालन</w>
देख लस</w>
दे वल</w>
दे वर</w>
दे ली।</w>
दुश् मनी</w>
दुर् ग</w>
दु ई</w>
दीर् घ
दिह लें,</w>
दि पावली</w>
दि न-
दि ता</w>
दार ों</w>
दा वे
दस वीं</w>
दस वाँ</w>
द सक</w>
द लाली</w>
द ंड</w>
थ ै
थ ियो
थ मल</w>
त्रिभु वन</w>
त्रि शंकु</w>
ते वहार</w>
ती न
तिरु पति</w>
ति सरकी</w>
तारी फी</w>
तार ी।</w>
ताना शाह</w>
ता ड़
ता के</w>
तथ ्य</w>
त न,</w>
त क,</w>
त इसे</w>
ढ़ ि</w>
ड्र ोजन</w>
डे ं
डि प्लो
डाक्ट रन</w>
डा ली</w>
ड़ की</w>
ड िया,</w>
ड रा
ठो कर</w>
ठे ठा
ठहरा व</w>
ट्वि टर</w>
ट्रां स
ट्र ोजन</w>
टो ल</w>
टो बै
टो कियो</w>
टो क
टै ग</w>
टेम्प ले
टे क्ट
टू ट
टु कुर</w>
टी वी,</w>
टी जर</w>
टिप्प ण
टा ना</w>
टर् मिनल</w>
टकर इत</w>
ट ौ
ट ियन</w>
ट न
झे ले</w>
झू ठ
जै न,</w>
जु धिष्ठिर</w>
जु गा
जी ओ</w>
जिस में</w>
जिस का</w>
जि न्न</w>
जाने ला</w>
जाग रूक</w>
जा ट</w>
ज़ ्
जहाँ गीर</w>
जलो ढ़</w>
जम्मू कश्मीर</w>
जमा वे</w>
जमा व</w>
जन् मा
जन ला</w>
जग ह-
जंग ल
ज हवा</w>
ज व</w>
ज ल,</w>
ज बानी</w>
छोड़ े</w>
छोड़ ि</w>
छि तरा</w>
छठ वीं</w>
छ व</w>
चौ क
चु पा</w>
चु ट
चु की</w>
चि रा
चाहे ला।</w>
चाँ दी</w>
चा हि
चा प
चरि त</w>
चर स</w>
चन्द्र शेखर</w>
चढ़ ा</w>
चक्र वर्ती</w>
घट े</w>
घ ल</w>
ग्रियर् सन</w>
गौर व
गोवि न्द</w>
गोल् डन</w>
गो बि
गुज रत</w>
गु द
गु जर</w>
गाय त्री</w>
गा .
गहि री</w>
गर् म</w>
गड़ बड़ी</w>
गइल ?</w>
ग रिमा</w>
ग यल</w>
ग नीमत</w>
खे ती
खे तन</w>
खे त-
खुल ल।</w>
खु सरू</w>
खि ताब</w>
खा ड़ा</w>
खा ह</w>
खा ती,</w>
खा इ
ख़ ू
खरि हा
ख िया
ख जु
क्वा लिटी</w>
क्रिसम स</w>
क्रि प्ट</w>
क्रा न्ति</w>
कॉले ज,</w>
कॉ र्ड</w>
कै द</w>
के ला।</w>
के तनो</w>
कुर् ता</w>
कुरु सी</w>
कुकुर बझाँव</w>
कु लम</w>
कु ंड
किसा नी</w>
किशन जी</w>
कार्य पालिका</w>
कार् ल</w>
कार ी,</w>
कार ी
कामना ।</w>
काम ,</w>
कां गो</w>
कहा ई</w>
कह वा</w>
कह ले।</w>
कह ली।</w>
कह ली,</w>
कव ले</w>
कल् लू</w>
करो ।</w>
करे लन</w>
करे ज
कर मा</w>
कर नी</w>
कमिश् नर</w>
कन्न ड़</w>
कने क्ट</w>
कटि हार</w>
कइ स
क ै</w>
क िया।</w>
क सर</w>
क लेज</w>
क य</w>
क निया</w>
ओ वर</w>
ओ नकर</w>
ऑ डियो</w>
ऐ लान</w>
एस्टेरॉ इड</w>
एस पी</w>
एश िया
एयरला इन्स</w>
एक् ट</w>
एक मात्र</w>
ए डि
ए घरी</w>
ए गो
ऍ फ़
ऋ षि
उड़ त</w>
उपभो क्ता</w>
उपन्या सकार</w>
उपनि षद</w>
उन् नाव</w>
उद् गम</w>
उत् कृष्ट</w>
उतर ले</w>
उ जाला</w>
ई ०</w>
इस से</w>
इश् क़</w>
इला का,</w>
इमा म</w>
इन्टर नेट</w>
इन् वर्सिटी</w>
इतिहा स,</w>
इंस्टीट्यू ट</w>
इंटर व्यू</w>
इ ले।</w>
इ ली</w>
इ का</w>
आवे ले</w>
आवे ला,</w>
आल् प्स</w>
आपु सी</w>
आप े</w>
आत्मी यता</w>
आतं रिक</w>
आईए एस</w>
आँ खी</w>
आ रे</w>
आ पूर्ति</w>
आ ता</w>
अस्मिता बोध</w>
असल ियत</w>
अवि नाश</w>
अव साद</w>
अली गढ़</w>
अर् ध
अरुण ेश</w>
अमे जन</w>
अम रोहा</w>
अब से</w>
अपभ्र ंश</w>
अप े
अप वाद</w>
अप ने-
अप ने
अन् त</w>
अन ार
अध्या पक</w>
अधी क्षक</w>
अध ्
अथ र्
अत हत</w>
अग्र वाल</w>
अग राइल</w>
अइ लन।</w>
अ बर</w>
अ त्य
अ जो
ंग कांग</w>
t e
o ph
ia n</w>
i c</w>
f or
ens is")</w>
as s
S A
9 3.
9 ,
88 6</w>
87 .
8 2</w>
6 39
5 ,</w>
49 %</w>
4 7</w>
37 0</w>
196 7</w>
195 7</w>
193 7</w>
15 00</w>
13 ,
1 20
- प्रसार</w>
(संस्कृ त:</w>
(जनम :</w>
( बी
( अंगरेजी</w>
( 195
" मै
" ने
“ बिदेसिया
“बिदेसिया ”</w>
‘स जना</w>
‘ हँ</w>
‘ मानव
‘मानव ’</w>
‘ औरत</w>
॰ सी
२ ४</w>
२ ३</w>
ड़ ी,</w>
्र ोह</w>
्य ु</w>
ौ हार</w>
ै न</w>
े श
े ले।</w>
िया इल</w>
ार् ट</w>
़ ं</w>
होख हीं</w>
होइ त।</w>
हो श
हो लीं</w>
हो ली,</w>
हो इ</w>
हॉ स्टल</w>
हॉ ट</w>
हॉ की</w>
है म्
है दर</w>
हे ली
हे रा</w>
हे रन</w>
हुदहु द</w>
ही त</w>
हिष्णु ता</w>
हिय रा</w>
हिंदु स्तानी</w>
हाइ ड्रोजन</w>
हाइ कोर्ट</w>
हा नि</w>
हा ट</w>
हवाई अड्डा</w>
हरभ ज</w>
हर खू</w>
हउ ए</w>
हँ ।</w>
हँ से</w>
स्‍ थान</w>
स्वयं सेवक</w>
स्पे नी</w>
स्टो री</w>
स्ट र्
स्कॉट लैंड</w>
स्केटबोर् डिंग</w>
स् ली
सौ र्य</w>
सो व
सोव ियत</w>
सो म</w>
सैकड़ न</w>
सेलु लर</w>
सेक्सु अल</w>
सें सेक्स</w>
सें सिंग</w>
से वन</w>
से नु
सू प</w>
सुल तान</w>
सुप्री मो</w>
सु प्रसिद्ध</w>
सु निश्चित</w>
सु दीप</w>
सु खी
सी जन
सिक्यो रिटी</w>
सिक ंदर
सि कु
साहित्य ो</w>
साझे दारों</w>
सा ढ़े</w>
सा ल्
सा ल,</w>
सा "</w>
सहे ली</w>
सह कार</w>
सर्कु लेशन</w>
सर् टिफि
सरो ज</w>
सरि ता</w>
सर िया</w>
सर को</w>
समुझ ले</w>
समा जो</w>
समस् यन</w>
सभ ्य
सब्सि डी</w>
सपोर् टिंग</w>
सन सनी</w>
सतल ज</w>
संर क्ष
सं कल्पना</w>
सं क
स ्</w>
स ऽ,</w>
स स</w>
स नल</w>
स दा</w>
स झु
स जाई</w>
स ",</w>
ष् ठा
ष् क</w>
षड यंत्र</w>
ष ,</w>
श् लील</w>
शौ क</w>
शेक्स पियर</w>
शे ष
शु भी</w>
शिवि र</w>
शां ति
शा का
शर् ते</w>
शं ख</w>
श ॉ
श बन
श नरी</w>
व्या र</w>
वृ क्ष</w>
विद ्रोह</w>
वि वरण</w>
वि भोर</w>
वि पक्षी</w>
वार दात</w>
वा सु
वा ल,</w>
वा म
वा ची</w>
वर् षा</w>
वंद ना</w>
व ू
व िया</w>
व ऽ।</w>
व हीं</w>
व लो</w>
व क्
लो हिया</w>
लो भ</w>
लेख नी</w>
लू टे</w>
लु म्बि
लु अन</w>
ली हें</w>
ली गल</w>
लि लार</w>
लाँ ड़</w>
ला वत</w>
ला पर
लापर वाही</w>
ला "</w>
लस्ट म</w>
लस राय</w>
लम डॉ
लमडॉ ग</w>
लड् डू</w>
लगी हें</w>
लग हीं</w>
लख ण्ड</w>
लक्ष्मी पुर</w>
लक्ष दीप</w>
लउ के।</w>
लइ कवा</w>
ल हल
ल ड़ी</w>
रोजी रोजगार</w>
रॉ बर्ट</w>
रै ं
रे वाज</w>
रे कार्
रे ं
रु द्र
रु कि</w>
री मेक</w>
रिश्ते दार</w>
रिकार् डिंग</w>
रि सी
राजनीति ज्ञ</w>
राज नि
राज तंत्र</w>
राज कोट</w>
राज कीय</w>
राखे ला</w>
रा वाँ</w>
रा वत</w>
रा बाद</w>
रा उत</w>
रा इ</w>
रहे ली</w>
रही म</w>
रह स्य</w>
रह ती</w>
रह ट</w>
रस री</w>
रघु वर</w>
रउ वे</w>
र िया,</w>
र च</w>
र ंगा</w>
यश स्वी</w>
यं कर</w>
य कीन</w>
म् मे</w>
म् बे</w>
मो गा</w>
मै ट्रिक</w>
मेर वन</w>
में टरी</w>
मे हरा
मे व</w>
मे दि
मे टा
मुफ् त</w>
मुख ्
मु ना
मु ट्ठी</w>
मु ंग
मिसि सिपी</w>
मि साइल</w>
माल दी
मार पीट</w>
मार ,</w>
मान- सम्मान</w>
मान े।</w>
मा ह</w>
मा नी
मा निक</w>
मा धुरी</w>
मा ता
मा ञ्चल</w>
मा )</w>
मही ने</w>
महि ला
महा पर्व</w>
महा नगरपालिका</w>
मह ा</w>
मस्ता ना</w>
मर् द</w>
मन् त्री</w>
मन वेल्थ</w>
मग ही,</w>
मग न</w>
मंग िया</w>
मं थन</w>
मं टो</w>
म म</w>
म ठा
म जे
भोजपुर िये</w>
भो गे</w>
भे जे
भू ला</w>
भू म</w>
भू भाग</w>
भू कं
भू आकृति</w>
भु व
भु लाइ
भ ित</w>
भ यंकर</w>
भ क्ति
बढ़ के</w>
बोल ि</w>
बो धि
बै रिया</w>
बेह तरी</w>
बेद कर</w>
बे होश</w>
बे शक</w>
बे मार
बे टी
बे चै
बे ग</w>
बृह स्पति</w>
बू त</w>
बू ट</w>
बुल ंद
बुनिया दी</w>
बी मा</w>
बी ज
बी च
बी का
बी .</w>
बि स्व
बि सौरी</w>
बि श्
बि ता</w>
बि च</w>
बाने :</w>
बाद -
बाड़ ीं</w>
बाड़ न,</w>
बाग मती</w>
बां ध</w>
बाँ हि</w>
बा हरो</w>
बा लीवुड</w>
बा पू</w>
बा जे</w>
बा कीर</w>
बहा दुर
बसा वल</w>
बबु आ।</w>
बना वे
बना ई।</w>
बन वासियन</w>
बन ते</w>
बन चरी</w>
बतव लसि</w>
बत वला</w>
बढ़ ि</w>
बड़ -
बटो रे</w>
बइठ का</w>
बंध क</w>
ब लू
ब लु
ब ल,</w>
ब नी
ब ढा
ब जा</w>
ब गावत</w>
ब .</w>
फ्लै श</w>
फ्री डा</w>
फ्र ि
फूहड़ ता</w>
फु ट</w>
फिलि मी</w>
फिलि मावल</w>
फिलि म
फिर ौती</w>
फि राक</w>
फा ल</w>
फ़ े
फइला वे</w>
फँ सल</w>
फ गुन
पड़ो स</w>
प्ला निंग</w>
प्ला ईज</w>
प्री त</w>
प्रशा सित</w>
प्रवृ त्ति</w>
प्र स्थ</w>
प्र कोप</w>
प्ट र</w>
प् र</w>
पो षण</w>
पो रेट</w>
पो ढ़</w>
पो ट</w>
पॉ ल</w>
पेड़- पौधा</w>
पू रु
पुष् पा</w>
पुरस् कारन</w>
पु ष्टि</w>
पी ,</w>
पिया ज</w>
पिय ले</w>
पिता जी</w>
पास वान</w>
पार् क,</w>
पार म्
पा वर
पा या</w>
पा कल</w>
पा ए</w>
पा इन</w>
पा ँव</w>
पहुं चे</w>
पल टी</w>
परो सत</w>
पनी यता</w>
पदार्थ न</w>
पता का</w>
पत ियन</w>
पढ़ व
पड़ ि</w>
पट क</w>
पञ् चांग</w>
पंचाय ती</w>
प श्
प म्
प टे
प )</w>
नो -
नॉर् थ</w>
ने ल्
नील कंठ</w>
नीदर लैंड</w>
नी य
निशा ने
निर्मा त्री</w>
निक सल</w>
निक ट</w>
नि न</w>
नि चाई</w>
नाय डू</w>
नान् ह</w>
ना हीं,</w>
ना ली</w>
नवी न
नर म</w>
नफ रत</w>
नज र
नइख ीं।</w>
नइख ऽ</w>
नंद ू</w>
न ार्ड</w>
न हा</w>
न वी</w>
न लि
न च
न ंदा</w>
ध्व नि
धन कु
ध रे</w>
ध रत</w>
दो सरकी</w>
देखे वाला</w>
देखी ं,</w>
देख ीं।</w>
देख ि
देख ऽ,</w>
देख लाई</w>
देख के</w>
दे ला,</w>
दे ता।</w>
दुर् दशा</w>
दुआ रि</w>
दु पट्टा</w>
दीह ी।</w>
दी पीय</w>
दि न।</w>
दि नों</w>
दि आ</w>
दा मिनी</w>
दस्त खत</w>
दफ् तर</w>
द सो</w>
द मन</w>
द त्
द )</w>
था र</w>
थ ू</w>
थ ी।</w>
थ िक</w>
थ ि</w>
थ रूर</w>
त्सा हन</w>
त्रि नि
तोह के</w>
तो प</w>
तेज स्वी</w>
ते श</w>
ते वर</w>
ते ला</w>
ते यारी</w>
तु क</w>
तिर ंगा</w>
ति का</w>
ता श</w>
ता व</w>
ता ज
ता इल</w>
ता इ
तस् मान</w>
त िया।</w>
त हरो</w>
त हरी</w>
त प</w>
ण ्ट
ण )</w>
ढे रि</w>
डौ ं</w>
डो मेन</w>
डो म</w>
डे य</w>
डू बि</w>
डिवी जन</w>
डाइरे क्ट
डा ढ़ि</w>
डा क</w>
ठ हर</w>
ठ ठ
ट्रां सफर</w>
ट्रां सफ
ट्र ॉ
टो ली</w>
टेम्पले ट।</w>
टेक्नो लॉजी</w>
टि ग</w>
टाई गर</w>
टाइ म्
टा ला</w>
टर् मिन
टर न</w>
झु ण्ड</w>
झल कत</w>
ज्यो ति</w>
जौ हर</w>
जोगा ड़</w>
जोखि म</w>
जु ड़े</w>
जु टान</w>
जिया -जंतु</w>
जार् ज</w>
जाँ गर</w>
जा लं
ज़ा र</w>
जल् द</w>
जल -
जर्म निक</w>
जन् तु</w>
जनसंख्या ,</w>
जनक पुर</w>
जगह- जगह</w>
ज हरी
ज सहीं</w>
छात्र न</w>
छटपटा त</w>
छ ला</w>
छ न
चैंप ियनशिप</w>
चे स्टर</w>
चूँ कि</w>
चू र</w>
ची झ</w>
चित्र ित</w>
चि क्
चाह ते</w>
चार ि
चा भी</w>
चस् व</w>
चल -
चर न</w>
चतु र</w>
चंद ौली</w>
च ले।</w>
च न्
घो ंप</w>
घा हिल</w>
ग्री क</w>
ग्रा उ
ग् लै
गो हूँ</w>
गो पनीयता</w>
गो ई</w>
गें हू</w>
गुरुत्वा कर्षण</w>
गु नी</w>
गी तो</w>
गि लास</w>
गां वन</w>
गा. वि.
गंग टोक</w>
ग वा
ग ज
ख् त</w>
खो ट</w>
खे ड़ा</w>
खू ंटा</w>
खुद रा</w>
खाँ ची</w>
खा ना,</w>
खा ड़</w>
ख ्य
ख रह
ख च</w>
क्रिया- प्रतिक्रिया</w>
क्रिए टिव</w>
क्रि प्ट
क्टर निडाई"</w>
क्ट े
क् स,</w>
कोलं बिया</w>
कोर म</w>
को दर</w>
को ट,</w>
को ,</w>
कै पि
कै ट
केन्द्र ित</w>
के प</w>
कु ली</w>
किरा ँ
कि शन,</w>
कार्य वाही</w>
कारो बारी</w>
कार ।</w>
कां फ्रेंस</w>
का व्या
का ल,</w>
कहा ये</w>
कह ो</w>
कह ीं।</w>
कह ियो</w>
कवि ता,</w>
कल् प
करे लें।</w>
करे लें</w>
कमि टी</w>
कम ,</w>
कब् ज़ा</w>
कब हीं</w>
कने क्
कटो रा</w>
कइ से?</w>
कइ गो</w>
कंप टीशन</w>
कंचन जंघा</w>
क ्</w>
क श</w>
क ता,</w>
औ रंग
ओखल ढुंगा</w>
ओ र।</w>
ओ रि
ओ र,</w>
ऑर् गे
ऑपरे टिंग</w>
ऑ कल
एयरवे ज़</w>
एफ सी</w>
एप् लीकेशन</w>
एक् सेस</w>
एकेड मी</w>
एक तरफा</w>
ए इ
ऍ क्स
ऊ ंच</w>
उस से</w>
उनु को</w>
उत्तर- पच्छिम</w>
उ भार</w>
उ पास</w>
उ गे</w>
उ गा
ई॰पू ॰</w>
ई. पू.</w>
ई यन</w>
ई ंटा</w>
इले क्शन</w>
इला काई</w>
इन की</w>
इंड स्ट्र
इंजीनिय री</w>
इं प्लाईज</w>
इं च</w>
इ ऽ</w>
इ र
इ निका</w>
इ टै
इ च</w>
आश् वासन</w>
आश ारानी</w>
आरं भ</w>
आय तन</w>
आपु स</w>
आजु वो</w>
आइ स</w>
आइ ए</w>
आ हट</w>
आ ग्रह</w>
आ गा
असल हा</w>
अलेक् जे
अल गाव
अभिया न”</w>
अभिने ता)</w>
अफ वाह</w>
अन्नपूर् णा</w>
अने त</w>
अन र्थ</w>
अन चिन्
अजी ब</w>
अउ रीओ</w>
अं बाला</w>
अं ध
अं जोरिया</w>
अं जोर</w>
अं कल</w>
अ लो
अ य्य
अ या
अ मू
अ णु</w>
अ ड़
अ टै
अ कु
ंद िया</w>
ं ध</w>
  किमी</w>
u p
i le
i an
e9 e9
e n</w>
e g
ar t
a s</w>
________________ ________________
]] ,</w>
US $
C E
A r
< /
88 .
8 9</w>
8 7</w>
8 3
7 ,</w>
7 ),</w>
5 7
5 ),</w>
197 7</w>
195 9</w>
19 16</w>
19 10</w>
185 8</w>
12 6
1 ।</w>
. .</w>
- प
(" P
( यू
( फूल</w>
( आइ
( अभिनेता)</w>
( T
( 10
% ),</w>
"ने क्टरनिडाई"</w>
‘ एक</w>
२०१ ०</w>
१ २</w>
फ़ ि
्या न</w>
ॉ डिक</w>
े ं
ु र</w>
ु क</w>
िया व</w>
होखे ;</w>
होख ो,</w>
हे ठ</w>
हु लास</w>
हु जू
हीरा लाल</w>
हिरा सत</w>
हिन्दू ओं</w>
हिन्दु त्व</w>
हिडि म्ब</w>
हि रण
हिरण ्य
हि ब्र
हि त
हाइपर लिंक</w>
हा लि</w>
हा का</w>
हवे ं,</w>
हम ने</w>
हम निये</w>
हजार ी
हँ स</w>
ह ज़ार</w>
ह ौ</w>
ह स्ती</w>
ह लु
ह न
ह ड्डी</w>
ह टि</w>
स्वा मि
स्वामि त्व</w>
स्नातको त्तर</w>
स्थ ी
स्तू र</w>
स्ता द</w>
स्त न
स्टार र</w>
स् वेज</w>
स् वर्
स् लो
स् मार्ट</w>
स् क्
सैय द</w>
सैकड़ ों</w>
सै द्धा
से  
से )</w>
सुखी पुर</w>
सुंद रता</w>
सु मि
सु बिधा
सु त</w>
सु ई</w>
सीत ाराम</w>
सिस्ट म,</w>
सिंथे टिक</w>
सि फ</w>
साहे ब।</w>
सार् क</w>
साम रथ</w>
साथ े
सां झ</w>
साँ चो</w>
सा ह</w>
सा वि
सा लो</w>
सा दा</w>
सा गरीय</w>
सहभा गिता</w>
सवा ँग</w>
सर्टिफि केट</w>
सर् कि
सरा ह
समी क्षक</w>
समा वेश</w>
समझा वे</w>
सम य
सम ग्र</w>
सन्ना टा</w>
सने सा</w>
सकी ले</w>
संप्रभु ता</w>
संपाद कीय</w>
संघ ीय</w>
सं वाद
सं कोच</w>
स ड़
स ऽ
स वाले</w>
स यान</w>
स तर
स टा</w>
स ज
स गाई</w>
ष ीय</w>
श्रेणी :
शे ड</w>
शुरु ए</w>
शुभ कामना।</w>
शुक् र</w>
शु ंग</w>
शिल् प</w>
शिक्ष कन</w>
शाका हारी</w>
शा ल</w>
शा द</w>
शराब बन्दी</w>
शब् द,</w>
श प</w>
श न"</w>
व् हा
वो ल्
वैष्ण वी</w>
वे री</w>
विश्वविद्याल य
विशेष ा
विय त
विचार न</w>
वि लास</w>
वि नी</w>
वि ज्ञ
वि चित्र</w>
वि कारी</w>
वाल ियर</w>
वाज पेयी</w>
वा ड़</w>
वा टर</w>
वर् त्त
वर्त्त मान</w>
वर् जी
वर्जी निया</w>
वर् चस्व</w>
व वेद</w>
व वले</w>
व लस।</w>
व लस</w>
व धान</w>
व त।</w>
व ते</w>
लड़ ा
लोकार् पण</w>
लोका युक्त</w>
लो दी</w>
लो द</w>
ले बल</w>
ले बर</w>
लू ।</w>
लु टे
ली हीं।</w>
लिबर् टी</w>
लिख लें</w>
ला बाद</w>
लवट ला</w>
लव टा</w>
लरि का</w>
लछि मी</w>
लग् गे</w>
लग ता</w>
लखी मपुर</w>
लइ कियन</w>
ल कीर</w>
रैनसम वेयर</w>
रे ण
रु र</w>
री मा</w>
री ना</w>
री "</w>
रि जो
राजनी ति,</w>
राज काज</w>
रा ये</w>
रा धे</w>
रा णा
रा कस</w>
रहु वन</w>
रहि हें।</w>
रह ू</w>
रह सु।</w>
रवी न्द्र</w>
रजनी श</w>
रख रखाव</w>
रंग ीन</w>
र श्
यु ग
या -
य री</w>
म्यू जि
मौर् या</w>
मोहि नी</w>
मैन चेस्टर</w>
मैं ने</w>
मेहरारु न</w>
मू ला</w>
मु ड़ी</w>
मु निया</w>
मु न
मु ड़</w>
मु क्ति
मी नार</w>
मी डिया
मिल् की</w>
मिथि लेश</w>
मिजोर म</w>
मि ट्टी</w>
मि के</w>
माह टर</w>
मास्ट र
मारवा ड़ी</w>
माने ंट</w>
मान ि</w>
मान कीकरण</w>
मा हा
मा शंकर</w>
मा त</w>
मा ङ</w>
महाराष्ट ्र
महादी पी</w>
महा सागर,</w>
महा संग्राम</w>
मनुष ्यता</w>
मना ही</w>
मद द
मउ अत</w>
मंग ले</w>
मं जिल</w>
म ड़
म ियो</w>
म हिमा
म सी
म मिला</w>
म चावे</w>
भोजपुरी ओ</w>
भैर वी</w>
भें ट
भे ट</w>
भू खे</w>
भुव ने
भु आ</w>
भी तरे</w>
भी ख</w>
भि न
भा सन</w>
भविष ्य
भर मार</w>
भर पाई</w>
भर त
भइ ली।</w>
ब्र ज</w>
ब्य क्त</w>
बै लन</w>
बै राज</w>
बेटा ।</w>
बेक ति</w>
बे र।</w>
बे री</w>
बे मार</w>
बे चल</w>
बी ।</w>
बी सन</w>
बी मार</w>
बिस् तर</w>
बिसे स्ता</w>
बिस वास</w>
बि सार</w>
बि जु
बाड़ े,</w>
बाड़ ऽ।</w>
बाजार न</w>
बाँ चे</w>
बा ली</w>
बा रिस</w>
बा च</w>
बा -</w>
बह क</w>
बर् त
बर बादी</w>
बयान बाजी</w>
बबु आ,</w>
बन् हा</w>
बनार स,</w>
बना एँ</w>
बनव लें।</w>
बनव लें</w>
बद स्तूर</w>
बद री</w>
बता वेला।</w>
बतव लें।</w>
बतव नी</w>
बढ े</w>
बड़ ाई</w>
बड़ ा
बग ले</w>
ब े।</w>
ब ध</w>
ब त्त
ब टेर</w>
ब )</w>
फे र
फे ंक
फुस फु
फि न
फा यर</w>
फजी रे</w>
फ ो</w>
पढ़ ा</w>
पड़ ि</w>
प्रो त्साहन</w>
प्रिय ेश</w>
प्राइ वे
प्रा चार्य</w>
प्रशं सा</w>
प्रदेश ।</w>
प्रत्य क्ष</w>
प्रतिभा गी</w>
प्रति ष्ठा</w>
प्रति मा</w>
प्रति बद्ध</w>
प्रण ब</w>
प्र ॉ
प्र श
प्र भारी</w>
प्या दा</w>
प् वाइंट</w>
पो से</w>
पै रा
पें टर</w>
पे शे
पे ंडे
पूछ ि</w>
पूँ जी</w>
पुस्त काल
पुरा तात्
पुरातात् विक</w>
पुर -
पुनर् जागरण</w>
पुन ः</w>
पुछ ले</w>
पीरिय ॉडिक</w>
पी ड़
पिया स</w>
पि ट्टा</w>
पाहु न</w>
पार् थि
पाठ क,</w>
पाउ ंड</w>
पाँच ो</w>
पाँच वीं</w>
पाँच थर</w>
पा वेला।</w>
पा वन</w>
पा ले</w>
पा एब</w>
पा ंक</w>
पहि रा</w>
पहाड़ न</w>
पशु -
पला नी</w>
परि करमा</w>
परा सी</w>
परति ष्ठा</w>
पर वेश</w>
पर मानेंट</w>
पद् मा</w>
पद् मा
पत लू</w>
पढ़ ेवाला</w>
पंडि तन</w>
पं चन</w>
पं क्ति</w>
प स्टम</w>
प स्
प लि
प रानी</w>
न्द गी</w>
नौ सेना</w>
नौ जवान</w>
नो बेल</w>
नेहा श्री</w>
नी चा</w>
निष् का
निश्चि न्त</w>
निरूप ण</w>
निरा श</w>
निम् बा</w>
निक लेला</w>
नि हु
नि टी</w>
नि जाम</w>
नि जा
नि जता</w>
नाराय ण,</w>
नाप जोख</w>
नाट क,</w>
नाँव :"
ना हीं
ना लॉजी</w>
ना ज</w>
ना इ</w>
नरक टिया
नद याल</w>
नक्सल ियन</w>
नक् सा</w>
न मक</w>
न जीर</w>
न ई,</w>
न -</w>
धू र</w>
धर्म निरपे
ध न्
ध निया</w>
द्र वि
दो स्
देशा ंक</w>
दे शिक</w>
दे तर</w>
दृ ष्टि
दुसम न</w>
दु ष्य
दु बे,</w>
दी हीं</w>
दी ही</w>
दी वा
दी नदयाल</w>
दी दीया</w>
दिह ल
दि नी</w>
दि खा</w>
दार ो
दा जी</w>
दहि ने</w>
दहि ना</w>
दस् खत</w>
दर् शा
दया नंद</w>
दबा इल</w>
दक् कन</w>
द ले</w>
द ली</w>
द याल</w>
द बंग
थो रकी</w>
थो ड़ा</w>
थे र
थे थ
थि ए
था इल</w>
थ ला</w>
त्व वादी</w>
त्रिवे दी</w>
त्ति जनक</w>
ते न्द्र</w>
ती नी</w>
ती तर
तिर स्
ति व
ति लाक</w>
तारी फ़</w>
ता लमेल</w>
ता ल,</w>
तरफ दारी</w>
तब ला</w>
तब का</w>
तप स्वी</w>
तन खाह</w>
तं ज</w>
त वा
त ग
त उ
णा त्मक</w>
ण "</w>
ढो वे</w>
ढो ल</w>
ढाँ चा</w>
ढ ील</w>
डे हरी</w>
डे टा
डु ब
डाँ डा</w>
डा ला</w>
ड़ िया
ड़ ियन</w>
डब् ल्यू
ड ्री
ड म
ड गर</w>
ठे कान</w>
ठ ान</w>
ट्रि पल</w>
ट्रांसफ ार्
ट्र स्ट</w>
ट्यू ब</w>
टोबै गो</w>
टो ,</w>
टेक् नालॉजी</w>
टे क्ट</w>
टे ,</w>
टी ’</w>
टी "</w>
टि क्स</w>
टि काऊ</w>
टि कली</w>
टा ंग</w>
झु ं
झि ल</w>
झारख ंड,</w>
झ र</w>
झ न</w>
ज्ञ न</w>
ज् जा</w>
ज् जत</w>
जो ड़ल</w>
जीव ियन</w>
जीव ंत</w>
जीत ला</w>
जीआइ एस</w>
जी भ</w>
जी जा</w>
जी ए</w>
जिय रा</w>
जि ंदगी</w>
जान ि</w>
जान की</w>
जाति वाद</w>
जाए ँ</w>
जाँ य</w>
जा लन।</w>
जा मुन</w>
जा ईं
जल वायु
जल ज</w>
जर् सी</w>
जब लपुर</w>
जना वर</w>
जन ले</w>
जगदी शपुर</w>
ज ियल</w>
ज श्न</w>
ज ब्
ज नि
ज गा
छोड़ त</w>
छोट- बड़</w>
छात्र नेता</w>
छाँ ह</w>
छा त्रा
छप त</w>
छ प्
छ ठी</w>
चढ़ ा
चौ द
चे ला,</w>
चू क</w>
चु के</w>
चु का</w>
ची न,</w>
चि ली</w>
चि त्रा</w>
चि कन</w>
चि क</w>
चाह त।</w>
चार े</w>
चाँ द</w>
चा ।</w>
चस् का</w>
चल त-
चन्द्र ा</w>
चतुर् द
च म</w>
घु न</w>
घा तक</w>
घर नी</w>
घन घोर</w>
घट िया</w>
घ र,</w>
घ बरा
ग्रेजु एशन</w>
ग् वालियर</w>
गुल् लक</w>
गु ट</w>
गिरमि टिहा</w>
गिरमि टिया</w>
गि नि</w>
गां जा</w>
गाँव पालिका,</w>
गा त</w>
गरी ,</w>
गइ लि।</w>
गइ लि</w>
गं ज,</w>
ग ल्
ग दा
ग दर</w>
खेल कूद</w>
खू ं
खुश बू</w>
खु ब</w>
खी सि</w>
खा स्त</w>
खा दी</w>
खर् च</w>
ख ली
ख लि
ख री</w>
ख रच
ख ट</w>
क्ला सिक</w>
क्रो ड</w>
क्याम्प स</w>
क्क ड़</w>
को सल</w>
को ल्
को मल</w>
को ठी</w>
कै रो
केंद्र ित</w>
के वाड़ी</w>
कृत्या यन</w>
कृ षि
कू ड़ा</w>
कू मत</w>
कुल् ह</w>
कुछ उ</w>
कु लि</w>
कु च</w>
कु कर्म</w>
कीर् तन</w>
की ने</w>
कि लोग
काॅ लेज</w>
काहे कि</w>
कार् तिक</w>
काम -
काठमा ण्ड
काठमा डौं</w>
का बिल</w>
का ने</w>
का ण्ड</w>
का टल</w>
क़ा नून</w>
कह लस।</w>
कल्या ण
कल् पिक</w>
कला स</w>
कला कार,</w>
कर् ष</w>
करोड़ ों</w>
करोड़ ो</w>
करोड़ )</w>
करि हें</w>
कर कट</w>
कप् तानी</w>
कई यन</w>
कइ लो</w>
कइ ले
कइ लस
क ’</w>
क ियों</w>
क भर</w>
क प
क नि
क ना</w>
क ड
ओ र
ओ ढ़
ऑ क्सफोर्ड</w>
ऑ क्
एह ला</w>
एलिजाबे थ</w>
एम ।</w>
एड वें
एक्सप्रे स,</w>
एक् स</w>
एक दिन</w>
ए हमे</w>
ए त
ए कव
ऍ म
उमी दवारन</w>
उपे न्द्र</w>
उपजा ऊ</w>
उप भाषा</w>
उप निवे
उत् साहित</w>
उत् तम</w>
उतर त</w>
उठा के</w>
उ सी</w>
उ ड़े</w>
उ ड़ा</w>
उ घार</w>
उ कसा
ईं या</w>
ई शा</w>
ई यू</w>
इस्ते मा
इब्रा हिम</w>
इन् वेस्ट
इन हने</w>
इंद ौर</w>
इंडे क्स</w>
इं क
इ ब्
इ ंप
आज़ा द</w>
आवे लें।</w>
आप त्तिजनक</w>
आधु नि
आ भा</w>
आ बिस्
आ फ
आ क्रो
अवार् ड,</w>
अमृ त</w>
अमरी श</w>
अप ो
अप नव
अन् जान</w>
अनू ठा</w>
अनु भव
अनु ,</w>
अनि वार
अध्यय न,</w>
अठार हवीं</w>
अछा म</w>
अच क
अग् नि</w>
अग वानी</w>
अक्षा ं
अँ गना</w>
अ सक
अ राज
अ बे</w>
अ जित</w>
अ छूत</w>
अ गा
ंडी ज</w>
ं दार</w>
ं चा</w>
ं कर</w>
  मीटर</w>
  और 
  k
r in
r id
q u
n g
i ")</w>
e l</w>
an t
[[ श्रेणी:
90 .
89 5</w>
89 .
7 -
6 ),</w>
5 %</w>
3 ,0
198 7</w>
195 3</w>
195 2</w>
19 वीं</w>
19 17</w>
19 14</w>
19 11</w>
188 7</w>
16 7</w>
15 7</w>
14 5
13 0
10 7
) ;</w>
( भोजपुरी</w>
( इ
( J
( 14
% ,</w>
"" ।</w>
“ का</w>
‘ निरहुआ</w>
॰ )</w>
२०१ ४</w>
२०१ ३</w>
२ ६</w>
ढ़ ि
ड़ िया</w>
्र ि
् स</w>
ौ नी</w>
ौ टी</w>
ॉ न</w>
े- संगे</w>
ु ल</w>
ी हें।</w>
िया "</w>
होख त।</w>
होई ?</w>
होइ त</w>
हो ना</w>
हो गा।</w>
हो कर</w>
है ’</w>
हु कुम</w>
हु आ।</w>
ही -
हिस् सा
हिम् मत
हिन्द ियो</w>
हिं सक</w>
हि री</w>
हाॅ की</w>
हार्ड वेयर</w>
हार् ट</w>
हाई कोर्ट</w>
हाई कमान</w>
हा स्य</w>
हा पु
हा त</w>
हा ंगकांग</w>
हल् ला)</w>
हल् दी</w>
हरि श्
हर ियरी</w>
हम निए</w>
हम त</w>
ह व।</w>
ह नो</w>
ह ईं
स्ली पर</w>
स्पेक्ट ्रम</w>
स्था निक</w>
स्ट्रा इक</w>
स्टो र</w>
स्ट "</w>
स्कू ली</w>
स् ले
स् मा
स् पियन</w>
सौर मंडल</w>
सै निकन</w>
सै ं
सूत्र धार</w>
सू द</w>
सू क्त</w>
सुर् खेत</w>
सुरे न्द्र</w>
सुना मी</w>
सुना त</w>
सु नाइ
सु धर
सु तार</w>
सु खी</w>
सीरी स</w>
सीक् वल</w>
सी खल</w>
सी ईओ</w>
सिन् धु
सिद्धा न्त
सिं हासन</w>
सिं धी</w>
सिं चनी</w>
सि डनी</w>
साहित्य कार,</w>
सार न</w>
साथ े,</w>
सात वीं</w>
साझे दारी</w>
साउ ंड</w>
सांके तिक</w>
साँ झि</w>
सा मा</w>
सा धारन</w>
सा खी</w>
सहे ज</w>
सस्पे ं
सश स्त्र</w>
सर सो</w>
सर धा
सर कार,</w>
सर ं
सम्मान ’</w>
सम् मान,</w>
सम् बन्ध</w>
सम् प्र
समू चा</w>
समुझ ि</w>
समा स</w>
सभ ।</w>
सब क</w>
सप ने</w>
सन् धि</w>
सध ल</w>
सतर ंगी</w>
सत ्या</w>
सके नी</w>
सक ता।</w>
संश् लेषण</w>
संबं धन</w>
संतु लन</w>
संचा लक</w>
संग े-संगे</w>
स ियार
स हे</w>
स ही,</w>
स शक्ति
स वे
स पा
स न्त</w>
स दर
स इ
ष् कार</w>
श्रु ति</w>
शु द्
शिव रात्रि</w>
शिला न्यास</w>
शि गन</w>
शब् द-
श बाना</w>
श नि</w>
व्या ख्या</w>
व्य क्
व् ला
वो टर</w>
वैष्ण व</w>
वैश् वी
वे टि
वी णा</w>
विष्णु पुर</w>
विशे षण</w>
विमर् श</w>
विधा न
विद्वा नन</w>
विद्याल य,</w>
विद ्यु
विड म्
विज्ञाप नों</w>
विज्ञा पन
वि भागन</w>
वि क्र
वि क्टो
वार -
वा दन</w>
वा ण
वा ट्स</w>
वा क</w>
वा -
वर् ड
वर् जन</w>
वर् क
वरु ण</w>
व य
व नो</w>
व इस
व -
लड़ि कन</w>
लड़ त</w>
ल् ले</w>
लौ किक</w>
लो ज
लोज पा</w>
लो ई</w>
लै ं।</w>
लेन देन</w>
ले ने</w>
ले नी</w>
ले ते</w>
लुफ़्थान् सा</w>
ली दार</w>
ली :</w>
ली )</w>
लिख निहारन</w>
लि ट्ट
लि खि
लागे ले।</w>
लागे ले</w>
लाग ि
लाग ल.</w>
लाइ सेंस</w>
ला वा</w>
ला पता</w>
ला खो</w>
लड़ कियों</w>
लक्ष ण</w>
ल ॉ</w>
ल लन</w>
ल ँ
र् जव</w>
रोहि ंग
रोज ी-
रोज -
रो हित</w>
रो कि</w>
रॉ यल</w>
रैं किंग</w>
रेड ियेशन</w>
रेघर ियावल</w>
रे डि
रे जी
रे गा</w>
रे खा
रूप -
रू पी</w>
री ति-
रिसो र्ट</w>
रिकार् ड्स</w>
रि र्जव</w>
राम नवमी</w>
राम नगर</w>
राठौ ड़</w>
राख ब</w>
राक्ष स</w>
राइ ड</w>
रा ही</w>
रा फ्ट
रा ग
रहि हें</w>
रह स्य
रह वाँ</w>
रवी श</w>
रचना त्मकता</w>
रख ने</w>
रउ ँआ</w>
र से</w>
र स,</w>
र ंडी</w>
यूरो प,</w>
युव राज</w>
यु क्
या त्रा
यं ब
य व
म्यां मार</w>
मो ड़</w>
मो रे</w>
मो ट
मॉ ब</w>
मै रवा</w>
मै या</w>
मै काले</w>
मेहरारु वन</w>
मेमो री</w>
मेदि नीपुर</w>
मेडी कल</w>
मू लिया</w>
मुख्य तः</w>
मुख ्या
मुका बिला</w>
मु स
मी ट</w>
मी )</w>
मि शिगन</w>
मि लित</w>
मि ड</w>
मि .</w>
मार् बल</w>
मानु ष</w>
मान वा
माण िक</w>
माइ क</w>
माँ गल</w>
मा धव</w>
महि मा</w>
महारा ज,</w>
महा काल</w>
मह तार
मह त
मह ंत</w>
मह ं
मलिका इन</w>
मर न</w>
मर दे</w>
मन ोज
मन वा</w>
मन रेगा</w>
मन मौ
मध्य कालीन</w>
मध्य -
मधे स</w>
मद ्रा
मझि ला</w>
मजे दार</w>
मंत्र ी,</w>
मंत्र ित</w>
मँ ग
म वेशी</w>
म र्जी</w>
म रो
म दर</w>
म ता
म झु
भौति की</w>
भो ग
भै या</w>
भें टाइ
भू मंड
भू आ
भु जा</w>
भि क्षु</w>
भव न,</w>
भगद ड़</w>
भ ो</w>
भ गावे</w>
बढ़ ी</w>
ब्र ै
ब्या पारिक</w>
बोल ले।</w>
बोल ली,</w>
बो तल</w>
बैर नि</w>
बैक्टी रिया</w>
बैं किंग</w>
बेच त</w>
बे ल्ट</w>
बे र,</w>
बुलंद शहर</w>
बुझ ला</w>
बु र्
बु र
बु न्नी</w>
बीका नेर</w>
बी सा</w>
बी र
बी या।</w>
बी च,</w>
बी एस
बिरा दरी</w>
बिटो र</w>
बिका ए</w>
बि बा
बि छा</w>
बि च
बि आ</w>
बाद ।</w>
बाइ बिल</w>
बा रक
बा बर</w>
बा त,</w>
बा जलि</w>
बा ंग</w>
बह कल</w>
बस न्त</w>
बलू चिस्तान</w>
बला ते</w>
बर्त मान</w>
बर् लिन</w>
बरियार पट्टी</w>
बर से</w>
बर सा
बन् हाइल</w>
बना या</w>
बनव लसि।</w>
बनव लसि</w>
बता व</w>
बढ़ ोतरी</w>
बच वा</w>
बच वले</w>
बइठ ला</w>
बंध ु</w>
बं टवारा</w>
ब ्री
ब शर्ते</w>
ब लि</w>
ब नी।</w>
ब ज्
ब जार
ब करी
ब करा</w>
फ् लि
फो कट</w>
फें के</w>
फे ड़ा</w>
फूहड़ पन</w>
फु र्
फि रा</w>
फि जि
फा ंसी</w>
फर् ना
फर के</w>
फ लित</w>
फ रे</w>
फ फ
फ नफ
फ जि
फ ंडिंग</w>
पढ़ े
प्रोफे शनल</w>
प्राधि करण</w>
प्रा देशिक</w>
प्रस्ता वित</w>
प्रशं सकन</w>
प्रदेश )</w>
प्रदू षक</w>
प्रचार -प्रसार</w>
प्र वा
प्र वचन</w>
प्य ारे
प्ट ि
पौ ने</w>
पोर्ट फो
पॉ प</w>
पैं ता
पै ड</w>
पै केट</w>
पेशे वर</w>
पू ड़ी</w>
पुछ ली</w>
पु ल
पु रे</w>
पी .</w>
पी -
पी )</w>
पि न
पि आस</w>
पारम् परिक</w>
पानी पत</w>
पा णि
पहुँ चि</w>
पहि ले
पर स्पर</w>
पर मोशन</w>
पन रह</w>
पद् मिनी</w>
पत्र -
पढ़ ले</w>
पट्ट नम</w>
पं जी
प ारा
प लेट
प तो</w>
प तारी</w>
प तं
प चा</w>
प इस
न्नि सा</w>
नो कदार</w>
नु वा
नी यन</w>
नी तू</w>
नी तिन</w>
निहार त</w>
निवे दन</w>
निर् देशांक</w>
निर् द
निरा शा</w>
निरहु आ
नि हन</w>
नि भ
नि गाह</w>
नाराय ण
नाग ार्
नां दे
ना गे
ना काम</w>
नव हा</w>
नइ की</w>
न हीं।</w>
न वल</w>
न ब्बे</w>
न ती
न गि
न कर्ता</w>
ध्व जवा
धर् मी</w>
धमा केदार</w>
ध ू</w>
ध इ</w>
द्व ारा
द्रवि ड़</w>
द्र ौप
दो हरावल</w>
दो हरा
देख लन</w>
दे स।</w>
दे नी</w>
दुष्य ंत</w>
दुर् लभ</w>
दु बर</w>
दीह ले</w>
दी वानगी</w>
दी ठि</w>
दिह लीं</w>
दिसं बर,</w>
दिलचस् पी</w>
दिन- रात</w>
दिखा वल</w>
दि आइल</w>
दाहि ने</w>
दारो गा</w>
दार ,</w>
दायि त्व</w>
दायि कता</w>
दा ह</w>
दा यर</w>
दा बाद,</w>
दस्ता वे
दश हरा</w>
दर गाह</w>
द ियन</w>
द लाल</w>
द रि
द खि
थि र</w>
थ ियन</w>
थ रिया</w>
त्रिनि दाद</w>
तो प
तै यारी</w>
ते ं।</w>
तृण मूलिया</w>
तुम को</w>
तिहा ड़</w>
तिरस् कार</w>
तिथ ियन</w>
तिउ राइन</w>
ति सरी</w>
ति ओ</w>
तां शु</w>
ता खा</w>
तर् ज</w>
तरी के</w>
त हान</w>
त रे-
त नु
त :
ढ लान</w>
डो ली</w>
डी ओ</w>
डि स्ट्रि
डां सर</w>
डा क
डब् बा</w>
ड गर
ड कैत</w>
ड कर</w>
ड ंका</w>
ड ँ
ठो क</w>
ठ ियन</w>
ठ हाका</w>
ठ ल</w>
टे ं</w>
टी प</w>
टि के</w>
टा -
ट वा</w>
ट ट
ट ँ
झो ल</w>
झु र
झ िन</w>
झ न
ज्योति र्
ज्य िक</w>
जो ं</w>
जै सा</w>
जे न
जीव -
जी रो</w>
जी ना</w>
जी ?</w>
जि म
जि ज</w>
जि ं
जाऽ ला।</w>
जान -
जाग रु
जाए ब।</w>
जा ड़ा</w>
जा सू
जा नी
जा ती
ज़ े
जवा ब
जमशे द
जने ऊ</w>
जन मानस</w>
जग ा</w>
ज ॉर्ज</w>
ज स्टि
ज स
ज लेबी</w>
ज रिया</w>
ज रल</w>
ज मान
छे त्र</w>
छे ड़
छु आ</w>
छि ल्
छा वनी</w>
छा पल</w>
छ पे
चढ़ ा</w>
चौ सा</w>
चौ थी</w>
चौ थ</w>
चौ कोर</w>
चूँ कि,</w>
चुना वो</w>
ची ज,</w>
चिन् हारी</w>
चिन् ह</w>
चिन् तित</w>
चित्र कारी</w>
चा दर</w>
चल ते,</w>
चर् य</w>
चरि ंग</w>
चम् मच</w>
चमक दार</w>
चम के</w>
चम कावे</w>
चनर मा</w>
चढ़ा व</w>
चइ ता</w>
च रच
च न्दन</w>
च के
च उप
च ंदन</w>
ङ् ग
घोष णा
घे रा
गड़ बड़ी</w>
ग्र ही</w>
गोल बंदी</w>
गो ल्ड</w>
गो भी</w>
गो पी
गो द</w>
गो ं
गे टिव</w>
गुरु वार</w>
गुप् ता,</w>
गी ति</w>
गी ता
गिरि धर</w>
गिर धारी</w>
गि रे
गि ने</w>
गा ह
गा जी
गा ईं</w>
गर् मी,</w>
गर् भ
गरु ड़</w>
गर भ</w>
गर ज</w>
गम छा</w>
गद ही</w>
गणि तीय</w>
गइल ऽ</w>
गइ लन,</w>
गइ या</w>
ग हरा</w>
ग हम
खो ला</w>
खे लन</w>
खे र</w>
खू नी</w>
खु सरो</w>
खु लि</w>
खिला फत</w>
खा ला</w>
खा एक</w>
ख़ू ब</w>
खर् क</w>
खरी दा</w>
खण्ड -
ख बरन</w>
ख उ
क्वां टास</w>
क् को</w>
कौ शां
कोरियो ग्राफर</w>
को ल्हा
को ला
कॉ मनवेल्थ</w>
कैमरा मैन</w>
कै स्पियन</w>
कै म्प</w>
कै म्
के श्वर</w>
के ले</w>
कृष् णा
कू ट
कुटु म्ब
कुँ अर</w>
कु रै
कु रान</w>
कु बेरा</w>
कु त्
कु क</w>
की ’</w>
की ला</w>
की -
कि लन</w>
कि तने</w>
कि .
काव ्या</w>
कार् डि
काम चला
का ंट</w>
कहा ला,</w>
कह वां</w>
कह लन-</w>
कस ौटी</w>
कव ने</w>
कर्म भूमि</w>
कर् जा</w>
करे ली।</w>
करे ज</w>
करु णा</w>
करी बी</w>
करि ए</w>
कर िया
कर वला</w>
कथा नक</w>
कड़ ेर</w>
कं बो
कं पू
क से</w>
क सम
क मी,</w>
क भी
क द</w>
क च्छ</w>
ओह पर</w>
ओ हर</w>
ओ सही</w>
ओ रहन</w>
ओ म्मे</w>
एही जा</w>
एसि ड</w>
एन ए</w>
एजे ंडा</w>
एक जुट
एंड्र ॉ
ए स।</w>
ए लन</w>
ए ना
ए तिहासिक</w>
ए ड</w>
ए करा
ऋ चा</w>
ऊ ख</w>
उड़ ि</w>
उस को</w>
उल्लेख नीय</w>
उप त्य
उदार ता</w>
उत्सा ही</w>
उत्तर- दक्खिन</w>
उत ारे</w>
उठ ले</w>
उ हें</w>
ई ’</w>
इस् पे
इस की</w>
इले वन</w>
इरा क</w>
इया दि</w>
इम् तहान</w>
इन् कार</w>
इज राइल</w>
इकोनॉ मिक्स</w>
इंडस्ट्र ियल</w>
इंटर ै
इं सान</w>
इं कार</w>
इ हवां</w>
इ र्
इ जे</w>
इ ज</w>
इ ओ</w>
आवे लें</w>
आवश्य कता</w>
आवत- आवत</w>
आर् यन</w>
आर .</w>
आय ु</w>
आप रेशन</w>
आद मिन</w>
आइ सो
आ री</w>
आ या</w>
आ बाद</w>
आ धी</w>
आ ते</w>
आ डियो</w>
आ जिज</w>
आ ओ</w>
आ ंग
अहम ियत</w>
अवै ध</w>
अवार् ड्स</w>
अव ्
अल् पाइन</w>
अल ख</w>
अम् माल</w>
अमेरि का,</w>
अमृ तांशु</w>
अम रु
अम रा
अब कि</w>
अफिर की</w>
अप ्
अप ू
अन्तर् गत</w>
अन् त
अनो खा</w>
अनिवार ्य</w>
अन सोहा
अन मोल</w>
अन पढ़</w>
अझू राइल</w>
अझू रा</w>
अजो ध्या</w>
अग् नि
अगु वाई</w>
अँ धे
अँ जुरी</w>
अ रे
अ बेर</w>
अ तिथियन</w>
अ ई</w>
ंड ि
ंड ़</w>
ंघ म</w>
ंग त</w>
ं तिक</w>
ं ज,</w>
 ° C</w>
  —</w>
u g
s p
r on
o v
n i
ing )</w>
ill a</w>
igh t
es )</w>
e ")</w>
ation )</w>
at ion</w>
U n
S p
I I
C om
9 00</w>
8 00</w>
8 .
639 -
6 S</w>
5 7</w>
5 3</w>
5 2
47 ,
4 -
4 ),</w>
36 0</w>
2 ,</w>
198 7)</w>
198 1</w>
197 8</w>
195 6</w>
193 2</w>
190 5</w>
18 0</w>
14 0</w>
12 5
12 ,
10 ,000</w>
1 14
1 ,000</w>
0 ),</w>
.. .</w>
- .</w>
) )</w>
(c .</w>
( हल्ला)</w>
( भारत
( जीव</w>
( जी
( एस
( एन
“ हम</w>
“ त</w>
‘लोक ’</w>
‘ हम
‘ नि
‘ अब</w>
१ ३</w>
ढ़ ा</w>
ड़ा इल</w>
ड़ ो</w>
ज़ ी</w>
ौ री</w>
ौ ं
ोत् तरी</w>
ो ग्राफी</w>
ै त</w>
े ली</w>
े ला,</w>
े रे</w>
ॅ च</w>
ि णी</w>
ि की</w>
ार ्ट
होखे )</w>
होखी त।</w>
हॉ ं</w>
है ंड
हेड ली</w>
हे ।
हे नरी</w>
हे -
हु ंकार</w>
हिरण्य कश्यप</w>
हिय ें</w>
हिन्दुस्ता नी’</w>
हिन्दी ओ</w>
हिडि मा,</w>
हा वा</w>
हऽ ?</w>
हरि हर</w>
हमे सा</w>
हम ी
हम हुं</w>
हजारी बाग</w>
हं बन
हंबन टो
ह वाले</w>
ह ला
ह राम</w>
ह राम
ह द
ह त्
ह तना</w>
ह ज</w>
ह इ
स्वी टी</w>
स्वी कृति</w>
स्पा इस</w>
स्था न,</w>
स्तू प,</w>
स्ट्री ज</w>
स्टे ंट</w>
स्टि ंग</w>
स्ट )</w>
स्कू ल,</w>
स् वर्गीय</w>
स् पोर्
स् पद</w>
स् क्रिप्ट</w>
सोच लन</w>
सो लिनी</w>
सो चा
सैकड़ न</w>
सै दपुर</w>
से ’</w>
से ल
सृ जन</w>
सू रु
सूरु ज</w>
सू बा</w>
सू नी</w>
सू खे</w>
सुल भ</w>
सुरक्षा ,</w>
सुन्द री</w>
सुने वाला</w>
सुने वालन</w>
सुधार क</w>
सुगं धित</w>
सु प्रेरणा</w>
सु नीं</w>
सु धि</w>
सु धा</w>
सु ग
सु ंघ
सीबी एस
सी ढ़
सी कर</w>
सी "</w>
सिवा य</w>
सिल् वर</w>
सिद्धा ंत
सिद् धि
सिक् ख</w>
सि मी</w>
साम् प्र
साध क</w>
साथे- साथे</w>
साक्ष ात</w>
साइ टन</w>
साइ क्लो
सांस्कृति क-
सां झि</w>
सा वत</w>
सा ले</w>
सा ला</w>
सा लगि
सालगि रह</w>
सा मन</w>
सा गर
सहस ्रा
सह ि</w>
सह जोगी</w>
सह -
सशक्ति करण</w>
सश क्त</w>
सवा ंग</w>
सव ंत</w>
सर् याति</w>
सरा हना</w>
सरा हत</w>
सरा बोर</w>
सर ग</w>
सर क</w>
सम्प्र दाय</w>
सम् पदा</w>
समी र</w>
समा चारन</w>
सम रथ</w>
सप नो</w>
सन मान</w>
सध ले</w>
सदा बहार</w>
सद ियन</w>
सत्ता धारी</w>
सगर माथा</w>
सकी ले।</w>
सक सु</w>
संस्था नन</w>
संस्था ,</w>
संभ ल</w>
सं योग</w>
सं भव
सं गी</w>
सँ झिया</w>
सँ उप</w>
स हि
स हर
स वन</w>
स रान</w>
स नी
स डक</w>
स ग
स काव</w>
ष्‍ ठ</w>
ष े
ष ार
श्री देवी</w>
श्री कांत</w>
श्रा द्ध</w>
शौ चा
शो हरत</w>
शे ंकल</w>
शुरु वे</w>
शाहा बाद</w>
शास्त्र ी,</w>
शा म्
शा मी</w>
शा क</w>
शब् दों</w>
शं कर
श ियम</w>
श स,</w>
श रि
शरि र</w>
श -
व्या पारिक</w>
वै ल
वै कल्पिक</w>
वेस्ट इंडीज</w>
वेबसाइ टों</w>
वें जर्
वीरेन्द्र नगर</w>
वी ॰</w>
वी .</w>
विवि ध</w>
वियत नाम</w>
वि लेन</w>
वि रह</w>
वि भू
वि धवा</w>
वि द्व
वि देश
वि जु
वाहि नी</w>
वाद ो</w>
वाट्स एप</w>
वा स्तु
वा त्
वात् स्या
वा ड्रा</w>
वा ट</w>
वा जि
वा चिक</w>
वा कि
वा ई
वर् त</w>
वर् ण,</w>
वरि ष्‍ठ</w>
वर म</w>
व संत</w>
व रिया</w>
व ती
व की
ल् बम</w>
लो री</w>
लो न</w>
लो के</w>
लै ला</w>
ले लें</w>
ले लस</w>
ले लन</w>
ले ल</w>
ले बि।</w>
लू ट
ली भीत</w>
ली ड</w>
लिख लका</w>
लिं चिंग</w>
लि वर
लि ना</w>
लि के</w>
लाल पुर</w>
लाग त।</w>
ला ।
ला स
ला इन
लह जा</w>
ललि तपुर</w>
लट कत</w>
लग ल।</w>
लउक ी।</w>
लइ काईं</w>
लं बी</w>
लं घन</w>
ल- लिखल</w>
ल ड़</w>
ल ै</w>
ल हान</w>
ल श्
ल ला</w>
ल त
ल टका</w>
र् जी,</w>
रौ शनी</w>
रोमा ंच</w>
रोज गार
रो हन</w>
रॉ क</w>
रे न</w>
रे जि
रे घ
रूप ईया</w>
रू परे
रूपरे खा</w>
रु पा
रु ध</w>
रिक् शा</w>
रि डा</w>
रि ओ
रामा यन</w>
राम चन्द्र</w>
राम कथा</w>
राज ्या
राज ी
राज स्व</w>
राज शाही</w>
राज ल</w>
राज देव</w>
राज घाट</w>
राज गद्दी</w>
राज -
राख ीं</w>
राइ ट</w>
रा शि
रा ती</w>
रा की</w>
रा "</w>
रहे के</w>
रहे ं।</w>
रहे ;</w>
रहे -</w>
रहु वन।</w>
रही ं
रह न-
रम जान</w>
रच्छ कन</w>
रख लें।</w>
रउ ँ
रंग ,</w>
र- बार</w>
र सम
र बी</w>
र ण</w>
र चे</w>
र चाइल</w>
र ग
र क</w>
र ँ
योग ्यता</w>
यू राल</w>
यार लुंग</w>
य स</w>
य थ
य ंत्र
मौ लवी</w>
मोर क्को</w>
मो हम्
मो रा</w>
मो दी।</w>
मो टरी</w>
मो क्ष</w>
मै री</w>
मेह रु
में ट,</w>
में ),</w>
मे न्ट</w>
मे डल</w>
मे घ</w>
मू वी</w>
मुजफ्फर नगर</w>
मुग लसराय</w>
मुंबई ओ</w>
मुंग ेर</w>
मु हैया</w>
मु ह</w>
मु स्त
मु बारक
मु नि
मु कुट</w>
मु आवि
मु आव
मुआव जा</w>
मु अल</w>
मी नू
मिल ो</w>
मिल त-
माहा ठ
मालदी व</w>
मार्के टिंग</w>
मार् शल</w>
मार् फत</w>
मार ो</w>
माया वी</w>
मान दे
मानदे य</w>
मान द</w>
माइक्रो सॉफ्ट</w>
मा ला
मा पद
मा ता-
माता- पिता</w>
मा ग
महो त्
महारा णा</w>
महा महि
महा नगरन</w>
महा दलित</w>
महा काली</w>
महतारी -
महत ्या</w>
महं थ</w>
मस् जि
मर दन</w>
मन ु</w>
मध्य म
मध िम</w>
मदद गार</w>
मद न
मतल बी</w>
मत भेद</w>
मत गणना</w>
मणि पुरी</w>
मझु वा
मज ़
मंत्रा ी</w>
मंगल वार</w>
मंग ो
मंग ेश
मं ह
मं द
म ारा</w>
म हु
म हिन्
म यू
म नि
म द्धि
मद्धि म</w>
म का</w>
भोजपुरी ’</w>
भो ला
भेंटा त</w>
भे टाई</w>
भूकं प</w>
भू ं
भि र
भाषा ।</w>
भाग ,</w>
भाई जी</w>
भा वे</w>
भा ं
भर बि
भट के</w>
भइ या
भंड ारी</w>
भ े</w>
भ द्रा
भ कु
भ ई</w>
ब्राह्मण वाद</w>
ब्रह् मेश्वर</w>
ब्र जेश</w>
ब्यव हार</w>
ब् स</w>
बोल ला</w>
बो लेला</w>
बो धि</w>
बो झा</w>
बेचै नी</w>
बेई मान</w>
बेइ मानी</w>
बे रि</w>
बे मेल</w>
बे नी
बे दखल</w>
बे जाँय</w>
बू टी</w>
बुढ़ ापा</w>
बुझा ला।</w>
बुझा ई</w>
बु ला</w>
बी फ</w>
बी तत</w>
बिहार ो</w>
बिस् मि
बिधा यक</w>
बिद ्यालय</w>
बि भेद</w>
बि ट
बाव जू
बालि ग</w>
बानी ं,</w>
बानी ं
बाड़े ं
बाटे !</w>
बाट ी</w>
बांग् ला</w>
बा र-बार</w>
बा ण
बा ई
बा ंस</w>
बा ँच</w>
बहु ल</w>
बहरा इच</w>
बसा व</w>
बसन् ती</w>
बल िया
बल पुर</w>
बरह मन</w>
बर गद</w>
बनार सी</w>
बना ई</w>
बढ़ ी</w>
बढ़ ल।</w>
बच पने</w>
बच त</w>
बघ वा</w>
बक् सा</w>
बँ सुरी</w>
ब ही</w>
ब हि</w>
ब हरिया
ब हर
ब स,</w>
ब लुआ</w>
ब ल-
ब यार</w>
ब निके</w>
ब थी</w>
ब घे
ब ंदा</w>
फ्लो रिडा</w>
फ्रेंचाइ ज</w>
फ्रे म</w>
फो र
फै स
फें कल</w>
फू हर</w>
फिल् में</w>
फिन लैंड</w>
फि ट</w>
फार्मे शन</w>
फार े
फाउंडे शन</w>
फा नी</w>
फ़् का</w>
फलन वा</w>
फर ्रू
फइ ल
फँ सा</w>
फ ड़
फ ्यू</w>
पढ़ ावल</w>
पड़ े।</w>
प्लै नेट</w>
प्रोड क्ट</w>
प्रेम देव</w>
प्रेम -
प्रे रित</w>
प्रार ं
प्रा वधान</w>
प्रा माणिक</w>
प्रा न्
प्रधान मन्त्री</w>
प्रत्य ेक</w>
प्रजा तिन</w>
प्र देशन</w>
प्र कृ
प्यारे लाल</w>
प्ट े
प् लु
पोर्टफो लियो</w>
पो स</w>
पो थी</w>
पो खर
पो ं</w>
पें शन</w>
पे ड़ा</w>
पुरन के</w>
पुर नियन</w>
पुनर् गठन</w>
पु री,</w>
पु च्छ
पुच्छ ल</w>
पु ं
पी लीभीत</w>
पी टत</w>
पिछ ड़ल</w>
पि स्टल</w>
पि रो
पार्थि व</w>
पाठ िका</w>
पाइ ब</w>
पां च
पहिल हू</w>
पहि ले।</w>
पहा डी</w>
पर्य ट
परी क्ष
परिष द्</w>
परि वे
परम- पद</w>
परत दार</w>
पर देश</w>
पद मा</w>
पट िया</w>
पट ना,</w>
पक्ष धर</w>
पंद्र ह</w>
पंचि मी</w>
पं छी</w>
प ु</w>
प ियत</w>
प न,</w>
प ण
प ढे
प का
प क,</w>
प उ
न्‍ द्र</w>
न् दु
नो कसानदेह</w>
नो क</w>
नो ,</w>
नेपाल मे</w>
ने सी</w>
ने वार</w>
ने ,</w>
नू ं</w>
नुवा कोट</w>
नी च
निष्का सित</w>
निशा नी</w>
निर् मल</w>
निर् णा
नियन्त्र ण</w>
निय रे</w>
निय म,</w>
निपु ण</w>
निका लत</w>
निक लेला।</w>
निक ली</w>
निक ट
नि सान</w>
नि भव
नि बा
नि गि
नागार् जुन</w>
नाई क</w>
ना हन</w>
नहा ए</w>
नवी न</w>
नवा ब</w>
नवरा तर</w>
नव ो</w>
नव ं
नरकटिया गंज</w>
नम कह
नइ ला</w>
न ियार</w>
न वाँ</w>
न ले</w>
न ती</w>
न ),</w>
ध्व ज</w>
धो वे</w>
धी रेन्द्र</w>
धा बी</w>
धर्म पत्नी</w>
धर् मेन्द्र</w>
धरा तल</w>
ध ।</w>
ध ों</w>
ध वन</w>
ध ध
द्र मुक</w>
द् दा</w>
दौ लत</w>
दो ,</w>
देहा ंत</w>
देश वासियन</w>
देवी -
देख ो</w>
दें ह</w>
दे श्वर</w>
दे ब,</w>
दे त।</w>
दे ,</w>
दु ष्
दु रा
दु गुना</w>
दी वानी</w>
दी )</w>
दिह लन,</w>
दिल् ली।</w>
दिल दार</w>
दिमा गी</w>
दि वाना</w>
दि लावे</w>
दि न)</w>
दि आवल</w>
दार् शनि
दार ो</w>
दां ते</w>
दस खत</w>
दर्श न,</w>
दर् शी</w>
दर सल</w>
दक्षि ण
दक्खिनी- पूरबी</w>
दक्खिन- पूरबी</w>
दक्खि न
दउ रि</w>
द ारा
द शा
द बाव
द त्ता</w>
थो ड़
थेथ रई</w>
थिए टर</w>
थ थम</w>
थ कान</w>
त्य ौहार</w>
त्त ौ
त् से</w>
तो हे</w>
तै य
तु गल
तु ंग
ती स्ता</w>
ती रं
ती ने</w>
तिरहु त</w>
ति ली</w>
ति लका</w>
ति थि
ताक तन</w>
तह िया</w>
तव नो</w>
तमिल ना
तब हीं</w>
तनि के</w>
त ृ</w>
त ल्ला</w>
त बाही</w>
त क्ष
त करीबन</w>
त ?</w>
ण्डि न्य</w>
ढू ं
ढा का</w>
ढ ी
डॉ लर</w>
डॉ ट</w>
डे शन</w>
डे ली</w>
डि फे
डि प
ड ार्क</w>
ड ान</w>
ड पट
ड कै
ड की</w>
ठि काना</w>
ठ हरे</w>
ठ कुआ</w>
ट्रा इ
ट् स"</w>
ट् ठी
टॉ म</w>
टैक् सो
टेम्प ो</w>
टे प</w>
टु आ</w>
टी ना</w>
टा पू</w>
टर्मिन स</w>
ट ’</w>
ट ही</w>
ट र्स</w>
ट प
ट नगर</w>
झू म</w>
झु क</w>
झारख ण्ड,</w>
ज्ञान कोश</w>
ज्ञा न,</w>
ज् वार</w>
जुर् माना</w>
जु र
जु गत</w>
जी ये</w>
जी न</w>
जी तले</w>
जी 20</w>
जिस से</w>
जिला )</w>
जिय ते</w>
जि द्द</w>
जि गर</w>
जासू सी</w>
जालं धर</w>
जाति गत</w>
जा लन</w>
जा मल</w>
जा त-
जा त,</w>
जा ं
जहाँ -
जहा नाबाद</w>
जहरी ला</w>
जल धारा</w>
जय ी</w>
जम्मू -
जब- जब</w>
जन्म दिन</w>
जन वाद</w>
जता वे</w>
जतव लन</w>
जग जीत</w>
जंग ल,</w>
ज े।</w>
ज ियो</w>
ज हवां</w>
ज सवंत</w>
ज मू
ज मु
ज माल</w>
ज बरन</w>
ज च
छोड़ ल</w>
छोड़ ो</w>
छि त
छा वर</w>
छा त्रा</w>
छप वावे</w>
छत्र पति</w>
छ र</w>
छ तीस
चीन् ह</w>
चिक् कन</w>
चिं ता
चि त्तौ
चाप लू
चा पट</w>
चा उ
चा ंस</w>
चलत- चलत</w>
चल ो</w>
चम चा</w>
चम कत</w>
चनर गरहन</w>
चट कल</w>
चउप ट</w>
चउद ह</w>
च िया</w>
च परासी</w>
घोटा ला
घो सी</w>
घू म
घि रल</w>
घा ना</w>
घ मंड</w>
घ ना
घ टा</w>
ग्रेजु एट</w>
ग्रा हक</w>
ग्र हन</w>
गोल बजार</w>
गोरख पुर,</w>
गै ंग</w>
गुल जारी</w>
गुरु द्वारा</w>
गुप् त
गिरि जा</w>
गि लगि
गि रह
गार ंटी</w>
गाय कन</w>
गाय क,</w>
गा उँ
गण मान्य</w>
गइ लें,</w>
गइ ली,</w>
गंड की</w>
गंगा ,</w>
ग ति,</w>
खोज ी</w>
खो लि</w>
खे तवा</w>
खूब सूरत</w>
खु र्
खु दाई</w>
खु ट
खा बाद</w>
खा द
खा -
खरीद ले</w>
खरी दल</w>
खरा बी</w>
ख सरा</w>
ख रो
क्ष ति</w>
क्वार ्ट
क्रे टर</w>
क्रा उन</w>
क् ले
क् टिस</w>
क् चरिंग</w>
कौशां बी</w>
कौ शाम्
कौ ण्डिन्य</w>
कोशि स</w>
को लार</w>
को यंब
को ड
कॉ मेडी</w>
कै निंग</w>
के र
के नियो</w>
के -
कुल् ही</w>
कु लगाम</w>
कु म
कु तु
कीर् ति
की मती</w>
किलोग ्राम</w>
कि हां</w>
कि स्तान,</w>
कि श
कि ओ</w>
काला धन</w>
कार्यक्र मन</w>
काज मी</w>
काउं सिल</w>
का लिक</w>
का फ़्का</w>
का जी</w>
कहे ली</w>
कही हें</w>
कहा इल</w>
कह लो</w>
कह लसि,</w>
कस् बा)</w>
कस ि</w>
कवि ता
कवि -
कल्चर ल</w>
कर् फ्यू</w>
करोड़ ो</w>
करि हें।</w>
कर स।</w>
कर ब
कने क्शन</w>
कथा- कहानी</w>
कटिबं धी</w>
कई सन</w>
कइ स</w>
कइ ली,</w>
क िया
क सल</w>
क या
क बे</w>
क बहु
क ट्ट
क टि</w>
औ सतन</w>
ओरच न</w>
ओठ ँ
ओ मी</w>
ओ भर
ओ कराके</w>
ओ )</w>
ऑस्ट्र िया</w>
ऑ स्ट्रेलियाई</w>
ऑ ब्
एहि जो</w>
एस एल
एस )</w>
एरो सोल</w>
एन एस</w>
एड वर्ड</w>
एजेन् सी</w>
एका एक</w>
एकह ू</w>
एकजुट ता</w>
एंड्रॉ इड</w>
एं थ
ए ले
ए लिया</w>
ए ला</w>
ए टा</w>
ए जु
ए करू
ऎ ल्बम</w>
ऊँ ट</w>
उमे दवार</w>
उपल क्ष</w>
उपभो ग</w>
उपजा ऊँ</w>
उप शाखा</w>
उप नाँव</w>
उन ही</w>
उद् दीन</w>
उत् थान</w>
उत् कोच</w>
उठ ान</w>
उठ ली</w>
उठ लन</w>
उँ हा</w>
उ षा</w>
उ रे
उ भर</w>
उ घ
उ गत</w>
इस् कू
इलेक्ट ्रो
इब् न</w>
इन हना</w>
इ स्ता
इ ल
इ तनी</w>
इ ंदु</w>
आवे ,</w>
आलो च
आर् ट्स</w>
आपा तकाल</w>
आप नो</w>
आन लाइन</w>
आधुनि कीकरण</w>
आदर् श
आदमी ।</w>
आत् महत्या</w>
आतंक ियन</w>
आज काल्ह</w>
आक्र मण
आईआई आई
आई पीएल</w>
आँ खि
आ ड़</w>
आ ला</w>
आ राम
आ यात</w>
आ ती</w>
आ त</w>
आ डीह</w>
आ डिशन</w>
आ जीविका</w>
आ गी</w>
अहं कार</w>
अस्पता लन</w>
अव् वल</w>
अलेक्जे ंडर</w>
अला य
अल ं
अरा वली</w>
अर ल</w>
अमरा वती</w>
अब ।</w>
अब कियो</w>
अफ सरान</w>
अपू र्
अपने- आप</w>
अप लोड</w>
अप डेट</w>
अने रे</w>
अनु रा
अनु भू
अनु दान</w>
अथर् ववेद</w>
अच ं
अगि ले</w>
अग ल-
अइसन के</w>
अइ ली।</w>
अइ बे</w>
अंदा जा</w>
अंग ूर</w>
अँ चरा</w>
अ हज
अ स्थिर</w>
अ सरा</w>
अ सभ्य</w>
अ रे,</w>
अ रू
अ माव
अ ज्ञ
अ ङ
ंप स</w>
ंगा ।</w>
ं ह</w>
ं तर</w>
| th
|th umb
|thumb |
un d
ul t
ter n
ol og
o h
k )</w>
it y
ile :
ig n
i b
f l
en d
d )</w>
c t
a st
N ep
I )</w>
CE )</w>
</ br></w>
7 8</w>
7 3.
7 ,
6 9.
6 6
50 0
5 6
5 50</w>
5 ,5
47 %</w>
23 2</w>
20 ,
2 29
2 2,
2 ),</w>
197 6</w>
196 8</w>
194 6</w>
194 6)</w>
194 1</w>
19 21</w>
19 15</w>
17 6
16 0</w>
14 वाँ</w>
14 %</w>
13 7
12 %</w>
10 1</w>
1 12
1 ,</w>
.... ....
) :</w>
(I S
( हिंदी:</w>
( डी
( कस्बा)</w>
( आ</w>
( p
( 6
( 22</w>
( 193
( 19
( 1)</w>
" महा
" का
” अरे</w>
” अब</w>
“ पाती
“पाती ”</w>
‘हम ’</w>
‘ प्यार</w>
‘ नगी
‘नगी ना’</w>
‘ जन
‘ कुछ</w>
२०१ ५</w>
२ ९</w>
२ ८</w>
२ ७</w>
२ २</w>
१९ ६
ड़ा -
्र ता</w>
ो ही</w>
ो र</w>
ो भ</w>
ै ं।</w>
े गा</w>
ु शी</w>
ु वा
ी हें</w>
ी त।</w>
ियु गा</w>
ियन ),</w>
िय वा</w>
ि हें</w>
ि क-
ा -
ऽ ’</w>
ऽ ऽ</w>
ह् वेन</w>
होला :</w>
हो लीं।</w>
हो म
हो ट
हो गी।</w>
हो क</w>
हे टौ
हे इजे</w>
हु नर</w>
हु त</w>
ही ’</w>
ही नता</w>
हिसा र</w>
हिंदु त्व</w>
हिंदी- भाषा</w>
हि य</w>
हि दी</w>
हि ट
हि ंग
हार ।</w>
हाँ ,</w>
हा ंग</w>
हऽ .</w>
हवे ली</w>
हल् दिया</w>
हल का</w>
हर्ष वर्धन</w>
हर ्रम</w>
हमार ।</w>
हम हु</w>
हम ही</w>
हम ,</w>
हंबनटो टा</w>
हं स
ह ी।</w>
ह वा,</w>
ह टल</w>
ह ई,</w>
ह ंसी</w>
स्वाय त्त</w>
स्वा मी,</w>
स्पे शियल</w>
स्था पन</w>
स्था ,</w>
स्टॉ क</w>
स्टे डिय
स्टे टस</w>
स्टा ल</w>
स्ट ी</w>
स्ट र्न</w>
स् सी</w>
स् विस</w>
स् ते</w>
स् ति</w>
स् ड</w>
सौन्दर्य शास्त्र</w>
सौ गात</w>
सोचा वट</w>
सोच ली</w>
सोच ला</w>
सो न्
सैद्धा ंतिक</w>
सै म
सैम संग</w>
सै न्य</w>
सेल् सिय
सेलि ब्रि
सेलिब्रि टी</w>
सेना पति</w>
सें कल</w>
से ब</w>
से न
से क
सू ति</w>
सुरू ज</w>
सुना वत</w>
सुन ऽ</w>
सु लेख</w>
सु बूत</w>
सु गौ
सुगौ ली</w>
सी सा</w>
सी मा
सी बत</w>
सी ध</w>
सी ज</w>
सिर सा</w>
सिया ंग</w>
सिद्धा ं
सि ल
सि मा</w>
सि ब्
सि पल</w>
साहि र</w>
सावि त्री</w>
साय ना</w>
सामाजि क,</w>
साम ग्र
सापे क्ष
साध नन</w>
साक्ष ी</w>
साउ थ
सां ख्य
सहम ती</w>
सह योग
सह कारी</w>
सव ख</w>
सल् फर</w>
सली म</w>
सला म</w>
सरो ं</w>
सरकार े</w>
सर सों</w>
सम्मे ल
सम्बन् धी</w>
सम् वत</w>
सम् भव</w>
सम् पादन</w>
समे टे</w>
समु झा</w>
समि लात</w>
समस् या
सम ो
सन् देश</w>
सदा नन्द</w>
सतु आन</w>
सतर् कता</w>
सतर् क</w>
सके ला:</w>
सके ं</w>
संस्था गत</w>
संस्कृ ति
संस् मरण</w>
संगठ ित</w>
सं स्थ
सं ध्या</w>
सं जो
सं कु
सँ ग
स वीं</w>
स लि
स न्या
स ठ</w>
स टे</w>
स टा
स टले</w>
स इ</w>
श्रे ण
श्रीलं कन</w>
शौचा लय</w>
शो त्सव</w>
शैले न्द्र</w>
शू टि
शूटि ंगो</w>
शिव प्रसाद</w>
शिव पुरी</w>
शाहा बादी</w>
शा ही,</w>
शा ह,</w>
शा म</w>
शा दी-
शा क्य</w>
शर म</w>
श ू</w>
श द</w>
व्यव सायिक</w>
व्य स्त
वो ही</w>
वो ल्यू
वो कर</w>
वेस्ट जेट</w>
वे ल
वे राय
वे ग</w>
वे के</w>
वी जा</w>
वी -
विसंग तियन</w>
विष य
विशेषा ंक</w>
विरा ट</w>
विधाय की</w>
विद्याल यन</w>
विद ्</w>
वित् तीय</w>
विज याद
विजयाद शमी</w>
विकि पीडिया</w>
वि स्तृत</w>
वि ले</w>
वि नाश</w>
वि जि
वि ग</w>
वि कता</w>
वि कट</w>
वि ंग</w>
वासि नी</w>
वाद ।</w>
वात्स्या यन</w>
वाजि ब</w>
वा वत</w>
वा लों</w>
वा ड</w>
वा इन</w>
वं शी</w>
व ू</w>
व ियो
व ध</w>
ल् पा</w>
लौ ट
लौ ंडा</w>
लोग े</w>
लोग वा</w>
लै ं</w>
ले सु</w>
ले सर</w>
ले ली</w>
ले ड</w>
ले ंट</w>
ले ?</w>
लू टल</w>
ली ),</w>
ली "</w>
लिह लस,</w>
लिम् बु
लिच्छ वी</w>
लिखे- पढ़े</w>
लिख ल-
लाय ंस</w>
लाँ ।</w>
ला स्ट</w>
ला तीनी</w>
ला जवाब</w>
ला की</w>
ला )।</w>
लस ु</w>
लस ल</w>
लरि काईं</w>
लम् पिक</w>
लड़ त</w>
लगव ले।</w>
लउके ला,</w>
ल …</w>
ल ियत</w>
ल ार्
ल हा</w>
ल हरी</w>
ल लक</w>
ल फ
ल जी</w>
ल जात</w>
ल ;</w>
रोह तक</w>
रोज- रोज</w>
रो ब</w>
रो गी</w>
रो ई</w>
रै ना</w>
रेण ु
रे गु
रे ंट</w>
रू आ</w>
रुपा कोट</w>
री ’</w>
रिपोर् टिंग</w>
रि स्क</w>
रि फ्ट</w>
रि पब्लि
रि को</w>
राहु ल,</w>
राह ता</w>
राष्ट्र पति,</w>
राय शु
रामाय नी</w>
राम जी</w>
राम कृष्ण</w>
राजनीति ज्ञन</w>
राज स्‍था
राज मान</w>
राज भर</w>
राख ीं।</w>
राउ ंड</w>
रा नी,</w>
रा धे
राधे श्याम</w>
रा त्रि
रा ई
रहे ।
रहि मन</w>
रहि -
रहि- रहि</w>
रहा ल</w>
रह ु</w>
रह न
रसम लाई</w>
रस गर</w>
रवी ंद्रनाथ</w>
रण नीतिक</w>
रण नीति
रच्छ क</w>
रघु वंश</w>
रघु बर</w>
रखा इल।</w>
रख न</w>
रक् खल</w>
रंग न</w>
रंग दारी</w>
र र</w>
र तन
र ज
यौ न</w>
यु ति</w>
या पन</w>
य ु</w>
य लर</w>
य म
य द्य
यद्य पि</w>
य "</w>
मौ के</w>
मोहब् बत
मोहब्बत वाला</w>
मो नो
मो दी,</w>
मो ड</w>
मॉन् टी
मॉन्टी फ्रि
मॉन्टीफ्रि ं
मॉन्टीफ्रिं जिला</w>
मॉड लिंग</w>
मैदा न,</w>
मैथि ली
मै जिक</w>
मै के
मे ़ं</w>
मे वाणी</w>
मे यर</w>
मे न
मे टावे</w>
मे जबानी</w>
मे जबान</w>
मूल निवासी</w>
मू सा</w>
मू र
मुसु का</w>
मुख ौ
मुआवि जा</w>
मु ह
मु सीबत</w>
मु लाय
मु बार
मुबार क</w>
मु द्रा
मीटर )</w>
मी ना</w>
मी ना
मी डियो</w>
मिलत- जुलत</w>
मिल ियन),</w>
मिथ क</w>
मित्र ों</w>
मि शनरी</w>
मि नेशन</w>
मि नार</w>
मि ट
मि कता</w>
मि ं
माहाठ गिनि</w>
मानु स</w>
मान सूनी</w>
मादि त्य</w>
माक पा</w>
मांग त</w>
मां कित</w>
मा सिक</w>
मा लगु
मा मले</w>
मा फिक</w>
मा द
मा ता,</w>
मा "</w>
महिन् ना</w>
महा निदेशक</w>
महा तम</w>
मह ार
मलि काई
मनो बैज्ञानिक</w>
मद्रा स</w>
मतल ब,</w>
मत ,</w>
मटिया हूँ</w>
मझुवा गढी</w>
मजि स्ट्रे
मजह बी</w>
मंगेश कर</w>
म ु</w>
म ियत</w>
म र्स</w>
म जे</w>
म जु
म गंज</w>
म को
भ्र ू
भ्र म</w>
भोजपुरि ओ</w>
भोजपुर िया,</w>
भू पे
भू खि</w>
भुवने श्वर</w>
भुला ए</w>
भु न
भी ल
भी )</w>
भि तर
भि ंडा</w>
भाष ्य</w>
भारती य-
भारत वर्ष</w>
भाट पार</w>
भाई चारा</w>
भा ल
भा बिस्य</w>
भा बर</w>
भर ले</w>
भई ं
भँ ड़
भ सान</w>
भ यल</w>
भ भुआ</w>
भ टक</w>
बड़- बड़</w>
ब्रॉ ड</w>
ब्राह् म
ब्रा ड
ब्यू रो</w>
ब्या ज</w>
बोले रो</w>
बोला वत</w>
बोल वा</w>
बोल ने</w>
बोल ता</w>
बो ली
बो लि
बो रा</w>
बो धन</w>
बै॰:" P
बै रि
बेरोज गार
बे हू
बे लगाम</w>
बे बस</w>
बे नी</w>
बे ध
बे गू
बूढ़ -
बुझा व</w>
बुंदे लखण्ड</w>
बु धन</w>
बीत ल।</w>
बी ड</w>
बिस् फोट</w>
बिसु वत</w>
बिया ई</w>
बिदे सिया</w>
बिं बिसार</w>
बिं ध्याचल</w>
बि द्वा
बि द</w>
बि ,</w>
बारह वाँ</w>
बार ियन</w>
बाबू दी</w>
बाबू जी,</w>
बाबु जी,</w>
बाण भट्ट</w>
बाट ें।</w>
बाट ें</w>
बाग पत</w>
बाँ दा</w>
बाँ ट
बा लम</w>
बा ल-
बा री,</w>
बा बु</w>
बा बत</w>
बा प,</w>
बा नि
बा दी,</w>
बा ता
बा ड़</w>
बा जु
बा जी
बा जत</w>
बा क्स</w>
बा ंग
बहु संख्यक</w>
बहा दुरी</w>
बसन् ता</w>
बल् ति
बर ौनी</w>
बर ू</w>
बर दा
बन लें</w>
बन जीव</w>
बदमा स</w>
बत्त ख</w>
बतिय वला</w>
बतव ले।</w>
बढ ियाँ</w>
बढ ल</w>
बउ रा</w>
बंद ूक</w>
बं धु
ब हल</w>
ब सा</w>
ब म
ब डी</w>
ब डा</w>
ब काया</w>
फ्यू जन</w>
फो र्ट</w>
फो न,</w>
फॉर् म</w>
फै ं
फेड रल</w>
फे रत</w>
फे फ
फू टी</w>
फू ंक</w>
फुल सुंघ
फु ल्
फि रत</w>
फि कि
फार ि</w>
फाय दे
फा ल
फा नन</w>
फा ग</w>
फ़ो न</w>
फ़ ी
फल दार</w>
फर् क</w>
फरी दाबाद</w>
फर िया
फजी हत</w>
फ ी,</w>
फ साद</w>
फ -
पढ़ े-
पढ़ ी</w>
प्रोड्यू सर,</w>
प्रो टे
प्रे मी,</w>
प्रे मिका</w>
प्रू फ</w>
प्रि ंस</w>
प्राय दी
प्राइवे सी</w>
प्रां तीय</w>
प्रा ।</w>
प्रा प्ति</w>
प्रा ण
प्रा ची
प्रवृ ति</w>
प्रभा त</w>
प्रति साद</w>
प्रताप गढ़</w>
प्रगति वाद</w>
प्रका शोत्सव</w>
प्र ान</w>
प्र वर्तन</w>
प्र मो
प्र भाव
प्र बन्
प्र बंधक</w>
प्र कृति
प्र करण</w>
पो ढ़</w>
पो सले</w>
पो लैंड</w>
पैरो कार</w>
पै र
पेश कश</w>
पें टिग</w>
पे रा</w>
पृथ्वी राज</w>
पूजा- पाठ</w>
पुर )</w>
पु ष्ट</w>
पु ल,</w>
पीड़ ित</w>
पी सल</w>
पी लक</w>
पी रा</w>
पी ये</w>
पी यू
पी त</w>
पी डीपी</w>
पिछ ड़ल</w>
पि रे
पि रि
पाव ली,</w>
पार्ट ी
पाए ंट</w>
पांडि चेरी</w>
पाँ त</w>
पा से</w>
पा सा</w>
पा वे,</w>
पा म</w>
पा ने</w>
पा न,</w>
पहुं चि</w>
पहुँच त</w>
पव लें।</w>
पव नी</w>
पलेट फारम</w>
पल टला</w>
पल ट
पर्व तार
परो स</w>
परिव ारे</w>
परि स्थि
परम्प रागत</w>
पर चम</w>
पर -
पम् फ
पतो हु</w>
पतं जलि</w>
पढ़व इयन</w>
पड़ा का</w>
पठा नकोट</w>
पञ् च
पघि ल</w>
पक्ष ियन</w>
पइ हें।</w>
पइ हें</w>
पं प</w>
पं ख</w>
पँ च
प हर</w>
प सेना</w>
प सि
प वार</w>
प च्
प चो
पचो खर</w>
प इसे</w>
न्यू नतम</w>
न्यू टन</w>
न्द ,</w>
न् दी</w>
न् ड
नौ कर</w>
नो ई</w>
नेह वाल</w>
नेह रू
नेपाल का</w>
ने नी</w>
नृ त्य
नू ल</w>
नु आ</w>
नी लगि
नी तियन</w>
निश् छल</w>
निशाने बाजी</w>
निर्वा चित</w>
निर्मा ण,</w>
निर्णा यक</w>
निरी क्षण</w>
निरं तर</w>
नियंत्र ित</w>
निभा वत</w>
निबंध कार</w>
नि रुप
नार ी
नाम ।</w>
नाँ वे</w>
ना मांकित</w>
ना बालिग</w>
ना ऊ</w>
नसी ब</w>
नवा जल</w>
नव रात</w>
नर् सिंग</w>
नर सिंह</w>
नमा ज</w>
नम ्रता</w>
नज ारा</w>
नकल चियन</w>
नइख ू</w>
नइ स</w>
न ऽ</w>
न स्
न सी</w>
न शास्त्र</w>
न शा
न र्स</w>
न द्
न ति</w>
न ",</w>
ध्वजवा हक</w>
ध् ‍यक्ष</w>
धा गा</w>
धर्म वीर</w>
धर् मा
धनु ष
ध न-
द्वि ती
द्व ारा,</w>
द्रौप दी</w>
द् व</w>
दो हरावत</w>
दो ई</w>
देव दास</w>
देव की</w>
देबे वाला</w>
देख लसि</w>
दे याल</w>
दे ई</w>
दू बे,</w>
दू कान</w>
दुश् मनन</w>
दु नु
दु नियो</w>
दु कानदार</w>
दु इये</w>
दु इ</w>
दी पा</w>
दि हि
दि श</w>
दार्शनि क,</w>
दार् जि
दा नापुर</w>
दा इल</w>
दा ंग</w>
दश मी</w>
दर् शि
दर् जनो</w>
दक्खिन- पच्छिम</w>
दउ ड़</w>
द- गिर्द</w>
द स्ती</w>
द स्ता</w>
द वारी</w>
द नी</w>
द ंश</w>
थ्र ी</w>
थोरि के</w>
थो ड़े</w>
थो ड़ा</w>
थो ड़</w>
थो रही</w>
थेर वाद</w>
थे ड्र
थ ार
थ ई</w>
त्र ियुगा</w>
त् साहित</w>
त् सांग</w>
तो रे</w>
तो ता</w>
तुम् हारी</w>
ती सरे</w>
ती न-
तिव राइन</w>
ति श
ति रा</w>
ति माही</w>
ति तिली</w>
ति की</w>
ताना शाही</w>
ता ला</w>
ता पी</w>
तस् कर</w>
तर ।</w>
तर पुर</w>
तब ।</w>
तत् सम</w>
तट स्थ</w>
तक्ष शिला</w>
त म्
त बाह</w>
त ना
णा चार्य</w>
ण ्टर</w>
ढु कि</w>
ड्रि ंक</w>
ड् ढा</w>
डॉ 0</w>
डै नी</w>
डे ़</w>
डे राइल</w>
डे यरी</w>
डे न
डी .
डियो -
डि मांड</w>
डा ०</w>
डा लि</w>
ड़ा वे</w>
ड़ ला</w>
ड ी।</w>
ड ियर</w>
ड रो</w>
ड रना</w>
ठे का</w>
ठ ी,</w>
ठ कुर
ट्रै क</w>
ट्र म्प</w>
टो प</w>
टैक्सो नॉ
टै ंगा
टे ढ़</w>
टे स्टा
टे ढ़</w>
टे ज</w>
टू ल</w>
टि को</w>
टि कैत</w>
टि क
टाइम् स"</w>
टा वत</w>
झो ं
झा ड़ी</w>
झा वे</w>
झ ड़ु
ज्वाला मंडी</w>
ज्ञान- विज्ञान</w>
जो रू</w>
जो तत</w>
जो त</w>
जो ड़ा</w>
जे नरे
जे ज</w>
जू ट</w>
जुला ई,</w>
जु दा</w>
जु टा</w>
जीव धार
जिया ंग</w>
जिम वारी</w>
जि ग्
जि का</w>
जाला । 
जाने ं</w>
जाने -
जागर न</w>
जाई ं,</w>
जा देतर</w>
जा ति,</w>
जा घर</w>
जा ंगर</w>
ज़ रू
जहा जन</w>
जस्टि स</w>
जला ये</w>
जल जोड़</w>
जय न्ती</w>
जय कारा</w>
जमी न,</w>
जमी ंदार</w>
जब् त</w>
जबर दस्ती</w>
जन तो</w>
जच गी</w>
जग ्
जग त
जग जीवन</w>
जइ हन।</w>
ज हें</w>
ज स्य</w>
ज ल।</w>
ज मिके</w>
छोट- मोट</w>
छुट कारा</w>
छिल् लर</w>
छि प</w>
छ ड़ी</w>
छ े।</w>
छ र
छ पाई</w>
छ तरपुर</w>
छ ः</w>
चौ हा
चो र
चो ं
चै ती</w>
चे ला।</w>
चू ना</w>
चुना व,</w>
चुना र</w>
चु अ
चित्र गुप्त</w>
चित्र कार</w>
चि पु
चि ट</w>
चि ट
चि उ
चा स</w>
चा ई,</w>
चा ं
चले ले।</w>
चल ब</w>
चन्द्र भान</w>
चट नी</w>
चट कल
चक् की</w>
चं पा</w>
चं चल</w>
च ।</w>
च ॉ
च ारा
च हूं</w>
च श्मा</w>
च ल।</w>
च लिक</w>
च मो
च प
च ढ
च ट</w>
घोषणा पत्र</w>
घु सि</w>
घा ती</w>
घा ट
ग्लेश ियल</w>
ग्राउ ंड</w>
ग्र ा</w>
गौरव शाली</w>
गो वा,</w>
गो रे
गो धरा</w>
गो ,</w>
गे ना</w>
गुरु देव</w>
गुन गु
गुज र
गुं बद</w>
गु स्सा</w>
गु रू
गु णा
गिलगि त-
गिरा वे</w>
गि रोह
गि ंग</w>
गाउँ पालिका</w>
गाँधी जी</w>
गाँ जा</w>
गा हक</w>
ग़ज़ ल</w>
गल ियारा</w>
गर बा</w>
गन् ध</w>
गद गद</w>
गतिवि धियन</w>
गड करी</w>
गठ ित</w>
गइ ले,</w>
गइ लू</w>
गइ ली
गइ नी
गंगा- जमुना</w>
गँ वार</w>
ग ्य
ग िया</w>
ग हन</w>
ग जबे</w>
ख्या ल</w>
ख् तू
खै बर</w>
खु र</w>
खान दानी</w>
खाति र)</w>
खा लि
ख़ री
ख ड़े</w>
ख ला
ख ड्
ख चा
क्ष ोभ</w>
क्ल स्टर</w>
क्रे न</w>
क्रे डिट</w>
क्रा सिंग</w>
क्र ै
क्र मश
क्यू लर</w>
क् सन</w>
कौ श
कोयंब टूर</w>
कोइ ली</w>
को हरा</w>
को ठा</w>
को ट्ट
को टि</w>
को इ</w>
कैले ण्डर</w>
कैपि टल</w>
कै म्प
कै प्ट
कै प्
कै न</w>
कै दी</w>
कै थेड्र
कै टा
केमि कल</w>
के ल्
के तने</w>
कृ षी</w>
कू ड़ा-
कुरै शी</w>
कुछु ए</w>
कुछ ।</w>
कुछ -
कु च्छ
कु चिपु
कीर् ति</w>
की हें</w>
की  
किस् म</w>
किशन गंज</w>
किरा सन</w>
किमी )</w>
कि रात</w>
कि तना</w>
काहे ?</w>
कार्डि फ</w>
कार्ट ोग्राफी</w>
कारो बारियन</w>
काय स्थ</w>
कामचला ऊ</w>
काठमांड ु</w>
का ’</w>
का जू</w>
का का,</w>
कहे ले</w>
कहि के</w>
कहानी कार</w>
कहँ वा</w>
कह िये</w>
कश्मी र,</w>
कवि ता-
कव ी,</w>
कल् पना
कला कार
कला ई</w>
कल -
कर्म कांड</w>
कर् ण</w>
कर् ज
करे क्ट</w>
करी लें</w>
करा ई
करम साँढ़</w>
कर बे</w>
कर बि।</w>
कर बि</w>
कर ब,</w>
कम्युनि केशन</w>
कम ।</w>
कम नीय</w>
कब् र</w>
कबी ला</w>
कपि लव
कन्या कुमारी</w>
कउ आ</w>
कइले न,</w>
कइ यन</w>
कंप नियों</w>
क ढ़
क ता
क ड़ा
क ंग
क ँ
औरंग जेब</w>
ओ हमे</w>
ओ ल्ड</w>
ओ लम्पिक</w>
ओ तहाँ</w>
ओ डिया</w>
ओ ंकार</w>
ऐ त
एव रे
एम .</w>
एडवें चर</w>
एजे ंट</w>
एक् को</w>
एके गो</w>
एंजे लिस</w>
ए र्ना
ए य
ए थे
ए कइस</w>
ए )</w>
ऊँ चा</w>
ऊँ च-
उल झन</w>
उपो ष्ण</w>
उपे क्षित</w>
उप ्
उप प्रजाति</w>
उप नाम</w>
उप नगर</w>
उप जे</w>
उन् हनी</w>
उद ्य
उत्पा दों</w>
उ ड़</w>
उ हवाँ</w>
उ ल-
उ माशंकर</w>
उ भर
उ धार</w>
उ तरी</w>
ई ले</w>
ई यार</w>
ई पू</w>
ई जाद</w>
इस्ला माबाद</w>
इन कम</w>
इज्ज त
इको लॉजिकल</w>
इक बाल</w>
इंडिया "</w>
इं फ्रास्ट्रक्चर</w>
इ हं
इ वेंट</w>
इ यारी</w>
इ बो</w>
इ ती</w>
इ ठ
इ जत</w>
इ गार
इ का
इ ँ
आस न
आवे दन</w>
आवा ज़</w>
आव ऽता</w>
आर्थ िक,</w>
आर् या
आर् कबि
आरा धना</w>
आर ती</w>
आयो जनो</w>
आयुर् वेद</w>
आया मी</w>
आबिस् कार</w>
आगे -
आक्रो श</w>
आकाश गंगा</w>
आई पी</w>
आई ं,</w>
आइ लैंड</w>
आं सु</w>
आँ चर</w>
आ सरम</w>
आ देश
अस्पता ल,</w>
अस हिष्णुता</w>
अस फल</w>
अव धी,</w>
अव दान</w>
अल् बम</w>
अलगाव वादियन</w>
अर मान</w>
अम् बेड
अभि न्न</w>
अब् दु
अपो लो</w>
अपे क्षा</w>
अप रि
अने रियन</w>
अनुभ वी</w>
अनु मानित</w>
अनु कूल</w>
अन ंत
अधि कृत</w>
अदाल तो</w>
अत्य ंत</w>
अच्छ ाई</w>
अग्र िम</w>
अउ रो</w>
अइ बऽ</w>
अंतरि म</w>
अंड र
अंगरेजी :</w>
अंगरे जन</w>
अँकव ारी</w>
अ ढ़
अ हं</w>
अ सहाय</w>
अ ष्टमी</w>
अ बो</w>
अ बेरा</w>
अ को
अ ंडा
ंद्र ा</w>
ंद्र नगर</w>
ंद े</w>
ंद पुर</w>
ंड म</w>
ंगा इल</w>
ंग ी।</w>
ंग )</w>
y p
y n
x t
v ir
th er
or l
on )</w>
m in
m )</w>
ion )</w>
h o
h a
es s
e ;</w>
e "</w>
ation al</w>
ar d
an n
_ B</w>
T )</w>
In tern
F )</w>
B C</w>
? ""</w>
99 %</w>
98 %</w>
94 7</w>
90 5</w>
9 6</w>
9 12</w>
89 2</w>
89 1</w>
75 3</w>
7 9</w>
7 37
6 ,</w>
50 00</w>
48 %</w>
46 %</w>
3 30
3 27
29 0</w>
25 %</w>
2 2%</w>
198 6</w>
196 3</w>
196 1</w>
195 4</w>
195 1</w>
194 0</w>
193 3</w>
19 7</w>
19 26</w>
19 22</w>
19 19</w>
15 5
15 2</w>
13 0</w>
12 5</w>
10 6
1, 7
1, 6
1 13
1 1.
1 /
0 वाँ</w>
0 1</w>
.0 3%</w>
.. .
- संस्कृति</w>
,0 00
, 8
(भारत )</w>
( लि
( रे
( जे</w>
( जवन</w>
( 25</w>
( 0
' ,</w>
"स् लमडॉग</w>
"" का</w>
" हम</w>
" सै
" सु
" भारत</w>
" '</w>
" ",</w>
… …
” का</w>
‘ हमरा</w>
‘ वि
‘ लाड
‘लाड ला’</w>
‘ छो
॰पी ॰</w>
५ ०</w>
१ ८
१ ०</w>
ड़ े
ड़ ला</w>
ड़ ,</w>
् त</w>
ोत् तम</w>
ो ह
ो ली</w>
ू प</w>
िल् मी</w>
िया ’</w>
िया )</w>
ि हार</w>
ऽ तानी।</w>
ऽ त</w>
ह्र स्व</w>
हौ सला</w>
होला ?</w>
होखि हें।</w>
होख ते</w>
होइ यो</w>
हो ल्
हो री</w>
हो य।</w>
हो त।</w>
हो ंगे</w>
हॉ किंग</w>
हैम् बर्ग</w>
हे म
हे तु</w>
हे इजा</w>
हूँ -
हू लियत</w>
हू क</w>
हु नकर</w>
हु कूमत</w>
हीरो इन
हीरोइन न</w>
ही लियम</w>
हिस् से</w>
हिब्र ु</w>
हिन्दु त्ववादी</w>
हि रिस</w>
हि रा</w>
हि माल</w>
हि मन
हि द</w>
हि चक</w>
हार त</w>
हा यो</w>
हा बाद</w>
हा ड़ी</w>
हा उस
हा ई-
हवा ही</w>
हरे न्द्र</w>
हरिया णा,</w>
हरा ,</w>
हर दोई</w>
हर ज</w>
हम रा
हम निओ</w>
हनु मान
हथ िया</w>
हत्या कांड</w>
हउ वन,</w>
हउ अन</w>
हउ अ
हं से</w>
ह स्
ह वल
ह लाद</w>
ह यात</w>
ह मिता</w>
ह )</w>
स्व तन्त्र</w>
स्फी यर</w>
स्फी ति</w>
स्थी पा</w>
स्था पीत</w>
स्था नां
स्थ े
स्तार ित</w>
स्तन धारी</w>
स्ट्री मिंग</w>
स्ट्र ो
स्ट्र ा</w>
स्टै च
स्टैच ्यू</w>
स्ट ॉर्क</w>
स्केट बोर्ड</w>
स् वर
स् मि
स् प्रि
स् त,</w>
स् को
स् काई
सोम नाथ</w>
सोचल सि</w>
सो साय
सो लह
सो र्
सो भाव</w>
सो नी
सो झे</w>
सो झा
सो झ
सो कना</w>
सैटे लाइट</w>
सेना नायक</w>
से र</w>
से न,</w>
सृ जन
सूर् पन
सूर्पन खा</w>
सू ची
सू चक</w>
सू च
सुविधा ओं</w>
सुभा विक</w>
सुपर मून</w>
सुना इल</w>
सुनव इया</w>
सुन सरी</w>
सुन ली</w>
सुन ब</w>
सुन नी</w>
सु रुआ
सु त
सु गम</w>
सी आर
सिपा हियन</w>
सिद्धार् थ
सिक ंद
सिंह पुर</w>
सिं चाई</w>
सि जि
सि कुमार</w>
साहे ब,</w>
साहे ब
साम्राज ्य
सामं जस्य</w>
साम जिक</w>
साम ग्री
सापे क्ष</w>
साई ट</w>
साइं टि
सांसद ो</w>
सांप्र दायिकता</w>
सां च</w>
सा ल
सा बर
सा फ्टवेयर</w>
सा दर</w>
सा णा</w>
सा टा</w>
सा ओ</w>
सहस्रा ब्दी</w>
सला मी</w>
सर्व मान्य</w>
सर् गिक</w>
सरा य
सरं जाम</w>
सर -
सम् भावना</w>
समू हन</w>
समुझा वल</w>
समु दाय
समा गम</w>
समझा वत</w>
समझ ने</w>
समझ दारी</w>
सम ैन</w>
सम स्त</w>
सम काली
सभा ,</w>
सब ही</w>
सप्त कोसी</w>
सन् मार्ग</w>
सदा नंद</w>
सद मा</w>
सत्या ग्रह</w>
सत रोहन</w>
सड़ मे
सच् चा</w>
सक ऽता।</w>
सक ल,</w>
संस्कृ त,</w>
संप्र ग</w>
संथा ल</w>
संघ चालक</w>
संग्र हीत</w>
संगठ नन</w>
संग मर
संख्य कन</w>
सं सद
सं व
सं योजन</w>
सं भाल</w>
सं प्रे
सं पा
सं तन</w>
सं जना</w>
सं जइ
संजइ या</w>
स ”</w>
स ’</w>
स ियम</w>
स हूलियत</w>
स वाँ</w>
स वर्णन</w>
स पू
स ध</w>
स गंज</w>
स का</w>
स ऊ
ष िक</w>
श्र म
श् चा
श्चा त्य</w>
शौ र्य</w>
शैले ंद्र</w>
शे खर
शू ट</w>
शुक्र वार</w>
शी र्ष</w>
शी तल</w>
शी त
शिव म</w>
शिला लेखन</w>
शि ष्ट
शासन काल</w>
शा श्
शा लि
शा प</w>
शर् म</w>
शब्द कोश</w>
शबन म</w>
श ियन</w>
श त
व्ला दी
व्याव हारिक</w>
व्या पार
व्यक् ति,</w>
वैश्वी करण</w>
वै लें
वेद ना</w>
वे यर,</w>
वे निया</w>
वे द,</w>
वृ त्
वीरे न्द्र</w>
वीर गंज</w>
वी नस</w>
वी )</w>
विष्णु देव</w>
विश्व कर्
विश् विद्यालय</w>
विवेका नन्द</w>
विधि वत</w>
विधा यिका</w>
विधा ता</w>
विद ्रो
विजु अल</w>
विजय नगर</w>
विक्टो रिया</w>
वि सं</w>
वि पिन</w>
वि द</w>
वि क्रम
वास्तु कला</w>
वाला ’</w>
वाला )</w>
वाणि ज्य</w>
वाकि फ</w>
वा हवाही</w>
वा लो</w>
वा यर</w>
वा न्वित</w>
वा दी,</w>
वा डा</w>
वा "</w>
वल् लभ</w>
वर् ष
वर् धा</w>
वर् डे</w>
वन स्पति</w>
वत गर</w>
वक् तव्य</w>
व ्यू
व ॉर्
व ही
व हां</w>
व हाँ</w>
व शी</w>
व रों</w>
व रे</w>
व री
व मेंट</w>
व डो
व जी
ल्ला ह</w>
ल् स"</w>
लौ र,</w>
लो ह
लो केश
लै ब</w>
लै गू
लैगू न</w>
लै ं,</w>
ले लें।</w>
ले लस।</w>
ले ई</w>
लुम्बि नी</w>
लु त्
लिमि टे
लिख ि</w>
लिख वा
लाल न-
लालन- पालन</w>
लाग ु
लाई न</w>
लाई ट</w>
लाइ टिस</w>
लाँ घ
ला- बदली</w>
ला ही</w>
ला मि
ला ते</w>
ला ता</w>
ला गो।</w>
ला ,
ललि त
लम् बी</w>
लड़ि किन</w>
लगव लसि</w>
लग ती</w>
लग त</w>
लइ ला</w>
लइ का।</w>
ल ऽ
ल हू</w>
ल मह
ल भ
ल बार</w>
ल पक</w>
ल च
ल ंडन</w>
ल :</w>
र्थ ी</w>
रोहिंग ्या</w>
रोमां चक</w>
रोज ़
रोक ने</w>
रो शन</w>
रो वल</w>
रो ड
रो कले</w>
रो आ
रै य्य
रै या</w>
रू ढ़ि
रू ल</w>
रू पा</w>
रू च</w>
री ढ़</w>
री ल</w>
री ढ़</w>
री ड</w>
रिसी व</w>
रि हा</w>
रि मा
रि पोट</w>
रि तेश</w>
रि तु
रि कॉर्ड</w>
रि का</w>
राष्ट्री यता</w>
राम देयाल</w>
राफ्ट िंग</w>
राजस्था न,</w>
राजनीति ओ</w>
राजनि तिक</w>
राज पथ</w>
राज को
राजको षीय</w>
राखे ला।</w>
राइ ल,</w>
रा शन</w>
रा वा</w>
रा जा।</w>
रा छ
रा खि
रहे ली।</w>
रही लें।</w>
रहि ते</w>
रहि ए</w>
रहा ट</w>
रहा ँ</w>
रहन- सहन</w>
रह सु</w>
रह लीं,</w>
रह नीं।</w>
रस दार</w>
रवि न्द्र</w>
रवि दास</w>
रणनीति कार</w>
रण वीर</w>
रच ित</w>
रख ैल</w>
रख लस।</w>
रख कर</w>
रउ ओ</w>
र सायन</w>
र साय
र वैया</w>
र बीस</w>
र फी</w>
र खे
र खि
योगे श</w>
यो जित</w>
यू टी
युव कन</w>
यु वती</w>
याद ो</w>
याद व।</w>
यात्र ियन</w>
यर न</w>
यथ ार्थ</w>
य ी
य न्
य ंग</w>
म् ला</w>
मोहन दास</w>
मो हरा</w>
मो सु
मॉ लि
मै मल</w>
मै थुन</w>
मै डम</w>
मै क
मेहरु न्निसा</w>
मेल बोर्
में टल</w>
मे हरी</w>
मे हर</w>
मे वाड़</w>
मे क्स</w>
मृत्य ु
मृ दुल</w>
मू सर</w>
मुस् लि
मुस् क
मुर् दा</w>
मुख् तार</w>
मुक् त
मुँ हे</w>
मु हु
मु स्ता
मु ल्
मु म
मु नियाँ</w>
मु ड़ी</w>
मु च</w>
मु ंडी</w>
मी डि
मिश्र ण</w>
मिली मीटर</w>
मिलिय ना
मिला वत</w>
मिर् चै
मिर्चै या</w>
मि सौरी</w>
मि साल</w>
मि सरी</w>
मि लिए</w>
मि नेंस</w>
मि थुन</w>
मि डिया</w>
मालि काना</w>
मार् कल</w>
माने ले</w>
मानव ता
मान वि
मातृ भाषाई</w>
माग धी</w>
माक 3</w>
मांग ’</w>
मां सा
मां शु</w>
मा ॅ
मा न।</w>
मा नों</w>
मा टी,</w>
मा जी</w>
महा शिवरात्रि</w>
महा यान</w>
महा कवि</w>
महबू बन
महबूबन गर</w>
महत् व
मह ारत</w>
मसी ह</w>
मल्टी मीडिया</w>
मन् त्र</w>
मनोरं जक</w>
मनमौ जी</w>
मन ्यु</w>
मध ्या
मतल बे</w>
मठा धी
मउ सी</w>
मंगल फेरा</w>
मं दी</w>
म- किसिम</w>
म ियम</w>
म म्मी</w>
म दाबाद</w>
म टे
म इल</w>
भ्रू ण</w>
भौति क
भोला नाथ</w>
भो रहीं</w>
भो गी</w>
भेंटा ई।</w>
भूमध्य सागरीय</w>
भूमध्य सागर</w>
भू पर्
भुन भु
भु ज
भु ख
भी मराव</w>
भी ड़
भिर गू</w>
भिन् नता</w>
भि तर</w>
भाषा- साहित्य</w>
भाव नगर</w>
भारत- पाकिस्तान</w>
भाज पो</w>
भाँ ड़</w>
भा साई</w>
भा भी</w>
भा नु
भा गी</w>
भया वह</w>
भगवा नपुर</w>
भग वा</w>
भ सुर</w>
भ ल</w>
भ र्
भ रूच</w>
बढ़ ोतरी</w>
बड़ ाई</w>
बड़ ा
बड़ ले</w>
ब्लॉ क)</w>
बौ द्ध,</w>
बोल ियन</w>
बोल नी</w>
बो लीं</w>
बो लसु</w>
बो -
बॉ डी</w>
बै द
बेटा -
बेगू सराय</w>
बेक ती</w>
बेई मानी</w>
बें वतगर</w>
बे होस</w>
बे ड</w>
बे टी-
बे टी,</w>
बे चि</w>
बे काबू</w>
बृ कोदर</w>
बू ।</w>
बू तरा</w>
बू ँ
बुनिया द</w>
बुद्धि जीवियन</w>
बुझा इल।</w>
बुझ इबे</w>
बु द
बीस बीसा</w>
बी ॰एन॰</w>
बी तला</w>
बी च-
बी एच
बिरो धी</w>
बिन् दू</w>
बिजन ौर</w>
बिग ड़
बिआ हल</w>
बि हिरी</w>
बि हान</w>
बि स्तृत</w>
बि बर
बि ना,</w>
बि धि
बानी ?</w>
बाड़ी सन</w>
बाइ क</w>
बांग्ला देश,</w>
बांग ला
बाँ सुरिया</w>
बाँ स
बा ज़ार</w>
बा वन</w>
बा रल</w>
बा यें</w>
बा णि
बा डी</w>
बा ग्
बा कू</w>
बा ई,</w>
बा ?’</w>
बहु लता</w>
बहु मूल्य</w>
बहु त
बसं तपुर</w>
बल् ले
बल म</w>
बरि सन</w>
बर ु</w>
बर स</w>
बर दास</w>
बर खा,</w>
बना वेला</w>
बना वल।</w>
बना ए</w>
बना ईं।</w>
बनव वले</w>
बनव लस।</w>
बनइ ला</w>
बतव लन।</w>
बढ़ा वत</w>
बढ़ ले</w>
बज रंगी</w>
बई ठ</w>
ब- पच्छिम</w>
ब ्य</w>
ब हारल</w>
ब हन</w>
ब सन</w>
ब ले</w>
ब रे
ब ब
ब दा
ब टु
ब जाव
ब खत</w>
ब कत</w>
फ् लो</w>
फ् ला
फौ ज</w>
फें कत</w>
फे ज</w>
फे क</w>
फे ंका</w>
फूल दार</w>
फु र्ती</w>
फी फा</w>
फि रोज
फि ंग</w>
फाल तू</w>
फार् मूला</w>
फायदे मंद</w>
फा टे</w>
फा ई
फा इन
फ़ ्रां
फ़ ्र
फ़ रवरी</w>
फर्रू खाबाद</w>
फर् ज</w>
फगुन हट</w>
फ ्टी</w>
फ राज</w>
फ य
फ टला</w>
फ "</w>
पढ़ ावे</w>
प्ला ंट</w>
प्रो वि
प्रो फ़े
प्रे सी
प्रे मांशु</w>
प्रमाण ित</w>
प्रभु त्व</w>
प्रति बंध</w>
प्रति ज्ञा</w>
प्रजा पति</w>
प्र ै
प्र हलाद</w>
प्र संग
प्र बल</w>
प्र कट</w>
पै से</w>
पै नल</w>
पै गं
पै ंस
पे स</w>
पे री
पे पर</w>
पृ ष्ठ
पूर्वांचल ियन</w>
पूर् णा
पूँ जी
पू स</w>
पू रन</w>
पुरो हि
पुरुष ोत्तम</w>
पुरु लिया</w>
पुण ्य</w>
पुछ नी</w>
पु त्रा</w>
पु तली</w>
पी यल</w>
पी य
पी पल</w>
पी प
पी ढ़
पिया वे</w>
पिय वा</w>
पिछ ड़ा</w>
पिछ िला</w>
पिछ ल
पि नियन</w>
पि क
पास वर्
पालि टिकली</w>
पारि स्थि
पार स्
पार बती</w>
पाय लट</w>
पाई गुड़ी</w>
पां खि</w>
पाँ चों</w>
पा श्चात्य</w>
पा शा</w>
पा वे
पा ल,</w>
पा न्
पा जि
पा क
पा ईं</w>
पहुं चा</w>
पहुँच नी</w>
पहिल की</w>
पहाड़ ी,</w>
पसार ल</w>
पस ारे</w>
पश् चात</w>
पव लें</w>
पव लसि</w>
पला स्टिक</w>
पर्यावर ण
परि जन</w>
पर ला</w>
पर दू
पर )</w>
पम्फ लेट</w>
पन् नता</w>
पत्र कार,</w>
पढ े</w>
पटे ल,</w>
पचा वे</w>
पक ड़े</w>
पइस ो</w>
पं चे</w>
पं खु
प सी
प लक</w>
प मेंट</w>
प दन</w>
प चह
प ख्तू
प क्की</w>
प ं।</w>
न्याय मूर्ति</w>
न् सी</w>
न् डर</w>
नौ मिक</w>
नो ।</w>
नो वा</w>
नै सर्गिक</w>
नेल् लोर</w>
नेपाल को</w>
नेपा ली,</w>
नु कसा
नी ती
नी तियों</w>
नी करण</w>
निश् चय</w>
निवेश कन</w>
निर्देश कन</w>
निर् मला</w>
निय मन</w>
निभ वले</w>
निगि चा</w>
निका ला</w>
निकल लें</w>
नि हित</w>
नि षा
नि वा
नि भा</w>
नि जी
नि गेटिव</w>
नि को</w>
नार् वे</w>
नार ियल</w>
नाम ो</w>
नाइ जेशन</w>
नाँ वें</w>
ना …।</w>
ना सिक</w>
ना या
ना द</w>
ना चल</w>
ना गर
ना ए</w>
नहा ये</w>
नहा इल</w>
नहा -
नव राजपुर</w>
नव की</w>
नर् तक</w>
नम् र</w>
न ज़
न ल
न रा
न नि
न ;</w>
ध्व स्त</w>
ध्व नियन</w>
धू मिल</w>
धी रे
धा न,</w>
धर्म पति</w>
धर् मिता</w>
धरा वल</w>
धनु षा</w>
धनकु टा</w>
ध ियों</w>
ध न,</w>
द्वि तीय</w>
द्वार का</w>
देव गन</w>
देबे ला।</w>
देख ेला।</w>
देख ी।</w>
देख ले।</w>
देख लीं</w>
देख रेख</w>
देख निहारन</w>
देख -
दे स-
दे शि
दूर- दूर</w>
दुल हा</w>
दुल कर</w>
दुख -
दी दिया</w>
दी ं,</w>
दी ं
दिह ी।</w>
दिह ीं</w>
दिव ंगत</w>
दिल् ली-
दिलचस् प</w>
दिन भर</w>
दिन कर</w>
दिग् गज</w>
दि साई</w>
दि ओ</w>
दाहि ना</w>
दा स्पद</w>
दा दी</w>
दा ग
दलि ते</w>
दलि त,</w>
दल दली</w>
दर् पण</w>
दम् मे</w>
दबा वे</w>
दबा वल</w>
दक्षि ण-
दउ र
द स-
द ंड
थो ड़
थू क</w>
थी म</w>
था कि</w>
था कल</w>
था इ
थ ो</w>
त्रिभु वन
त्रि य</w>
त् तन</w>
तो ड़
तेया ग</w>
तें दुलकर</w>
ते ली</w>
तृ ती
तू हूँ</w>
तू रि</w>
तुल नात्मक</w>
तुम् हारे</w>
तु स</w>
तु षार
तीरं दाजी</w>
तीतर -ब
तीतर-ब टेर</w>
ती सरका</w>
ती सर</w>
ती करण</w>
ती )</w>
तिश बाजी</w>
तिरु चिरा
तिउ हार</w>
ति लां
तार ें</w>
ता क</w>
ता ंग</w>
तस् करी</w>
तस् करन</w>
तल वा</w>
तर् क
तरे- भीतर</w>
तर न</w>
तपे सरा</w>
तकनी कि</w>
तक ।</w>
त व्य
त लहीं</w>
त मा</w>
त बाद
त बहु
त नी
त -</w>
ण् डी
ड्राइ ंग</w>
डो मि
डो नाल्ड</w>
डॉक्ट रन</w>
डेन मार्क</w>
डेटा बेस</w>
डे ंसी</w>
डी प</w>
डी ज</w>
डी )</w>
डि पार्ट
डि ज़ा
डिज़ा इन</w>
डाॅ ट
डाॅट काॅ
डाॅटकाॅ म</w>
डाकु मेंट</w>
डा उन</w>
डह कल</w>
ड ार
ठो र</w>
ठे ंगा</w>
ठी क
ट्वी ट</w>
ट्रां सपोर्ट</w>
ट् स,</w>
टो पो
टो न</w>
टैंगा निका</w>
टू रिज्म</w>
टी व</w>
टी थी
टी टी
टा ।</w>
टा प</w>
टा नगर</w>
टा उन
ट ु</w>
ट ार
ट हल</w>
ट रे
ट ना
ट ंडन</w>
झो रा</w>
झू मे</w>
झु कि</w>
झा ड़</w>
झन झ
झ क</w>
झ ंडा
ज्योतिर् लिंग</w>
ज् जी</w>
जोग नी</w>
जो रि</w>
जो रा</w>
जो ति
जो ड
जू र</w>
जू ,</w>
जुर् म</w>
जु ड़ा
जु ला</w>
जु बली</w>
जु टावल</w>
जीवधार िन</w>
जीव बिबिधता</w>
जीव -जंतु</w>
जी ’</w>
जी सी</w>
जी रिया</w>
जिया जंतु</w>
जिन् नात</w>
जि से</w>
जाव ुर</w>
जाय ँ</w>
जान ंद</w>
जादू गर</w>
जाई ?</w>
जा लीं,</w>
जा ल,</w>
जा तियन</w>
जा ता,</w>
जा ता
जहाँ- जहाँ</w>
जव नन</w>
जल पाईगुड़ी</w>
जरु रे</w>
जरी ब</w>
जब रा</w>
जनम ते</w>
जन वादी</w>
जन वरी,</w>
जन तब</w>
जई से</w>
जइ स
जं जाल</w>
ज ्यू
ज हु
ज र,</w>
ज ड़ा
ज ग</w>
ज उ
छोड़ ऽ</w>
छो ड
छू ट
छु पल</w>
छु अ
छित राइल</w>
छिट पुट</w>
छि ला</w>
छि पा</w>
छा ँव</w>
छठ ईं</w>
छ ै
छ छा
छ क्का</w>
च् र</w>
चौ ध
चौ थाई</w>
चौ ंध</w>
चो क</w>
चै ट</w>
चेन् नई,</w>
चे त
चे किंग</w>
चे ंज</w>
चू ड़
चुन ले</w>
चु हा
चु रा</w>
चु निन्दा</w>
चु ंग</w>
चिन् हे</w>
चिन् ह
चित् तूर</w>
चि ल्ला
चि न्हा</w>
चि तवन</w>
चि ट्ठ
चि क
चाह ट</w>
चार ु</w>
चा हल</w>
चा शनी</w>
चा ंदी</w>
चा ंद</w>
चहुँप ले।</w>
चहुँ पे
चहुँ पत</w>
चह नी</w>
चल ता</w>
चल चित्र</w>
चर ,</w>
चम त्कार</w>
चम चा
चतु राई</w>
चढ़ े</w>
चट ्टी</w>
चट कार</w>
चक् का</w>
चका चौंध</w>
च ल्
च लीं,</w>
च ली
च भुला
च बूतरा</w>
च टक</w>
च को
घोटा ला,</w>
घू रा</w>
घुसपै ठियन</w>
घु सु
घु सा</w>
घा यल</w>
घर- परिवार</w>
घन श्याम</w>
घ ्य
घ ंटन</w>
ग्लै मर</w>
ग् गी</w>
गौर वान्वित</w>
गौ रा
गोबि ंद</w>
गोंड वाना</w>
गो ष्ठ
गो इं
गॉ व</w>
गे ,</w>
गूँ ज</w>
गुल बर्
गुरु जी</w>
गुद गु
गुजरा त,</w>
गुं जा</w>
गु ने</w>
गु ड़
गी ल</w>
गिर जाघर</w>
गाँ धी,</w>
गा.वि. स.</w>
गा वे
गा म</w>
गा छ
गा ंगु
ग़ा निस्तान</w>
गल थेथरई</w>
गर ियावत</w>
गर दा</w>
गया ना</w>
गद् दारी</w>
गणि त,</w>
गण ्
गई लन</w>
गंगा नगर</w>
खो आ</w>
खै रा</w>
खूब सूर
खुर पी</w>
खु वा
खु दा</w>
खीं चत</w>
खी य</w>
खि सि
खि ड़की</w>
खाँ टी</w>
खा य</w>
खरह रा</w>
खम् मम</w>
खण्ड- काव्य</w>
खड़ ि
खजु राहो</w>
खचा खच</w>
खंड न</w>
ख ड़ी</w>
ख िय
ख ़</w>
ख र-
ख दान</w>
ख तो
क्ष णिक</w>
क्वार्ट र
क्रिप्ट ो
क्र ूर</w>
क्यू बा</w>
क् वि
कौशाम् बी</w>
कौ ड़
कोवि न्द</w>
कोलं बस</w>
को हि
को ल</w>
को ल
को चिंग</w>
कॉ न</w>
कैथेड्र ल</w>
कै ल
के सरिया</w>
के ं</w>
के !</w>
कू लित</w>
कुल् फी</w>
कुन बा</w>
कुचिपु ड़ी</w>
कुंड ली</w>
कु री
कु बेर</w>
की ओ</w>
की )</w>
किसि म-किसिम</w>
किरि बाती</w>
किर ौना</w>
किता ब,</w>
कि दां
काले ज,</w>
काल जयी</w>
कार्य रत</w>
कार्य कुशलता</w>
कार् बन
कार नामा</w>
कार क</w>
काम ।</w>
कानू नन</w>
काट जू</w>
काग जात</w>
काँ प</w>
का हे।</w>
का मे
का मन</w>
का नू</w>
का के</w>
कह ल।</w>
कह लें।</w>
कर् व</w>
कर् नूल</w>
कर् नल</w>
कर् णी</w>
कर् णा
करेज वा</w>
करे ले,</w>
करि श्मा</w>
करा ह</w>
कर ऽता</w>
कर तब</w>
कभी -
कबीर दास</w>
कपिलव स्तु</w>
कनि ंघम</w>
कथा ,</w>
कत हूँ</w>
कड़ न</w>
कटि बंध</w>
कट नी</w>
कजा किस्तान</w>
कच् ची</w>
कई ला</w>
कई लस</w>
कंबो डिया</w>
कंपू टर</w>
कं पाउंड</w>
क लु
क लि
क मो
क बू
क पू
क त,</w>
क  
औ ष
औ रही</w>
ओ हायो</w>
ओ लि
ओ ल
ओ मान</w>
ओ पिनियन</w>
ओ ट</w>
ऑक् साइड</w>
ऑकल ैंड</w>
ऑ स्कर</w>
ऑ फर</w>
एही जे</w>
एस् सेल</w>
एम एस</w>
एम ए</w>
एप् पल</w>
एनालि सिस</w>
एके डे
एकह क</w>
एक दम्मे</w>
एक ,</w>
एं थम</w>
ए वाला</w>
ए थ
ए ज</w>
ए गार
ए ंग्
ऍ स
उस में</w>
उल टे</w>
उर् वशी</w>
उर् मिला</w>
उप् पर</w>
उपोष्णकटिबं धीय</w>
उपा ध्‍यक्ष</w>
उपत्य का</w>
उप री</w>
उप कार</w>
उन् नति</w>
उद हार
उद य,</w>
उत्तरी- पच्छिमी</w>
उत्तर प्रदेश</w>
उत् सु
उठा इ</w>
उठ ता</w>
उगा ही</w>
उ ॰
उ हा
उ मा</w>
उ बिया</w>
उ फ
उ ड़ी</w>
उ जर</w>
उ के
उ ,</w>
ई हाँ</w>
ई श्वर
ई राक</w>
ई रा
ई ?</w>
इहाँ ,</w>
इस्ला मपुर</w>
इस्पे शल</w>
इस्तेमा लो</w>
इस्ता ं
इलेक्ट्र ॉनिक</w>
इर् द-गिर्द</w>
इटै लियन</w>
इंडो- आर्यन</w>
इंडिया ’</w>
इंच )</w>
इंग लैण्ड</w>
इं टी
इ स्थीपा</w>
इ स्टाइल</w>
इ फ
इ ड्स</w>
इ गारह</w>
आसन सोल</w>
आवे ली</w>
आव ता</w>
आर्कि टेक्ट</w>
आर्कबि शप</w>
आर् मी</w>
आर् टि
आरो पियन</w>
आर म्भ</w>
आर क्षित</w>
आय ल</w>
आनंद ,</w>
आधार भूत</w>
आदि शक्ति</w>
आद मी,</w>
आत् म</w>
आज़ ा
आजमग ढ़</w>
आज तक</w>
आइसो टोप</w>
आइएस बीएन</w>
आइ ॰
आइ ब।</w>
आंध ्र
आं खी</w>
आ हार</w>
आ सिफ</w>
आ लम
आ मंत्रित</w>
आ भारी</w>
आ ब</w>
आ धा-
आ देस</w>
आ तिशबाजी</w>
आ टो</w>
आ कार,</w>
अढ़ ाई</w>
अहज ह</w>
अस मान</w>
अश् विनी</w>
अव ला</w>
अल् ट्रा
अलाय ंस</w>
अर् धा
अर् ध</w>
अर् जु
अर् घा
अय्य र</w>
अम रेली</w>
अभिने त्र
अभि लेख</w>
अभि मन्यु</w>
अभि नन्दन</w>
अब ू</w>
अन् हड़</w>
अन् ध
अन् तरि
अने कता</w>
अनि रुध</w>
अनार ्य</w>
अनचिन् हार</w>
अन का</w>
अधि कारन</w>
अध रतिया</w>
अद ला-बदली</w>
अद ला
अज्ञ ेय</w>
अच म्
अगल- बगल</w>
अंग्रे ज़ी
अंग िका</w>
अंग व
अंक गणित</w>
अं चरा</w>
अँ चार</w>
अँ उ
अ समय</w>
अ सकत</w>
अ संभव</w>
अ पर</w>
अ तर
अ जात
अ जब</w>
अ खाड़ा</w>
अ का
अ कल</w>
ंद ,</w>
ंड )</w>
ंग ल
ंक ले</w>
ं ता</w>
ं जय</w>
  किमी²</w>
y le
y l
vir on
viron ment
u ra
s s
r ist
r ight
p l
or n
ol l
o ur
o )</w>
k g
j p
ia l</w>
ia )</w>
h er
ge ograph
e b
c .</w>
[[ F
[[F ile:
SA S</w>
R iv
P )</w>
O r
M ar
A 3
99 2</w>
98 4</w>
95 5</w>
90 8</w>
90 2</w>
9 ),</w>
85 %</w>
80 %</w>
737 -
7 00</w>
5 :
5 9.
40 6</w>
39 %</w>
38 3</w>
36 %</w>
30 ,000</w>
30 %</w>
3 ,</w>
27 6</w>
201 8)</w>
20 20</w>
2 जी</w>
2 28
2 27
2 23
2 20
2 13
196 4</w>
193 5</w>
19 .
17 0</w>
16 वीं</w>
15 8</w>
14 .
13 -
0 8</w>
. )</w>
, 28
) ,
(अंग्रेजी :</w>
(अंग्रेज़ी :</w>
(201 7)</w>
( हिंदी
( रि
( बिहार)</w>
( नेपा
( जेह</w>
( जवना</w>
( g
( O
( 8
( 4
( 194
' ।</w>
"बै॰: L
" ले
" लि
" P
" -
… …।</w>
… ।’</w>
“ हमरा</w>
“ काहें</w>
“ ए</w>
“ अरे</w>
‘छो रा</w>
‘ हमार</w>
‘ जी</w>
‘ जब</w>
‘ ए</w>
॰सी ॰एन॰</w>
॰पी ॰
१ ९</w>
१ ८</w>
१ १</w>
ड़ा ,</w>
ड़ की</w>
ज़ बर
ज़बर दस्त</w>
्या ल</w>
् म</w>
ौप चारिक</w>
ौ ज</w>
े ज</w>
े )</w>
ु आइल</w>
ी त</w>
िया पुर</w>
िय न,</w>
िय ंस</w>
ि ह</w>
ऽतार े।</w>
ऽ ऽ
ऽ तारे</w>
ऽ ता
ह् लाद</w>
हौ ,</w>
होट ल्स</w>
होखे वाली</w>
होखे के</w>
होखी त</w>
हो ड़</w>
हो ए</w>
हो ंड
है ंड</w>
हेली कॉ
हेरा ल्ड</w>
हेड क्वार्टर</w>
हे ला</w>
हे राइल</w>
हृ दय
हूँ ,</w>
हु ड्डा</w>
ही ले</w>
हिस्सा )</w>
हिर ऊ</w>
हिमन द</w>
हिन् दी,</w>
हिच की</w>
हि ल्
हि मकर</w>
हि कारत</w>
हार ि</w>
हार -
हा ली-
हाली- हाली</w>
हा ल
हा ज</w>
हल ।
हर् ता</w>
हरिया ली</w>
हरि त</w>
हरमे सा</w>
हरमे शा</w>
हर ।</w>
हर ू</w>
हर द
हमी रपुर</w>
हमला वरों</w>
हम ले</w>
हम रा।</w>
हम को</w>
हप् ता
हप्ता वार</w>
हथियार न</w>
हथ ेली</w>
हत्या ,</w>
हत्य ारा</w>
हटा वत</w>
हजार ो</w>
हँ सुआ</w>
हँ वें</w>
ह ार्ड</w>
ह ारा
ह वन।</w>
ह ले
ह नीके</w>
ह ऊ
ह इए</w>
ह ंव</w>
ह ंग
स्वी डन</w>
स्वाधी नता</w>
स्व भाव</w>
स्पोर् ट्स</w>
स्थि रता</w>
स्थि ति,</w>
स्थानां तरित</w>
स्थ नीज</w>
स्त -
स्टेडिय म,</w>
स्टे श
स्टा फ</w>
स्क्रीन प्ले</w>
स् वे
स् का
सौर भ</w>
सौ हार्
सोसाय टी</w>
सोश लिस्ट</w>
सोलह वीं</w>
सोनी पत</w>
सोझा ।</w>
सोच -
सो ला
सो रि</w>
सो मारी</w>
सै मु
सैमु एल</w>
सेवा नि
सेल् व
सेल्व म</w>
सेन् ट्रल</w>
से र्
से यान</w>
से फ</w>
से कुल
से ंक</w>
सूर् या</w>
सूरी नाम,</w>
सू ल</w>
सू फी</w>
सू डान</w>
सू जी</w>
सुसु कि</w>
सुसु कत</w>
सुरी नाम</w>
सुरक्षा बल</w>
सुपर महादीप</w>
सुपर फास्ट</w>
सुन् दर
सुना ये</w>
सु ले
सु रों</w>
सु पौ
सु नि
सु ध
सु जोग</w>
सु जान
सु खा</w>
सु खल</w>
सु इ
सीबीएस ई</w>
सीता पुर</w>
सीजन ल</w>
सी मांकन</w>
सी नाई</w>
सी धी</w>
सी टें</w>
सी ओ</w>
सी आई
सी .</w>
सिया ही</w>
सिया चिन</w>
सिद्ध लेक</w>
सिकंदर पुर</w>
सि म</w>
सि प्पी</w>
सि टी)</w>
साहि ल</w>
साम्राज ्य,</w>
सामाजिक- आर्थिक</w>
सामग्र ियन</w>
सामं ती</w>
साध ्य</w>
साध ू</w>
साथ े।</w>
सात त्य</w>
साई किल</w>
साँ सत</w>
सा य</w>
सा नौमिक</w>
सा जन</w>
सा ज-
सा केला</w>
सा कार</w>
सहर सा</w>
सह जे</w>
सश क्
सवार थ</w>
सली का</w>
सलि ल</w>
सला मत</w>
सल टावे</w>
सर् किल</w>
सरे ंडर</w>
सरधा ंजलि</w>
सर स</w>
सर यू</w>
सर बो</w>
सर फराज</w>
सम् मले
समे ट</w>
समस् या,</w>
समझ ला</w>
सम सामयिक</w>
सम झा</w>
सब ल</w>
सपे रा</w>
सन न</w>
सद् भाव</w>
सत्य मेव</w>
सतु आ</w>
सता वेला</w>
सत ्</w>
सत ारा</w>
सत रहवीं</w>
सत पु
सड़ क,</w>
सजाव टी</w>
सच हू</w>
सच मुच</w>
सके त</w>
सकु चा
सक ऽ</w>
सक ब।</w>
संस्था नों</w>
संस् कारन</w>
संस् कार,</w>
संगमर मर</w>
सं ।</w>
सं सार
सं भावित</w>
सं ब
सं पदा</w>
सं चार
सं गोष्ठी</w>
सं क्रान्ति</w>
सँ वारे</w>
सँ वार
स ्र
स वर्ण
स रूप</w>
स य</w>
स बेरा</w>
स परिवार</w>
स न्यास</w>
स त्व</w>
स ट्टा</w>
स चान</w>
स घन</w>
स क्
स करले</w>
स ईंया</w>
स '</w>
श्री का
श्र मिक</w>
श् वा
शैक्ष णिक</w>
शै लेश</w>
शे ल</w>
शुक् ला,</w>
शु रुआ
शी शा</w>
शी ल
शी तल
[...]
