के 114074
में 44905
आ 30803
से 25368
का 12500
कि 11944
बा। 9575
ई 9364
पर 9307
बा 8396
ना 8324
त 8161
एह 8101
एगो 7726
लोग 6830
। 6814
क 6255
की 5926
गइल 5775
हो 5676
एक 5114
भोजपुरी 5109
बाटे। 4933
वाला 4881
भारत 4746
जिला 4450
ले 4386
करे 4234
खातिर 4227
, 3962
अपना 3880
भी 3711
कुछ 3606
सभ 3491
ऊ 3467
रूप 3320
एकर 3225
जाला। 3205
बाद 3114
गो 2924
कुल 2916
रहल 2904
साल 2808
जनसंख्या 2798
(@@ 2783
शहर 2783
कइल 2719
भइल 2694
कवनो 2682
गइल। 2642
आपन 2631
होखे 2604
राज्य 2571
अब 2531
जे 2513
रहे 2511
बाकिर 2493
बात 2413
फिलिम 2405
ला 2397
हम 2300
भा 2284
"@@ 2188
भाषा 2187
कहल 2179
ठो 2091
जा 2076
जब 2017
ओकरा 1991
प 1966
काम 1940
जाला 1940
रहे। 1926
इलाका 1911
अइसन 1891
देश 1882
दिन 1857
ओह 1824
समय 1823
भारतीय 1793
प्रदेश 1774
या 1758
कई 1753
और 1748
एकरा 1740
जी 1714
कर 1710
जवन 1694
बिहार 1670
उत्तर 1658
बहुत 1648
बाटे 1643
नाँव 1577
एही 1573
जनगणना 1573
सरकार 1561
हवे। 1551
दिहल 1547
- 1538
सिंह 1532
होला 1524
नइखे 1514
पहिले 1502
‘@@ 1494
मे 1493
तब 1474
नदी 1470
हिसाब 1408
करत 1403
ला। 1399
हमरा 1398
वाली 1395
होला। 1383
पूरा 1372
आजु 1368
हवे 1352
तरह 1334
जात 1328
जवना 1319
ए 1311
-@@ 1297
हर 1288
हिस्सा 1288
हमनी 1280
सभसे 1265
? 1255
ह 1233
इ 1225
लागल 1215
2011 1203
दू 1202
है 1200
आइल 1197
सब 1162
द्वारा 1150
) 1147
साथ 1140
– 1138
न 1135
ह। 1125
खबर 1119
नाम 1113
बनल 1111
रहल। 1092
ओर 1081
मन 1077
क्षेत्र 1069
उ 1064
बा, 1057
भइल। 1039
को 1032
लोगन 1027
अउर 1015
अनुसार 1007
केहू 1001
बन 998
काहे 996
अ@@ 990
" 982
बीच 973
ओकर 964
दुनिया 956
नया 955
पानी 943
समाज 936
कम 935
नेपाल 931
हिंदी 930
चुनाव 929
साथे 925
तक 924
आदमी 915
एकरे 909
बानी 903
मुख्य 897
लिहल 895
जाई। 888
बेर 888
कइले 885
मोदी 879
अउरी 873
साहित्य 862
मानल 856
में, 846
बहुते 843
घर 834
आवे 833
भर 832
फिल्म 831
स 828
मिलल 820
हमार 818
सिनेमा 816
इस्तेमाल 807
अगर 805
सगरी 800
बनावल 797
गाँव 795
कबो 793
लगभग 793
देस 793
बाकी 792
शब्द 792
मुख्यालय 784
दिल्ली 783
मिल 780
जाए 780
उनकर 778
ने 777
दिने 776
न@@ 774
तीन 765
रहलें। 765
ब@@ 764
शामिल 763
इनके 763
चलते 762
जगह 760
क@@ 759
’ 757
सके 757
इहाँ 748
दे 744
पहिला 739
बारे 738
प्रमुख 738
ढेर 730
ही 726
वर्ग 721
जइसे 718
जाय 717
अलग 714
चुकल 714
जानल 709
स@@ 706
उनका 703
आज 702
! 701
उनुका 699
नेता 693
इहे 683
कौनों 683
परिवार 682
ल@@ 682
सबसे 681
अपने 681
बनावे 681
भाजपा 680
मिला 679
दर 668
जाई 666
मौजूद 656
आ@@ 656
के। 654
ले। 653
बा@@ 651
फेर 649
रउरा 642
शुरू 641
जहाँ 641
कारण 632
आसपास 631
बना 624
कुमार 623
बाबा 623
माने 617
गंगा 610
मिले 609
जेकरा 608
जइसन 604
बि@@ 598
लगे 598
नइखे। 597
भाई 596
र@@ 595
खाती 593
देबे 587
म@@ 587
मोताबिक 586
ए@@ 585
“@@ 577
जाव 575
इ@@ 573
प@@ 572
उ@@ 569
लिखल 569
चल 568
हिन्दी 568
त@@ 567
आँकड़ा 565
रकबा 557
बे@@ 556
देखे 554
गीत 553
ना@@ 551
चाहे 550
खाली 549
खास 548
आगे 547
टटका 544
तो 543
दिहले 542
मतलब 541
माई 540
ग@@ 539
धर्म 536
कहलन 535
लेकिन 534
साक्षरता 533
सु@@ 532
सभे 528
बस 525
शहरी 525
पिछला 524
चार 524
ह@@ 523
जबकि 521
हिंदू 521
ऐक्ट्रेस 519
होखे। 518
वि@@ 518
घनत्व 518
अतना 517
नियर 515
राज 512
कंपनी 510
दोसरा 507
दक्खिन 507
कांग्रेस 506
मत 506
राजधानी 505
आम 504
चीज 504
बाड़ी। 503
तरीका 503
बाति 502
उनके 502
पता 500
ल 499
का@@ 498
राजा 496
ले@@ 496
बतावल 495
स। 495
किया 494
राजनीति 493
रचना 492
लाल 492
वर्तमान 492
जान 490
मंदिर 490
ओ 489
नी 489
पृथ्वी 488
लिंगानुपात 488
कइसे 486
महीना 486
ओही 483
छोट 482
रिलीज 481
मीडिया 480
जानकारी 480
नि@@ 480
कहानी 478
ली 478
न, 477
अंगरेजी 476
ज@@ 475
संख्या 473
एके 472
अमेरिका 471
कहीं 469
बिना 469
विकास 468
बाड़ें। 466
देखल 464
हाथ 464
ते 463
नीचे 462
जाला, 462
पटना 462
बाड़ी 459
बड़हन 458
रही 457
रहुवे 455
पावल 455
वा 454
चाहत 452
सीमा 451
द@@ 450
व@@ 449
लोक 449
कवि 448
काल 448
यादव 448
कि॰मी॰ 443
संस्कृति 440
के, 440
पार्टी 440
उपशहरी 440
पा@@ 437
मान 436
 @@ 432
जाव। 431
देत 431
जेह 431
मा@@ 430
बानी। 429
जनता 429
हैं 428
सेवा 427
लोग। 427
बड़ 426
ता 423
रंग 423
फरवरी 423
लें। 422
1 422
इतिहास 421
ला@@ 421
च@@ 420
होखत 419
आधार 419
काहें 419
बाकि 419
चलत 416
मंत्री 415
खेल 415
अधिका 414
राष्ट्रीय 413
गोल 412
विश्वविद्यालय 410
सकेला 410
इहो 410
मौका 410
कहले 409
बने 409
ठीक 409
कहे 408
म 407
खिलाफ 406
जमीन 405
महत्व 405
,@@ 403
मनोज 403
ओ@@ 401
जा@@ 400
रहलें 400
कु@@ 400
ल, 399
ं@@ 399
रह 399
सि@@ 398
है। 398
सकेला। 396
हाल 395
ट@@ 395
जेकर 395
पत्रिका 394
पुरान 393
स्थित 392
राम 392
को@@ 390
बिया 387
रि@@ 387
बाने। 387
शिक्षा 386
लें 385
वा@@ 385
अन्य 385
मूल 384
अध्यक्ष 382
ख@@ 382
आवत 382
तिवारी 382
से@@ 381
जीवन 380
बेटा 379
रहुवे। 379
प्रधानमंत्री 379
पुलिस 379
कारन 378
सन 378
सं@@ 377
ो 376
वे 374
अशोक 372
अलावा 372
नगर 372
टीवी 371
रा@@ 369
बंगाल 369
के@@ 369
भ@@ 368
होखी 366
ता@@ 366
सा@@ 366
रात 366
सही 365
लेके 364
सी@@ 364
निर्माण 364
झील 364
लेखक 362
द 362
लागत 362
लागल। 362
इनहन 361
बिया। 360
पाकिस्तान 360
2 360
देख 359
जाले। 359
रहे, 359
रहि 358
काल्हु 358
रो@@ 357
जनम 357
लिहले 357
; 356
में। 355
गांव 354
चाहीं। 353
त, 353
ऊपर 353
जेवना 353
दीहल 352
प्रसाद 351
होत 351
बाबू 351
चले 351
पर@@ 349
5 349
भगवान 347
निर्देशक 346
नहीं 346
लाख 345
राष्ट्रपति 343
” 341
सवाल 341
चरचा 340
सामने 340
सम्मान 338
कविता 338
हिन्दू 338
भाग 337
कर@@ 337
फिर 336
भाव 335
जरूरत 335
ला, 335
रानी 335
ई@@ 335
मे@@ 334
तरफ 334
3 334
प्रेम 333
गो@@ 333
मेहरारू 333
सबले 332
पच्छिम 332
मामिला 331
हमेशा 331
जनवरी 331
जरूरी 329
घरी 329
मो@@ 329
रे 329
झारखंड 329
किसिम 329
मंगल 328
भोजपुरिया 327
एहसे 327
जगहा 327
कोशिश 327
दे@@ 326
तू 326
जाने 325
मुख्यमंत्री 325
ना, 324
ट 324
कला 323
कवन 323
गईल 323
पूजा 322
संगीत 321
खुद 321
र 321
एशिया 320
चाहीं 319
राजनीतिक 319
सा 319
दूर 319
गाँवपालिका 318
लि@@ 317
उहे 317
परबत 317
बो@@ 316
सके। 315
यूपी 315
केहु 315
6 315
ना। 314
मार 314
दिहलसि। 313
बेसी 313
मि@@ 312
9 312
मैदान 311
प्रकार 311
कलाकार 310
मिलल। 310
जेवन 310
उत्तरी 309
ती 308
ब 308
ड@@ 308
बरिस 308
मार्च 307
उहाँ 306
कतना 305
लो 305
जुड़ल 305
घटना 305
किताब 305
मौत 304
लगा 304
ऑफ 303
स, 303
तय 303
संस्कृत 303
निर्माता 303
श@@ 302
), 302
भूमिका 302
7 301
रे@@ 300
सी 300
री 298
प्रकाशित 297
कहत 297
नो 297
स्@@ 297
प्रजाति 297
ल। 296
पि@@ 296
मध्य 296
पर्यावरण 294
व 294
सदी 294
इत्यादि 294
इस 293
होखी। 292
बाहर 292
रुपिया 292
बदलाव 292
कार्यक्रम 291
वालन 291
सांसद 291
ने@@ 291
लो@@ 290
नी@@ 290
8 290
महादीप 290
रा 289
साफ 289
फ@@ 289
हवा 289
य@@ 289
ली@@ 289
बाड़न 289
अध्ययन 288
कहना 287
हो@@ 287
3@@ 287
होई 286
पड़े 286
मनावल 286
पाँच 285
देवी 285
ध@@ 285
कथा 284
चलल 284
दौरान 284
जमाना 284
जो 284
फैसला 284
हवे, 284
इलाहाबाद 284
घरे 283
चीन 283
दु@@ 282
नजर 282
जीत 281
पो@@ 281
जारी 281
आदि 280
आवाज 280
बाड़ी 280
मने 280
राय 279
आजादी 279
बाप 279
होला, 279
हालाँकि, 279
जी@@ 278
एहिजा 278
बदल 278
आप 278
अगस्त 278
मंडल 278
मु@@ 277
लइका 277
विश्व 276
वाले 276
हा@@ 276
देर 276
. 276
सोझा 275
करें 275
ज 275
लागे 275
बिस्तार 275
एक्टिंग 275
यह 274
संगे 274
करावे 272
रहले 272
प्र@@ 272
4@@ 272
दोसर 271
अगिला 271
किलोमीटर 271
6@@ 269
4 269
10@@ 269
सीट 268
बौद्ध 268
बिज्ञान 268
कि@@ 267
ये 267
वगैरह 266
सामाजिक 266
लीं 266
न। 266
ह, 266
भइला 265
सकत 265
जाति 264
बी@@ 264
आमतौर 264
वे@@ 263
पद 263
मनोरंजन 263
मनुष्य 263
बॉलीवुड 263
याद 262
बेटी 262
होई। 261
लन 261
अधिकार 261
गा@@ 261
दा@@ 261
अपनी 261
कमी 259
खतम 259
जून 259
ले, 258
बावजूद 258
स्टार 258
: 257
मान्यता 257
बाड़ें 257
सरकारी 257
दि@@ 257
ति@@ 257
आधारित 257
राह 256
त। 255
जरूर 255
गया 255
भीम 255
जन 254
अबहीं 254
भीतर 254
हजार 254
टीम 254
सागर 254
कैलेंडर 254
बाड़न 253
हा 253
जुलाई 253
वाँ 252
मई 252
जिनहन 252
जा। 251
हार 251
भूगोल 251
मा 250
प्राचीन 250
दस 249
वोट 249
फेरू 249
न्@@ 249
म्यूजिक 249
पी@@ 248
दौर 248
महा@@ 247
कहाँ 247
टी 247
राहुल 247
सो@@ 247
तइयार 247
चि@@ 247
चलि 246
मुँह 246
रह@@ 246
पे@@ 246
नगरपालिका 246
चा@@ 245
हिमालय 245
उप@@ 245
रहले। 245
ऽ 245
2017 245
पच्छिमी 245
सदस्य 244
दी 244
खा@@ 244
अलग-अलग 244
उनुकर 243
जे@@ 243
भासा 242
लिए 242
हिडिमा 242
केन्द्र 240
कार 240
ठाकुर 240
यूरोप 240
रहेला। 239
प्रयोग 239
स्तर 239
रहलन 239
पी 239
एकरी 239
जीव 238
डा॰ 237
देवे 237
धन 237
भरल 237
बार 237
स्थिति 237
रु@@ 237
पवन 236
खा 236
पूरबी 236
इकाई 235
रही। 235
गाँधी 235
संसद 235
र, 235
खराब 235
लिखे 235
गाना 235
अक्टूबर 235
शाखा 235
कसबा 235
तौर 234
क, 234
पैदा 234
करा 233
छ@@ 233
देखत 233
दुसरा 233
विचार 232
आखिर 232
बाड़न। 232
जन@@ 232
रहेला 232
गु@@ 232
कइला 231
गुजरात 231
चिरई 231
ओकरे 231
पुर 231
हऽ। 231
लमहर 230
राउर 230
सम्मेलन 229
सँ। 229
चु@@ 229
जने 229
सन् 229
तथा 229
सामिल 229
शासन 228
छोड़ 227
जो@@ 227
महाराष्ट्र 227
मुंबई 227
प्राकृतिक 227
'@@ 227
जि@@ 226
राम@@ 226
बलिया 225
नू 225
संस्था 225
भिखारी 225
जिनगी 225
ऊँच 225
9@@ 225
दक्खिनी 225
महतारी 224
य 224
हे 224
साझा 224
हि@@ 224
ली। 224
सिस्टम 223
बइठल 222
कवना 222
ओहिजा 222
ज्ञान 222
नाहीं 222
गोरखपुर 222
5@@ 222
जोर 221
दीप 221
वन 221
आर्थिक 221
पाण्डेय 220
उमिर 220
पश्चिम 220
दलित 220
बियाह 220
लीं। 220
ड 220
सुरक्षा 220
कब 219
इनका 219
कह 219
विधानसभा 219
रेलवे 219
”@@ 218
किनारे 218
एतना 217
पार 217
डि@@ 217
कल 217
बाजार 217
सभा 217
अमेरिकी 217
जानत 216
देव 216
औरत 216
होके 216
बर@@ 216
दिहलसि 215
ं 215
ल-@@ 215
विरोध 215
गइल, 215
परंपरा 215
पुल 215
बलुक 214
सौ 214
सर@@ 214
लाइन 214
सिन्हा 214
18@@ 214
बनारस 214
की@@ 213
बहे 213
जाये 213
' 213
लेबे 212
बरखा 212
करीब 211
कह@@ 211
लागू 211
करी 211
बोले 211
दर्शन 211
गइले। 211
उपन्यास 211
नो@@ 211
बिकास 211
सुरू 211
राखल 210
प्रकाश 210
सोच 210
संविधान 210
होले। 210
गलत 210
हे@@ 210
थ@@ 210
म, 209
बड़ा 209
माटी 209
खाना 209
8@@ 209
सुरुज 209
15@@ 209
डी 208
7@@ 208
खूब 208
जु@@ 207
.@@ 207
कइलन 206
शुरुआत 206
राखे 206
पीछे 206
समूह 206
करते 206
सात 206
घ@@ 206
देशदुनिया 206
मिश्र 205
स्थापना 205
आगा 205
अस्थान 205
बरीस 204
देखि 204
लगावल 204
आउर 204
बु@@ 204
ते@@ 204
शुरु 203
भू@@ 203
17@@ 203
चैनल 202
बड़का 202
भारी 202
योजना 202
हु@@ 202
पास 202
डा@@ 202
मै@@ 202
/@@ 202
रखल 202
", 202
टी@@ 201
कानून 201
मुद्दा 201
जलवायु 201
एहमें 200
अइसने 200
पइसा 200
आंदोलन 200
कोई 200
बड़ 200
केंद्र 200
14@@ 200
16@@ 200
समारोह 199
शर्मा 199
हऽ 199
अतवार 199
बतकुच्चन 199
बंद 199
महिला 199
क्षेत्रफल 199
सँ 198
खेत 198
देले 198
टि@@ 198
आधुनिक 198
श्रेणी 198
बुध 198
दुनों 198
सिंह, 197
रपट 197
आइल। 197
त-@@ 197
लाग 197
उदाहरण 197
लिस्ट 197
ी, 196
रहीं 196
ियो 196
लगातार 195
तेज 195
रहली 195
संघ 195
समस्या 195
पु@@ 195
फोटो 195
सोमार 195
उहो 194
राज@@ 194
कन 194
होखे, 194
ंग 194
शूटिंग 194
उपयोग 194
15 193
अखबार 193
ओके 193
रहल, 193
अरथ 193
दी@@ 192
अंक 192
सपना 192
लु@@ 192
2@@ 192
प्रति 192
टे@@ 192
अलगा 192
खेती 192
सारा 192
उपलब्ध 192
14 192
शा@@ 191
वत 191
मेला 191
से, 191
10 191
केतना 191
परभाव 191
बिस्व 191
मंच 190
बोलल 190
लगावे 190
बल 190
आनंद 190
अनेके 190
बिबिध 190
सामग्री 189
पूर्व 189
डे@@ 188
देखावल 188
दिल 188
खान 188
फिलिमन 188
ब्रिटिश 188
बैंक 187
या@@ 187
री@@ 187
…। 186
फल 186
स्थापित 186
करने 186
सिवान 186
बतावे 185
मकसद 185
बनवले 185
गइले 185
होले 185
इन 185
आई 185
दूरी 184
यात्रा 184
प्यार 184
बुद्ध 184
आयोजन 183
घंटा 183
शाह 183
कइलन। 183
धरती 183
दिवस 183
दिसंबर 183
रहली। 183
संबंध 183
पुरस्कार 183
सुरुआत 183
जल 183
पहाड़ी 183
सांस्कृतिक 182
तनी 182
निकल 182
रोक 182
न-@@ 182
देख@@ 182
करावल 181
पा 181
से। 181
जाता 181
लड़ाई 180
शक्ति 180
बिआह 179
ियन 179
बे 179
आरोप 179
भा@@ 179
ंग@@ 179
हमला 179
लीहल 178
ी। 178
मशहूर 178
क्@@ 178
अकादमी 178
इंडिया 178
पहिचान 178
स्थान 178
एक्टर 178
चल@@ 177
नी, 177
तहरा 177
अन@@ 177
… 177
लखनऊ 177
ठ@@ 176
ि 176
जाले 176
बै@@ 176
नाटक 176
दल 176
झ@@ 175
रहलन। 175
सेना 175
पहिली 175
रस 174
पति 174
जोग 174
पीएम 174
लागेला 174
जिनिगी 174
एकदम 174
मी 174
चक्कर 174
सिक्किम 174
श 174
अं@@ 173
निकलल 173
कै@@ 173
हालाँकि 173
मात्रा 173
मन@@ 172
सुने 172
रू@@ 172
अधिक 172
गांधी 172
टा 171
देवता 171
ऊँचाई 171
छह 170
नंबर 170
रहत 170
लायक 170
े। 170
e@@ 170
प्रशासनिक 170
परसिद्ध 170
नीमन 169
डर 169
रहन 169
बेरा 169
मालूम 169
र्@@ 169
काफी 169
बड़ा 169
अंत 169
पुरा 169
दाम 169
"" 169
करीं 168
होखला 168
रो 168
हर@@ 168
जवाब 168
बाड़े 168
बतावत 168
नरेन्द्र 168
खड़ा 168
निकले 168
आकार 168
होटल 168
वले 167
सोचे 167
जतना 167
संजय 167
अप्रैल 167
बन@@ 167
वाराणसी 167
मुहूर्त 167
13@@ 167
खड़ा 166
दुख 166
े@@ 166
जेल 166
श्री 166
कइलें। 166
तु@@ 166
दुनू 166
") 166
द्विवेदी 165
गायक 165
आइ@@ 165
खोज 165
ी@@ 165
फूल 165
रेल 165
20 165
शो 165
लइकी 165
सितंबर 165
चिरइन 165
बाड़े। 164
पड़ल 164
बता 164
कोर्ट 164
पट्टी 164
मुखिया 164
लग@@ 164
टा@@ 164
12@@ 164
ग 164
पढ़ाई 164
दूसरा 164
ताकत 163
सड़क 163
ति 163
पहिलका 163
अँजोरिया 163
ज्यादातर 163
छोड़ 163
सीजन 163
कौनो 163
खो@@ 162
करेला। 162
तन 162
हालांकि 162
औसत 162
बोली 162
मौसम 162
अनु@@ 162
दूध 162
अंतर्राष्ट्रीय 162
रेखा 162
माँग 162
पे 162
घाटी 162
धार्मिक 162
ऊ@@ 161
नीक 161
े 161
भव्य 161
राधा 161
नवंबर 161
पूरुब 161
सफल 160
हीं 160
करी। 160
ली, 160
माध्यम 160
ध 160
मानव 160
शायद 159
खुशी 159
मी@@ 159
बाने 159
बहिन 158
देला। 158
फोन 158
लोकसभा 158
दिया 158
वो 158
एक@@ 158
पोस्ट 158
डी@@ 158
स्कूल 158
साहेब 158
बी 157
सोशल 157
हासिल 157
फायदा 157
वल 157
सन। 157
आँखि 157
फि@@ 157
ज्यादा 157
चीनी 157
समिति 157
""@@ 157
सफलता 156
तोहरा 156
शिव 156
समेत 156
साँच 156
आँख 156
प्रचार 156
विनय 156
करेला 156
बाबूजी 156
तुलना 156
("@@ 156
होखल 155
पंजाब 155
तर@@ 155
बढ़िया 155
शरीर 155
पंचायत 155
बाड़े 155
दक्षिण 155
(, 155
अनुसूची 154
करोड़ 154
ता, 154
अर्थ 154
रहा 154
महासागर 154
प्रसिद्ध 154
ग्रह 154
अबले 153
बसल 153
दा 153
तऽ 153
डो@@ 153
हई 153
बाँटल 153
बड़हन 153
हवें। 153
दिहलन। 152
पावे 152
बाड़न। 152
दुसरका 152
दूनो 152
निधन 152
दि 152
भवन 151
आखिरी 151
नाथ 151
मिश्रा 151
गइलन 150
जाय। 150
हँ 150
रन 150
गिरफ्तार 150
बबुआ 150
मिलत 150
लेत 150
वेबसाइट 150
सर 150
मदद 150
हमके 150
प्रकाशन 150
मीटर 150
गा 149
स्थानीय 149
दुनु 149
चुनल 149
त्@@ 149
पन 149
छपरा 149
तत्व 149
दूसर 149
2015 149
s@@ 149
चोटी 149
संगीतमय 149
दिमाग 148
संस्कार 148
हालात 148
हत्या 148
प्रतिक्रिया 148
मिली 148
बैनर 148
’, 148
रोज 148
सभका 147
अभियान 147
टो@@ 147
सुविधा 147
समर्थन 147
कार@@ 147
पसंद 147
चे@@ 147
रवि 147
सम्मानित 146
बादो 146
अबकी 146
िया 146
म्@@ 146
बिचार 146
महत्वपूर्ण 146
नांव 146
0@@ 146
बिसय 146
भइल, 145
सू@@ 145
मोबाइल 145
दो 145
अव@@ 145
लउके 145
साहित्यकार 145
गिनल 145
पै@@ 145
जंगल 145
यूनाइटेड 145
परिणाम 144
माहौल 144
आपस 144
दो@@ 144
2014 144
इतिहासी 144
विषय 143
नव@@ 143
तबले 143
उठा 143
खे@@ 143
सऽ। 143
वाद 143
मरद 143
आबादी 143
नीतीश 143
बड़का 143
गांवपालिका 143
विजय 142
उमेद 142
महान 142
हरा 142
डाल 142
इनकर 142
शि@@ 142
धारा 142
आजाद 142
नई 142
ता। 142
हमहन 142
शुक 142
दर्ज 142
किला 142
अस्पताल 142
आठ 141
नियम 141
2016 141
अंग 141
सरोकार 141
साम्राज्य 141
सितम्बर 140
वां 140
12 140
कहि 140
नयका 140
गइलें। 140
अर@@ 140
ड़ 140
गे@@ 140
मिल@@ 140
दर्जा 140
गीतन 140
तहत 140
इंटरनेट 140
धीरे 139
ठे 139
जी, 139
होली 139
साहब 139
कं@@ 139
दू@@ 139
प्रशासन 139
24@@ 139
चंद्रमा 139
लउकत 138
ती@@ 138
दिहलें। 138
अधिकतर 138
कइलें 138
तरे 138
साथही 138
मातृभाषा 138
आपके 138
1@@ 138
भोजन 137
बदले 137
पहिलहीं 137
जालें। 137
निया 137
ि@@ 137
लन। 137
काशी 137
नारायण 137
ही@@ 137
तिहुआर 137
पत्रकार 136
व्यवस्था 136
राज्यन 136
बो 136
चर्चा 136
कइसन 136
21 136
तेजी 136
है@@ 136
अपराध 136
ल्@@ 136
हवाई 136
11 136
कइलस। 136
रास्ता 136
19 136
हैं। 136
विमान 136
समुंद्र 136
ग्रेगरियन 136
जल्दी 135
अरे 135
बनि 135
अस 135
गलती 135
सत्ता 135
लिख@@ 135
राजकुमार 135
आग 135
28@@ 135
जाएंगे 135
योगदान 134
तो@@ 134
फेरु 134
सोचत 134
वी 134
अवार्ड 134
विशेष 134
जहाज 134
30 134
देह 134
ड़ 134
रहन। 134
अभी 134
छठ 134
प्राप्त 134
जिनके 134
a@@ 134
25@@ 134
प्रशांत 134
बा: 134
दुल्हनिया 134
शनिचर 133
जबले 133
भरपूर 133
किरदार 133
घाट 133
था@@ 133
बिहारी 133
चेहरा 133
दास 133
मोहन 133
जैसे 133
C@@ 133
कल@@ 132
संगठन 132
मर@@ 132
आयोजित 132
ु 132
नीति 132
कार्यालय 132
19@@ 132
लंबाई 132
24 131
25 131
चलावे 131
देशन 131
तबो 131
असल 131
परीक्षा 131
शब्दन 131
वार 131
राजस्थान 131
सूर्य 131
मारीशस 131
बोल@@ 130
खतरा 130
फे@@ 130
पहुँच 130
लेखा 130
कॉलेज 130
वर्@@ 130
सबेरे 129
विदेश 129
न्यूज 129
सुख 129
टर 129
यन 129
एक्शन 129
मास्टर 129
विधायक 129
इं@@ 129
अभिनेता 129
राष्ट्र 129
ू 129
पंडित 129
गोली 129
अरब 129
20@@ 129
साधारण 129
28 129
नइखन 128
अधिकारी 128
रहला 128
होखेला। 128
सो 128
धेयान 128
दर@@ 128
घोषित 128
अच्छा 128
फा@@ 128
भ 128
परि@@ 128
में@@ 128
बढ़ 128
आसान 127
ो@@ 127
अदालत 127
कान 127
घु@@ 127
धरम 127
कल्पना 127
कइल। 127
्@@ 127
चलन 127
गाड़ी 127
नवही 127
अफिरका 127
वला 126
परेशान 126
निकाल 126
संयुक्त 126
सम्@@ 126
नन 126
देला 126
गी 126
रिया 126
इन्@@ 126
ट्रेन 126
संग्रह 126
निर्देशन 126
था 126
भु@@ 126
पूर्वी 126
दिहले। 126
o@@ 126
m@@ 126
संपादक 125
वर 125
तले 125
ची@@ 125
t@@ 125
समझ 125
मिलेला। 125
विभाग 125
पार्क 125
c@@ 125
भूगोलीय 125
ममता 124
साबित 124
तबे 124
कर्नाटक 124
रहीं। 124
मान@@ 124
टिप्पणी 124
आर 124
नेपाली 124
जवान 124
लागी 123
रुप 123
ड़ा 123
मुसलमान 123
पर, 123
ओने 123
आदेश 123
लेख 123
गि@@ 123
घोषणा 123
पुराना 123
निजी 122
क-@@ 122
खून 122
व्यापार 122
रोटी 122
एशियाई 122
ै 121
जय 121
एहू 121
बच्चा 121
एलान 121
पेश 121
पुरनका 121
बइठ 121
माता 121
चारो 121
रोल 121
22 121
i@@ 121
बजे 120
लिख 120
गइला 120
उठ@@ 120
रत 120
ँ@@ 120
सुन@@ 120
बनत 120
चौ@@ 120
पक्ष 120
्य@@ 120
लें, 120
छा@@ 120
कंप्यूटर 120
जौनपुर 120
[[@@ 120
(जनम 120
पूर्वांचल 119
भरोसा 119
बीस 119
किसान 119
कहा 119
कृष्ण 119
पहचान 119
खु@@ 119
िये 119
लिहलसि। 119
लिखले 119
नेशनल 119
हईं 119
अइ@@ 119
गति 119
सै@@ 119
भावना 119
घवाहिल 119
यानी 119
काका 119
e 119
एयर 119
er@@ 119
जौना 119
संवैधानिक 118
सहज 118
भुला 118
व, 118
गइली 118
हमरो 118
चलावल 118
बाल 118
प्रकृति 118
मांग 118
लोकप्रिय 118
रहनी 118
स्टेशन 118
किसी 118
चो@@ 117
हालत 117
दावा 117
िया, 117
एकही 117
कत 117
भले 117
टन 117
हन 117
सम@@ 117
गइलन। 117
धा@@ 117
दार 117
एवं 117
शादी 117
क्या 117
अल@@ 117
उद्योग 117
अंतिम 117
पत्नी 117
चटर्जी 117
26@@ 117
एक्सप्रेस 117
तवन 116
खाए 116
दिहलन 116
भाषण 116
मारे 116
खुश 116
जम्मू 116
मर 116
ईहे 116
सह@@ 116
फगुआ 116
ंस 116
छि@@ 116
A@@ 116
पुस्तक 116
सामान 116
पहाड़ 116
ब्लॉक 116
17 116
मिलियन 116
बढ़िया 115
आन्दोलन 115
पड़ी। 115
भि@@ 115
अनुभव 115
अंतर 115
तर 115
16 115
इयाद 115
जगत 115
हवें 115
अभिनय 115
जेकरे 115
एकट्ठा 115
सुकन्या 115
जरुरी 114
वजह 114
बारह 114
सीधे 114
जस 114
लागेला। 114
घोटाला 114
बोल 114
लालू 114
ओतना 114
देखावे 114
विश्वास 114
पुरुष 114
पड़ 114
शैली 114
यू@@ 114
कहली 114
वादी 114
बाड़े। 114
क्रम 114
वै@@ 114
ण@@ 114
वी@@ 114
दुनो 114
बिसाल 114
पेट 113
लिया 113
इल 113
नु@@ 113
अतने 113
ई। 113
लू@@ 113
कइ@@ 113
नी। 113
हरियाणा 113
तारीख 113
पढ़े 113
शन 113
भी@@ 113
गरीब 113
ब्यक्ति 113
साँझ 112
विरोधी 112
चाल 112
अनुमान 112
26 112
हट 112
न) 112
वीं 112
च 112
ध्यान 112
29 112
ड़@@ 112
किनारा 112
23@@ 112
चट्टान 112
बियफे 112
स" 112
प्रधान 111
लेखन 111
चलीं 111
हिन्दुस्तान 111
ज, 111
तोहार 111
जाके 111
ु@@ 111
)। 111
ऽ। 111
गीतकार 111
डॉ। 111
लगा@@ 111
सुन 111
देसन 111
कऽ 111
उच्च 111
ट, 111
पिता 111
30@@ 111
गंज 111
फुटबॉल 111
अवसर 110
लोग, 110
गइली। 110
हें 110
नइखीं 110
करे। 110
27@@ 110
मं@@ 110
तेल 110
1,@@ 110
न" 110
मह@@ 109
फरक 109
आजुओ 109
दिहलें 109
ढ@@ 109
प्रदर्शन 109
टे 109
ड़@@ 109
नुकसान 109
का, 109
हम@@ 109
मदन 109
गाविस 109
पाठक 108
पर। 108
ओहू 108
कश्मीर 108
आधा 108
र-@@ 108
नाच 108
संगीतकार 108
धु@@ 108
अखिलेश 108
सूची 108
करा@@ 108
आके 108
दुर्गा 108
बोर्ड 108
सुरुआती 108
गोड़ 108
ऊपरी 108
गईल। 108
% 108
पाती 107
संचालन 107
जुड़ल 107
करिया 107
देखते 107
अग@@ 107
पत्र 107
पू@@ 107
कोसिस 107
होखेला 107
कलाकारन 107
इन@@ 107
चीन्हा 107
उड़ान 107
p@@ 107
पौधा 107
l@@ 107
केकरा 106
कइलसि 106
असली 106
बीचे 106
भर@@ 106
हाथे 106
कू@@ 106
दशक 106
संघर्ष 106
ओतने 106
मैच 106
18 106
काश्मीर 106
50 106
सिटी 106
प्रक्रिया 106
रामचेला 106
तराई 106
नरेंद्र 106
जाल 105
मुश्किल 105
मजबूत 105
काट 105
एने 105
बर्@@ 105
खि@@ 105
नायक 105
13 105
शो@@ 105
0 105
ड़ा 105
घरेलू 105
गाजीपुर 105
नही 105
दुसरे 105
रोड 105
r@@ 105
अस्थापना 105
]] 105
सत्र 104
आनन्द 104
मुस्लिम 104
गावल 104
दर्शक 104
देव@@ 104
चिंता 104
रउआ 104
कइलस 104
प्@@ 104
समझौता 104
ब्लॉग 104
तापमान 104
निहोरा 103
मार्ग 103
ई, 103
ल) 103
िया@@ 103
हमरे 103
देखीं 103
भो@@ 103
गर@@ 103
भेजल 103
ंट 103
नर 103
कमाई 103
नहर 103
सीरीज 103
एयरलाइन 103
इस्तमाल 103
ऑ@@ 102
ढंग 102
बह@@ 102
ं, 102
बिजली 102
बइठ@@ 102
साहित्यिक 102
सुधार 102
किशन 102
सामान्य 102
गैस 102
जहां 102
40@@ 102
विज्ञान 102
S@@ 102
ंड@@ 102
g@@ 102
बाड़ें 102
(अंगरेजी: 102
असर 101
् 101
फीसदी 101
सपा 101
दर्शकन 101
गुरु 101
अप@@ 101
लोक@@ 101
बहु@@ 101
ज़@@ 101
होखो 101
लेले 101
लस 101
समान 101
नृत्य 101
भट्ट 101
संसाधन 101
2001 101
भूमि 100
हक 100
चला 100
जान@@ 100
प्रस्ताव 100
हद 100
बाँ@@ 100
संतोष 100
वीडियो 100
मू@@ 100
बेमारी 100
ची 100
औरतन 100
आयोग 100
बिद्वान 100
बाटे, 100
एस 100
R@@ 100
पदक 100
पदार्थ 100
पाठ 99
बचावे 99
विशाल 99
प्रचलित 99
कहला 99
बन्द 99
ताल 99
सहारे 99
ऽ@@ 99
सुपर 99
जू@@ 99
हाई 99
स्थल 99
सहायक 99
गरम 99
आवेला 99
पांच 99
संबंधित 99
?’ 99
29@@ 99
किमी 99
a 99
खोजे 98
शिकायत 98
जालें 98
री, 98
खातिर। 98
बद@@ 98
स्वतंत्रता 98
पाछा 98
मैथिली 98
पड़ी। 98
संसार 98
थ 98
ग्रंथ 98
23 98
भोजपुर 98
00 98
कम्पनी 98
खाड़ी 98
बैज्ञानिक 98
तिसरका 97
बर 97
अलावे 97
करीं। 97
जबाब 97
पल 97
गइलें 97
चू@@ 97
बयान 97
रक्षा 97
गर 97
प्रा@@ 97
बू@@ 97
फु@@ 97
आरा 97
जर 97
ब। 97
उर्दू 97
सीधा 97
लिंग 97
चित्र 97
उत्पादन 97
जरुरत 96
।@@ 96
कहा@@ 96
रखले 96
शानदार 96
ीं 96
सबके 96
समुदाय 96
जइ@@ 96
थाना 96
बच्चन 96
मुंह 96
कि, 96
लिपि 96
:@@ 96
भईल 96
फ्रांस 96
कहाउत 95
मानत 95
सहयोग 95
त्रिपाठी 95
हईं। 95
परिषद 95
पड़ल 95
चिट्ठी 95
चे 95
परंपरागत 95
तिथि 95
निवास 95
इंचियोन 95
बढ़ती 95
संदर्भ 94
बढ़@@ 94
2018 94
नेहरू 94
राज्यपाल 94
कम@@ 94
छपल 94
जा, 94
धर्म@@ 94
तमाम 94
करी@@ 94
झु@@ 94
प्रवेश 94
गावे 94
परत 94
जौन 94
परा@@ 94
अइसे 94
य, 94
परिभाषा 94
बगल 94
जल@@ 94
स्रोत 94
h@@ 94
पर्यटन 94
B@@ 94
प्रांत 94
in@@ 94
ं। 93
माला 93
देखले 93
चा 93
लोकतंत्र 93
सक@@ 93
पाछे 93
घा@@ 93
ी 93
र। 93
कइ 93
जमीनी 93
मेहनत 93
टो 93
तू@@ 93
माथ 93
करोड़ 93
केन्द्रीय 93
बजट 93
राव 93
हित 93
ित 93
दिहलस। 93
’@@ 93
मनावे 93
जय@@ 93
नेटवर्क 93
कहले, 93
यात्री 93
पठार 93
आई@@ 92
सावन 92
महात्मा 92
धर@@ 92
शु@@ 92
छाती 92
आवेला। 92
27 92
पूछ@@ 92
कमजोर 92
झा 92
उनहन 92
दुबे 92
उनुके 92
कोलकाता 92
स्ट@@ 92
एम@@ 92
परिचय 92
50@@ 92
बाड़ी। 92
‍@@ 92
डाइरेक्टर 92
बिभाजन 92
इंग्लैंड 92
नियरा 92
यो 91
पढ़@@ 91
दी। 91
गरीबी 91
कॉ@@ 91
डीजल 91
पढ़@@ 91
बढ़त 91
बोलत 91
बेहतर 91
जेतना 91
एन@@ 91
डा 91
देवरिया 91
अल्@@ 91
बा? 91
विदेशी 91
शराब 91
बं@@ 91
31 91
पुर, 91
डिग्री 91
मिठाई 91
शेखर 91
प्रतिशत 91
रिंकू 91
जाता। 90
िय@@ 90
शंकर 90
आंध्र 90
आव@@ 90
हफ्ता 90
इंटरनेशनल 90
पटेल 90
अली 90
संगम 90
संस्थान 90
जी। 90
ै@@ 90
जैन 90
बावे 89
रख@@ 89
देश@@ 89
पड़ल। 89
देखा 89
दिह@@ 89
लाश 89
इज्जत 89
ओकनी 89
करल 89
आदत 89
ठ 89
प्रभाव 89
कहनाम 89
थो@@ 89
ू@@ 89
201@@ 89
अर्@@ 89
भइया 89
ढाल 89
फ़@@ 89
जानवर 89
डाक्टर 89
d@@ 89
लस्टमानंद 89
37@@ 89
बरफ 89
कहनी 88
भे@@ 88
समा@@ 88
गे 88
इला 88
संभव 88
गैर 88
यी 88
बता@@ 88
भरत 88
झा@@ 88
मिलेला 88
करण 88
हल 88
बढ़@@ 88
लि 88
बिसेस 88
पैमाना 88
चालू 88
रिकार्ड 88
कां@@ 88
मुगल 88
u@@ 88
संबंधी 88
अभिन 88
2012 87
नोट 87
बना@@ 87
स्ट 87
स-@@ 87
शिकार 87
परम्परा 87
कइलसि। 87
अन्@@ 87
गायकी 87
द, 87
3,@@ 87
दीं 87
छोटका 87
ट्रक 87
फिल्म्स 87
आसाम 87
बढ़ल 87
गायिका 87
टु@@ 87
प्रदूषण 87
कुल्हि 87
हि 87
35@@ 87
नौ 87
पांडे 87
तारा 87
दिशा 86
इलाज 86
चिन्ता 86
समुझ 86
आठवीं 86
धरना 86
चोर 86
राख 86
बराबर 86
भक्ति 86
गोष्ठी 86
जिनका 86
ब्@@ 86
मना 86
शी 86
जाईं 86
प्रदान 86
पत 86
लर 86
ारी 86
लइकन 86
नाव 86
ऊर्जा 86
or@@ 86
जुद्ध 86
वह 86
M@@ 86
ब्यापक 86
बिचा 86
बिबरन 86
"दि 86
विस्तार 85
स्वामी 85
नल 85
विज्ञापन 85
बक्सर 85
वापस 85
ा@@ 85
गी@@ 85
लत 85
बाद, 85
सौ@@ 85
जाड़ा 85
होता 85
नारी 85
ड़ी 85
सर्@@ 85
तूँ 85
तल 85
अ 85
भौतिक 85
लिन 85
रासायनिक 85
१ 85
बढ़ावे 84
सी, 84
सोना 84
जोड़ 84
जरा 84
तमिलनाडु 84
अब@@ 84
ख 84
ड़ी 84
वो@@ 84
लगवले 84
अलगे 84
दूनों 84
प्रति@@ 84
भउजी 84
एम 84
साइ@@ 84
एमें 84
ग्राम 84
पुर@@ 84
रहे@@ 84
प्रोडक्शन 84
पर्@@ 84
कौ@@ 84
महुआ 84
रख 84
लेवे 84
लोकल 84
खेसारी 84
बस्ती 84
at@@ 84
w@@ 84
ब्यवस्था 84
स्वास्थ्य 84
तिब्बत 84
ल" 84
39@@ 84
मिली। 83
रउरो 83
कहलें 83
उपर 83
मजबूर 83
सुनत 83
कबीर 83
कभी 83
जल्दिए 83
ण 83
चला@@ 83
छु@@ 83
सोच@@ 83
हटा 83
हूँ 83
संपर्क 83
ईं 83
वर@@ 83
कइले। 83
इसे 83
फै@@ 83
भीड़ 83
पार@@ 83
केंद्रीय 83
?” 83
वर्मा 83
प्लेट 83
मेल 83
मऊ 83
वेब 83
अनुवाद 82
बेंवत 82
जग@@ 82
खुदे 82
जमात 82
राजद 82
वइसे 82
पढ़े 82
छपे 82
कहलसि 82
भाषी 82
गाड़ी 82
टिकट 82
लगलन। 82
न्यायालय 82
तहार 82
घोष 82
डे 82
क्लब 82
वर्ष 82
विराज 82
ar@@ 82
38 82
34@@ 82
सुबिधा 82
बहाव 82
एरिया 82
T@@ 82
हिट 81
नागरिक 81
सुप्रीम 81
चोरी 81
हउवें 81
मात्र 81
व्यक्ति 81
सन@@ 81
विद्वान 81
ंगा 81
फसल 81
युद्ध 81
ब, 81
भगत 81
कइली। 81
शी@@ 81
लाभ 81
टाइम 81
ऐ@@ 81
जाय, 81
मामला 81
शास्त्र 81
जुग 81
क्रिया 81
पर्व 81
अंदर 81
उपमहादीप 81
प्रयास 80
राजेश 80
ओकरो 80
रोके 80
बोलावल 80
इंडस्ट्री 80
मार@@ 80
अचके 80
कही 80
सोनिया 80
स्वागत 80
बनल। 80
उन@@ 80
क्रिकेट 80
होलें। 80
न्स 80
सजा 80
गिर 80
सेक्स 80
करब 80
भाषा, 80
गौतम 80
–@@ 80
सौर 80
काकी 80
y@@ 80
डु@@ 80
ईसा 80
बनस्पति 80
P@@ 80
2010 80
बीचा 80
अक्षर 79
बतवले 79
फो@@ 79
मालिक 79
ओहिजे 79
जम 79
वावे 79
सवार 79
कर्@@ 79
लोर 79
पन्ना 79
ार@@ 79
नायिका 79
भेंट 79
रल 79
बहादुर 79
करके 79
आर्@@ 79
अक्सर 79
अभिनेत्री 79
वैदिक 79
60@@ 79
ग्लेशियर 79
ा 78
हँ@@ 78
संत 78
गठबन्हन 78
पाई 78
प्रेमी 78
बहाने 78
रंजन 78
नियन 78
लीं, 78
मेडिकल 78
पल@@ 78
शुरूआत 78
लाइ@@ 78
हु 78
ष@@ 78
सरस्वती 78
इंडियन 78
44@@ 78
दीपक 78
दुआर 78
हुए 78
हई। 78
कोड 78
an@@ 78
al@@ 78
बाहरी 78
2,@@ 78
मीनू 78
जाव, 77
कांग्रेसी 77
दम 77
दिहला 77
जिम्मेदारी 77
निर्@@ 77
चली 77
शेयर 77
बुझाइल 77
बदे 77
उठा@@ 77
फ 77
भेज 77
नइखे, 77
’। 77
युग 77
गइ@@ 77
लै@@ 77
झूठ 77
पचास 77
बल@@ 77
शांति 77
हमहूँ 77
सत्य 77
प्रमंडल 77
पं@@ 77
ई-@@ 77
जाँच 77
लहर 77
यु@@ 77
फी@@ 77
रखे 77
बाड़ें। 77
आगरा 77
निचला 77
मॉडल 77
दोसरका 76
तिवारी, 76
रउवा 76
मिनट 76
बहुमत 76
प्रतिनिधि 76
रहीत 76
समाचार 76
कठिन 76
लगलन 76
क्षेत्रीय 76
अभि@@ 76
जदयू 76
जइहें 76
कइली 76
श्रीवास्तव 76
सुर 76
चर@@ 76
मो 76
अड्डा 76
एंड 76
लिखाई 76
संस्थापक 76
श्@@ 76
विवाद 76
हादसा 76
खंड 76
पड़@@ 76
सभ्यता 76
निरहुआ 76
महाभारत 76
लंबा 76
36@@ 76
मौर्य 76
सतह 76
सकते 76
• 76
बोध 75
ण, 75
लाग@@ 75
आर@@ 75
अकेले 75
आदर्श 75
क्ष@@ 75
सहायता 75
सलाह 75
भविष्य 75
मूर्ति 75
मानक 75
!’ 75
पड़ेला। 75
ंग, 75
चारों 75
पड़ी 75
लॉ@@ 75
झरना 75
s 75
जयंती 75
बंस 75
कालेज 75
औरी 75
आई। 74
चुप 74
राति 74
द। 74
रा, 74
वापसी 74
कईगो 74
समुझ@@ 74
निकाले 74
बवाल 74
लय 74
अबही 74
वार्ड 74
रोजगार 74
रहलें, 74
जै@@ 74
कलकत्ता 74
सु 74
नवम्बर 74
एस@@ 74
मेरी 74
2013 74
वेद 74
उच्चारण 74
200@@ 74
सारण 74
हाली 74
k@@ 74
बिकसित 74
कामकाज 74
परिवहन 74
बिबाद 74
कवी 74
L@@ 74
1.@@ 74
D@@ 74
वायुमंडल 74
साइट 73
मौजूदगी 73
मिलला 73
लोहा 73
वाला, 73
टूट 73
स) 73
विधान 73
H@@ 73
सुरक्षित 73
बारी 73
भला 73
जमा 73
दुकान 73
मुम्बई 73
बंगाली 73
धो@@ 73
60 73
होलें 73
अंतरिक्ष 73
n@@ 73
जर्मनी 73
फाइनल 73
परचा 73
निवेश 73
65@@ 73
प्रो@@ 72
बाढ़ 72
फेरा 72
कुकुर 72
एको 72
पड़@@ 72
घो@@ 72
अइसनका 72
एन 72
माया 72
लऽ 72
नौ@@ 72
छो@@ 72
निकल@@ 72
शे@@ 72
सीन 72
मौ@@ 72
धार 72
दिहली। 72
दृष्टि 72
ंड 72
मोका 72
उन्@@ 72
ग्रुप 72
सल 72
बँ@@ 72
लसि। 72
्या 72
दसा 72
्र@@ 72
ौ@@ 72
गुप्त 72
पो 72
पांडेय 72
अनु 72
सड़क 72
( 72
रिसर्च 72
जिला, 72
कुन्ती 72
डिजिटल 72
80@@ 72
पाखी 72
अप्रेल 72
देके 71
ँ 71
लगावत 71
पुछ@@ 71
लव@@ 71
रंग@@ 71
स्व@@ 71
सिद्धांत 71
टल 71
अजीत 71
80 71
पन@@ 71
निबंध 71
जन्म 71
छोड़@@ 71
क्षमता 71
लन, 71
ठा@@ 71
फइलल 71
थे 71
लाठी 71
माल 71
सब्जी 71
खटिया 71
प्रतियोगिता 71
ये@@ 71
नवहियन 71
दैनिक 71
काली 71
इस्लाम 71
b@@ 71
धान 71
दुगो 71
डेटा 71
85@@ 71
स्तूप 71
राष्ट्र@@ 70
स्वीकार 70
केरल 70
नौकरी 70
जमानत 70
मजा 70
मजबूरी 70
लिहलें। 70
रि 70
ंक@@ 70
झंडा 70
पूर्ण 70
अदिमी 70
पट@@ 70
सक्रिय 70
वे। 70
जनरल 70
वैज्ञानिक 70
निश्चित 70
चौधरी 70
ंद@@ 70
तमिल 70
नीलम 70
सिर्फ 70
कस्बा 70
पड़ 70
100 70
धियान 70
नगर, 70
it@@ 70
ग्रे@@ 70
गुजरे 70
॰ 70
ic@@ 70
70@@ 70
अस्थापित 70
84@@ 70
प्रियंका 69
अइला 69
भोर 69
लड़ाई 69
खर@@ 69
कारी 69
गढ़ 69
जवने 69
हें। 69
देखऽ 69
बकरी 69
नु 69
तियन 69
आचार्य 69
दान 69
नि 69
चुनौती 69
बढ़ 69
अन्हार 69
तनिको 69
सुनि 69
वाल 69
करे@@ 69
बातचीत 69
मानसून 69
बम 69
सेन 69
गुप्ता 69
हनुमान 69
घास 69
रिसी 69
उत्तराखंड 69
,000 69
(; 69
उदय 68
वार@@ 68
लिहलसि 68
आशा 68
कैमरा 68
खेले 68
करि 68
कतहीं 68
जर@@ 68
पाकिस्तानी 68
तनिका 68
उठावे 68
टैक्स 68
साँ@@ 68
डॉ 68
चुपचाप 68
सके@@ 68
औ@@ 68
हथियार 68
मुकदमा 68
पेड़ 68
दिक्कत 68
चउथा 68
संवाद 68
विभिन्न 68
नर@@ 68
अँ@@ 68
संकट 68
अंग्रेजी 68
बजार 68
फू@@ 68
नाम@@ 68
प्रभावित 68
दिसम्बर 68
कपूर 68
इन्हन 68
आपसी 68
श्री@@ 68
जाय@@ 68
87@@ 68
लू 68
अवस्था 68
ॅ@@ 68
उनकी 68
E@@ 68
गै@@ 68
निक 68
I@@ 68
45@@ 68
सहायिका 68
88@@ 68
744 68
ती, 67
प्रोग्राम 67
बावे। 67
हिम्मत 67
लड़@@ 67
तवना 67
छूट 67
अनेसा 67
राइल 67
बनावत 67
मौजूदा 67
जेहसे 67
लगले 67
बचपन 67
किहाँ 67
ऊहे 67
भारती 67
बानी, 67
भइ@@ 67
ट) 67
टुकड़ा 67
बान 67
आवास 67
तीनो 67
नोकरी 67
लिह@@ 67
पतई 67
युवा 67
रोमन 67
लइ@@ 67
लड़िका 67
बू 67
हरी 67
आकृति 67
नों 67
पऽ 67
निवासी 67
उपग्रह 67
अटलांटिक 67
इण्डस्ट्री 67
पिंटो 67
मार्@@ 66
पप्पू 66
राजीव 66
लागे। 66
बहस 66
डेग 66
इशारा 66
सबका 66
मंत्रालय 66
मना@@ 66
दन 66
लेला 66
आवल 66
तर्क 66
बाई 66
सहारा 66
जाली 66
कहेला 66
तइयारी 66
प्रे@@ 66
बानीं 66
बइठि 66
दिहल। 66
गिनावल 66
ताकि 66
सहित 66
गोपाल 66
पत्थर 66
ंक 66
स्वतंत्र 66
चाचा 66
पत्रकारिता 66
रोहतास 66
पाल 66
भारत, 66
ग्@@ 66
ों 66
कजरी 66
राखी 66
२ 66
चंपारण 66
90@@ 66
हमारी 66
"। 66
पबित्र 66
,0@@ 66
गवनई 65
एकता 65
अवधेश 65
किंग 65
खैर 65
बनी 65
दुबारा 65
किरिया 65
ता-@@ 65
गइनी 65
बतिया 65
जंगली 65
अबहियों 65
इहां 65
संघे 65
मित्र 65
अचरज 65
जीते 65
म-@@ 65
साधन 65
निक@@ 65
कोना 65
परब 65
सकता 65
बइठक 65
चरण 65
हमन 65
सल@@ 65
शेख 65
ह्@@ 65
उत्@@ 65
कैरियर 65
ी-@@ 65
खुला 65
संबिधान 65
तीसरा 65
माँ 65
जगदीश 65
समाजवादी 65
मेरे 65
चौपाल 65
स्वर 65
क्रांति 65
जापान 65
दोस्त 65
v@@ 65
अचानक 65
बिग 65
2008 65
ज़ 65
ईमेल 65
फेनु 65
लीग 65
47@@ 65
।" 65
औरि 65
अतिथि 64
भक्त 64
वादा 64
सफाई 64
महसूस 64
बत@@ 64
गं@@ 64
गुण 64
दोसरे 64
प, 64
अइसहीं 64
लसि 64
क्स 64
गठन 64
लागी। 64
ऋषि 64
कट@@ 64
होते 64
उठल 64
आँ@@ 64
ारे 64
वाला। 64
का। 64
40 64
ईसाई 64
लोकेशन 64
धी 64
भ्रष्टाचार 64
मैं 64
गिनती 64
सटल 64
दबाव 64
प्रस्तुत 64
कपड़ा 64
कुशीनगर 64
ब्रिटेन 64
सम्राट 64
निर्भर 64
बिलियन 64
उन 64
N@@ 64
अमिताभ 64
थाला 64
अध्यक्षता 63
शिव@@ 63
जिए 63
बुझात 63
बाजी 63
नजरिया 63
केस 63
गायब 63
आप@@ 63
करे, 63
विपक्ष 63
राकेश 63
पीढ़ी 63
ति, 63
साइज 63
अंतरराष्ट्रीय 63
अमर 63
नाहियो 63
बड़@@ 63
सब@@ 63
दर्जन 63
शासक 63
गाय 63
पुरी 63
परदा 63
सां@@ 63
ज्@@ 63
क) 63
तुम 63
फर 63
संस्करण 63
सार@@ 63
सुर@@ 63
नए 63
लोगों 63
लव 63
/ 63
छोटहन 63
सैनिक 63
खरीद 63
नाया 63
बुर 63
अंजन 63
कई@@ 63
गोपालगंज 63
कईल 62
बड़@@ 62
कपार 62
बाज 62
आराम 62
सभके 62
गिरे 62
समुझे 62
सकल 62
बढ़े 62
खोल 62
वेला 62
सऽ 62
चरित्र 62
सँ@@ 62
लंदन 62
ला-@@ 62
मनमोहन 62
़@@ 62
बधाई 62
्या@@ 62
कार्@@ 62
कतने 62
केकर 62
शेर 62
कड़ी 62
थी 62
ओरि 62
धीरे-धीरे 62
साथी 62
नेतृत्व 62
लिहलस। 62
चन्द्र 62
रिपब्लिक 62
नेट 62
दु 62
संरचना 62
रोग 62
कुसुम 62
गए 62
जर्मन 62
कानपुर 62
74@@ 62
स्टेडियम 62
G@@ 62
| 62
,5@@ 62
दीं। 61
कानूनी 61
करेले। 61
सुभाव 61
पाई। 61
टाइ@@ 61
सबूत 61
मोह 61
खेलल 61
सेट 61
सभकर 61
बसपा 61
नमूना 61
छू@@ 61
प्रसारण 61
अजय 61
ऽ, 61
कब्जा 61
कइनी 61
जरिए 61
मंग@@ 61
राख@@ 61
रस@@ 61
प। 61
उतर 61
लौ@@ 61
चहुँप 61
धू@@ 61
सँगे 61
बढ़ल 61
गइल@@ 61
मोट 61
ियों 61
खी 61
ईहो 61
खाता 61
आत्मा 61
रहित 61
उमेश 61
गिरावट 61
बादशाह 61
सूत्र 61
आश्रम 61
संसदीय 61
सहर 61
यानि 61
पेज 61
मीता 61
न्यू 61
89@@ 61
2.@@ 61
किंगडम 61
नेपालके 61
आलोचना 60
वीर 60
स्मृति 60
भोजपुरियन 60
धर 60
टि 60
गत 60
धंधा 60
लल 60
पड़ी 60
गल@@ 60
चर्च 60
चहुँपल 60
जाई, 60
खाइल 60
त्र@@ 60
सउँसे 60
कबो-कबो 60
पीठ 60
टू@@ 60
कामे 60
दिनेश 60
ओम 60
महल 60
ब्र@@ 60
…@@ 60
एक्के 60
होखले 60
मूल्य 60
धो 60
कवनों 60
बदलत 60
करेजा 60
ड़े 60
शहरन 60
होखे@@ 60
2000 60
ऽता 60
उम्मीदवार 60
रिश्ता 60
डिजाइन 60
)@@ 60
जुआ 60
प्रचलन 60
जगहन 60
तैयार 60
स्टे@@ 60
बेस्ट 60
चीजन 60
7) 60
35 60
3) 60
स्पेस 60
ल्स 60
ज्वालामुखी 60
परधानमंत्री 60
अर्थब्यवस्था 60
उत्पत्ती 60
W@@ 60
काव्य 59
छे@@ 59
जागरण 59
गिरोह 59
दुर्@@ 59
मारल 59
सेकूलर 59
तुरते 59
हा। 59
लोगो 59
पूरब 59
खरचा 59
पालन 59
संदेश 59
त्रि@@ 59
70 59
तिया 59
सामूहिक 59
क्र@@ 59
वली 59
ललित 59
सचिव 59
मसाला 59
कदम 59
प्रमाण 59
दूगो 59
जनमल 59
त्योहार 59
वेला। 59
मजदूर 59
भूत 59
लस। 59
विमल 59
क्षेत्र@@ 59
विश्व@@ 59
आन 59
क्लास 59
रहलीं 59
ऊंचाई 59
हीरो 59
उत्पत्ति 59
11@@ 59
2% 59
सिराहा 59
शाही 58
पाण्डेय, 58
एल 58
चर 58
संरक्षण 58
शोध 58
फिकिर 58
अस्तित्व 58
असम 58
महज 58
आगि 58
वंश 58
कहब 58
देव। 58
तीस 58
पुरा@@ 58
बतवलन 58
2009 58
करीहें। 58
सूखा 58
हू 58
पुरुब 58
सत 58
बहरी 58
दिहलस 58
अभिव्यक्ति 58
समृद्ध 58
अर्थ@@ 58
अपन 58
ट्रे@@ 58
हमारे 58
गन 58
तीनों 58
ग्रा@@ 58
2) 58
कबिता 58
लक्ष्य 58
परमाणु 58
रेडियो 58
अंग्रेज 58
बेचे 58
जेमें 58
धारावाहिक 58
यो@@ 58
94@@ 58
यूनिवर्सिटी 58
प्रयाग 58
मिर्जापुर 58
लैंड 58
माउंट 58
मगध 58
on@@ 58
us 58
कइलेन। 58
मधु@@ 57
बिहार, 57
साथे-साथ 57
पीढ़ी 57
रही@@ 57
हरि@@ 57
मुलायम 57
वल। 57
सदन 57
राज्यसभा 57
पहिलही 57
कार, 57
ट्र@@ 57
जोरदार 57
लगले। 57
मॉरीशस 57
घर@@ 57
इच्छा 57
टर@@ 57
चेला 57
शान 57
परेशानी 57
थि@@ 57
मेंट 57
अम@@ 57
जादे 57
बानीं। 57
ऑफिस 57
ऊहो 57
ढा@@ 57
वें 57
जेके 57
जीव@@ 57
उपाध्याय 57
हीरा 57
छोर 57
टै@@ 57
गणना 57
टक्कर 57
बां@@ 57
यूरोपीय 57
फेड़ 57
भूषण 57
मै 57
च्यवन 57
यर 57
46@@ 57
(201@@ 57
|@@ 57
1% 57
, @@ 57
इंतजार 56
इटली 56
बान्ह 56
मजहब 56
हिन्दूवन 56
गइनी। 56
ंगी 56
कोयला 56
दोष 56
पब्लिक 56
लोग@@ 56
उपाध्यक्ष 56
अर्जुन 56
देरी 56
हार@@ 56
जाइल 56
लवटत 56
कल्याण 56
कला@@ 56
संकेत 56
हाथी 56
गोवा 56
देब 56
मेरा 56
“ 56
डेरा 56
फर@@ 56
एच@@ 56
खातिर, 56
मुक्त 56
बा; 56
पश्चिमी 56
एं@@ 56
दूनू 56
बसंत 56
1) 56
दरद 56
विद्यार्थी 56
उल्लेख 56
कृषि 56
यमुना 56
रिया@@ 56
मुजफ्फरपुर 56
2006 56
मनोहर 56
मराठी 56
उद्घाटन 56
रूस 56
झारखण्ड 56
32 56
प्रस्तुतकर्ता 56
सेवाओं 56
बर्ग 56
ट" 56
परभावित 56
चेतना 55
खासियत 55
म। 55
ड़े 55
मरे 55
देखा@@ 55
बूझ@@ 55
चर्चित 55
अंग@@ 55
सत@@ 55
परल 55
बेकार 55
घात 55
ष 55
में) 55
197@@ 55
ट्@@ 55
धरोहर 55
फेसबुक 55
ना-@@ 55
जाना 55
45 55
पहुँचल 55
रू 55
पत@@ 55
समझ@@ 55
राहत 55
राखत 55
उद्@@ 55
लस@@ 55
मर्@@ 55
हरियर 55
गर्@@ 55
झाड़ू 55
दृश्य 55
फ़िल्म 55
वास्तव 55
सुरेश 55
साम@@ 55
नदी, 55
रहलीं। 55
लगनी 55
97@@ 55
पुराण 55
पवित्र 55
es@@ 55
दूसरी 55
पहले 55
सभी 55
कोरिया 55
en@@ 55
बुढ़ऊ 55
ओकरी 55
…. 55
अनुसार, 55
38@@ 55
पापुलर 55
अहिजा 55
क" 55
f@@ 55
बढ़ावा 54
भगवती 54
चंद्र 54
आपने 54
खुल 54
गिर@@ 54
ओडिशा 54
चार@@ 54
रहि@@ 54
देखावत 54
बहत 54
तकनीकी 54
लवटि 54
ठा 54
धी@@ 54
परी 54
सुन्दर 54
रुप@@ 54
भेजे 54
लेला। 54
आस 54
निकालल 54
लिखत 54
गौरव 54
दौरा 54
अहमद 54
जवार 54
भाषा@@ 54
सफर 54
पात 54
अँजोर 54
नतीजा 54
ऽता। 54
मायावती 54
साँस 54
नाता 54
बादे 54
भइले 54
मध्य@@ 54
49@@ 54
ओ। 54
भीरी 54
अन्ना 54
प्रिय 54
बड़ी 54
बचल 54
पढ़ल 54
संधि 54
मैन 54
इस@@ 54
बांग्लादेश 54
सार्वजनिक 54
नाही 54
1947 54
00@@ 54
मादा 54
खासतौर 54
उदयपुर 54
ur@@ 54
यूनानी 54
जेट 54
आईं 53
कता 53
बतिया@@ 53
बरियार 53
नइखी 53
जाहिर 53
हिन्दुवन 53
इस्लामी 53
निय@@ 53
बचा 53
योग 53
चोट 53
देखला 53
आवते 53
मुताबिक 53
मुखर्जी 53
चाह@@ 53
पद@@ 53
परिवर्तन 53
लेव 53
बाँट 53
योगी 53
यादव, 53
चक्र 53
े, 53
निकलत 53
रै@@ 53
चै@@ 53
श, 53
चर्@@ 53
उद्देश्य 53
लाई 53
आतंकवाद 53
संभावना 53
इला@@ 53
भार@@ 53
इस्तीफा 53
बुझा@@ 53
कमरा 53
जोड़@@ 53
ध, 53
आवे@@ 53
जोड़ी 53
सूरज 53
मोटरसाइकिल 53
नियंत्रण 53
वर्ल्ड 53
अथवा 53
e) 53
ol@@ 53
t 53
75@@ 53
दिसा 53
रविकिशन 53
दोबारा 53
छोटा 53
उसे 53
99@@ 53
पिंड 53
बा| 53
डेल्टा 53
कइलेन 53
बकुला 53
कन्@@ 52
हू@@ 52
सुनले 52
ारा 52
राज्य@@ 52
सुशील 52
खेलत 52
चलावत 52
अमित 52
बुझ@@ 52
मुकाबला 52
गोहार 52
सुनल 52
इले 52
वजन 52
थे@@ 52
एहि 52
गर्मी 52
टोला 52
बतंगड़ 52
वकील 52
बरीसन 52
लिखित 52
णी 52
पढ़ाई 52
भाव@@ 52
पढ़ल 52
जरिये 52
तरी 52
खोज@@ 52
राहे 52
कुछु 52
अकबर 52
पोखरा 52
शताब्दी 52
छात्र 52
लड़@@ 52
बतियावत 52
अँगरेजी 52
बैल 52
रद्द 52
जिया 52
बाड़ू 52
स्था@@ 52
गोला 52
छोट-छोट 52
विकसित 52
भावुक 52
परहेज 52
टिक 52
मौसी 52
पक्षी 52
रामायण 52
तत्त्व 52
सालाना 52
ऑस्ट्रेलिया 52
सारनाथ 52
एयरलाइंस 52
48@@ 52
इंजन 52
होती 52
कुकी 52
अबतक 52
° 52
हिमालयी 52
ब्रह्मपुत्र 52
शुक्ल 51
़ 51
नार@@ 51
व। 51
पावत 51
अल 51
जोड़ी 51
दिहली 51
सकल। 51
धन@@ 51
लात 51
लूट 51
दाल 51
कमा@@ 51
डाले 51
आफत 51
करि@@ 51
ठो@@ 51
अना@@ 51
नामी 51
चाय 51
पहि@@ 51
ओहमें 51
बीतल 51
अइसनो 51
टत 51
समर्पित 51
लक्ष्मी 51
दिवाली 51
े-@@ 51
राई 51
खाड़ 51
ट्स 51
बन्@@ 51
भरि 51
तानी 51
कहे@@ 51
प्रताप 51
अस@@ 51
कन@@ 51
माई@@ 51
ङ 51
घू@@ 51
प्रोफेसर 51
सेंटर 51
राष्ट्रभाषा 51
संपन्न 51
सीखे 51
अवतार 51
दवाई 51
इंटर@@ 51
पूछे 51
त्री 51
राय@@ 51
रूपिया 51
हुआ 51
शास्त्री 51
कीमत 51
बीया 51
सूचना 51
गुलाब 51
बलात्कार 51
यहाँ 51
द्र@@ 51
ला; 51
लक्ष्मण 51
200 51
सेंट 51
चेक 51
2005 51
सभ, 51
भी। 51
आपको 51
सीलोचन 51
म" 51
पूर्ब 51
el@@ 51
थलरूप 51
गैलेक्सी 51
डा. 50
‘ 50
झलक 50
दिहनी 50
ब्रे@@ 50
माँ@@ 50
चउ@@ 50
नकल 50
प्रदेश, 50
गल 50
तोरा 50
ट-@@ 50
हूं 50
अनदेखी 50
लिहलें 50
आइल, 50
संग@@ 50
अकेला 50
गुना 50
तार@@ 50
पहिल 50
लाज 50
39 50
धि@@ 50
श्वेता 50
सें@@ 50
उठावल 50
कूल्हि 50
स्वरूप 50
गारी 50
अंगरेज 50
भोला 50
लाल@@ 50
मकान 50
बतियावे 50
चन 50
वर्ण 50
दारी 50
पछिला 50
द्@@ 50
पंजाबी 50
हिंसा 50
भाग@@ 50
वा, 50
न्त 50
दरवाजा 50
आवा@@ 50
संकलन 50
छा 50
की, 50
दुनियाँ 50
रूप@@ 50
स्तंभ 50
्रा@@ 50
ंच 50
मिशन 50
हं 50
संबोधित 50
तकनीक 50
इत्यादि। 50
वाहन 50
लेखिका 50
कहाला। 50
यान 50
न्यूजीलैंड 50
रिपोर्ट 50
पागल 50
लिये 50
2007 50
96@@ 50
बिधा 50
कप 50
ई. 50
विंडो 50
3% 50
95@@ 50
बलियाँ 50
F@@ 50
बेसिन 50
आवे। 49
हिया 49
नागिन 49
हटे 49
नियो 49
अखिल 49
मय 49
शिवसेना 49
य। 49
अध@@ 49
बँटवारा 49
बनवावल 49
पावे। 49
जदि 49
पिय@@ 49
वापिस 49
मुख@@ 49
महाराज 49
झू@@ 49
आसानी 49
बढ@@ 49
क। 49
हउवन 49
अरविन्द 49
प्रेस 49
अनाज 49
जाले, 49
चुन 49
तब@@ 49
नारा 49
उम्मीद 49
पारिवारिक 49
अपराधी 49
मनई 49
खतरनाक 49
पारी 49
मा, 49
लिहले। 49
तुलसीदास 49
तत्कालीन 49
बेवस्था 49
धाम 49
नाइ@@ 49
जाई@@ 49
समझे 49
भितरे 49
टीसन 49
वे, 49
देह@@ 49
छोड़ि 49
मानवीय 49
मल 49
आर्य 49
ढ़@@ 49
रहनी। 49
कार्रवाई 49
खाये 49
इंदिरा 49
वर्णन 49
पार्@@ 49
वर्गीकरण 49
बरसात 49
भोजपुरिका 49
घन 49
प्रतिभा 49
परिभाषित 49
तट 49
लईका 49
ठोस 49
मैदानी 49
फ्रांसीसी 49
श्रीलंका 49
हुगली 49
प्रोजेक्ट 49
ऑनलाइन 49
स्पेन 49
गीतगवनई 49
a") 49
  49
नै@@ 48
शिवजी 48
न्द@@ 48
करम 48
जादा 48
आं@@ 48
लियन 48
जइहें। 48
चालीस 48
गावत 48
सिं@@ 48
उतरल 48
ओहसे 48
सि 48
बाते 48
तक@@ 48
इया 48
सोचल 48
सकी। 48
कारोबार 48
बिजनेस 48
व्य@@ 48
कामना 48
हीन 48
कुछे 48
बार@@ 48
8) 48
धार@@ 48
होख@@ 48
केला 48
अभिषेक 48
लोकगीत 48
विमोचन 48
सिपाही 48
पावल। 48
होई, 48
विश्वनाथ 48
कहाए 48
तार 48
करेले 48
मिला@@ 48
आदर 48
परल। 48
एइजा 48
बढ़त 48
बहरा 48
मील 48
चलऽ 48
मत@@ 48
खेल@@ 48
करो 48
लिहलन। 48
बहाली 48
कृ@@ 48
दाखिल 48
बिल 48
वाह 48
चुने 48
लेट 48
बोला 48
लस, 48
बुझाता 48
मतारी 48
ओं 48
गरमी 48
उन्होंने 48
पूरी 48
प्राण 48
जूता 48
संतान 48
व्यंजन 48
ch@@ 48
1वाँ 48
नस 48
बास 48
इमेल 48
is@@ 48
एल्@@ 48
बिंदु 48
पोजीशन 48
er 48
करेंइसे 48
55@@ 48
बाटे: 48
om@@ 48
बर्गीकरण 48
कोशिका 48
पर्यावरणी 48
उत्साह 47
75 47
होखो। 47
पड़त 47
छोड़@@ 47
मनसा 47
हउवें। 47
सर्वे 47
बरकरार 47
लगली। 47
बदलल 47
आसमान 47
बाग 47
बंगला 47
-ब@@ 47
जिय@@ 47
पिछ@@ 47
पद्म 47
ऊँ@@ 47
किशोर 47
सर्व@@ 47
यू 47
नाराज 47
ेला 47
अभाव 47
हप्ता 47
सोचले 47
मति 47
बच@@ 47
करवा 47
अफ@@ 47
आफ 47
बीत 47
उतर@@ 47
गँवे 47
लवट@@ 47
अन 47
एन्@@ 47
लउकल 47
कव@@ 47
वान 47
मक@@ 47
प्रणाली 47
मीठ 47
मानी 47
कठ@@ 47
सान 47
वाइ@@ 47
व्@@ 47
उठ 47
जिनकर 47
ढो@@ 47
ठे@@ 47
मुकेश 47
प्राइवेट 47
दुलहिन 47
व्यवहार 47
थु@@ 47
कार्य 47
िक 47
ल्ला 47
ियो@@ 47
अइले 47
सितारा 47
जं@@ 47
पर्याप्त 47
करेके 47
?“ 47
ठंढा 47
देखाई 47
मिक 47
le@@ 47
परिसर 47
ईश्वर 47
कईले 47
सोनल 47
196@@ 47
होने 47
मुर्गा 47
ख़ास 47
लाइब्रेरी 47
बिचला 47
बिबिधता 47
तीरे 47
34 47
नीरज 46
न्यू@@ 46
गरदन 46
ईं। 46
सह 46
सुनवाई 46
केजरीवाल 46
संबोधन 46
अउ@@ 46
लउ@@ 46
दामाद 46
ेला। 46
उद@@ 46
पवले 46
वइसहीं 46
सरा@@ 46
जाम 46
आदित्यनाथ 46
छन 46
अंदाज 46
परे 46
रुपया 46
लिखा@@ 46
रही, 46
कैसे 46
पाइ@@ 46
करव@@ 46
दंगा 46
लड़े 46
स्टेट 46
बिधान 46
बिया@@ 46
ण्ड 46
समीक्षा 46
सफेद 46
ड, 46
दरबार 46
देवाल 46
नू@@ 46
गली 46
तनाव 46
गुरू 46
गुंजन 46
199@@ 46
प्रतीक 46
अंदरूनी 46
फ्@@ 46
माफी 46
चाउर 46
धा 46
यि@@ 46
कउनो 46
65 46
क्रि@@ 46
नम 46
त) 46
re@@ 46
बाँके 46
98@@ 46
काला 46
वार्ता 46
निबन्ध 46
ओबामा 46
64 46
2004 46
लोकपाल 46
.6@@ 46
अफ़्रीका 46
दिसाईं 45
वरिष्ठ 45
नाई 45
कर्मचारी 45
डालल 45
चिर@@ 45
पावत। 45
ले-@@ 45
छी@@ 45
अत्याचार 45
चाहे@@ 45
सन, 45
स्पष्ट 45
एहीसे 45
सामना 45
पसन्द 45
भरे 45
माई, 45
उछाह 45
लोकप्रियता 45
बाड़@@ 45
चाहब 45
गँवई 45
न’ 45
क़@@ 45
नव 45
विधेयक 45
दही 45
मुआ 45
गजल 45
बरदाश्त 45
हा, 45
डॉ@@ 45
उठवले 45
दबा 45
रूम 45
जहिया 45
अनेक 45
रचनात्मक 45
राइ@@ 45
कच@@ 45
ंत 45
बनेला। 45
हिमाचल 45
मेट्रो 45
दर्@@ 45
बिसेसता 45
जाइ@@ 45
अंचल 45
कार्ड 45
आकाश 45
प्रसार 45
बाजा 45
सगरो 45
ीय 45
भीड़ 45
पातर 45
काँ@@ 45
पावर 45
लिमिटेड 45
राजन 45
दोस 45
ज़@@ 45
श्वर 45
र) 45
।“ 45
कंट्रोल 45
अम्@@ 45
मंड@@ 45
राशि 45
बिल्डिंग 45
अन्हरिया 45
रस्ता 45
लें@@ 45
1990 45
संचालित 45
इहँवा 45
गणतंत्र 45
देसी 45
लच्छन 45
तेरह 45
॰@@ 45
37 45
एल@@ 45
198@@ 45
लिंक 45
उसके 45
यूरोपियन 45
मैना 45
o 45
बीडियो 45
वेल्स 45
ग, 44
नेह 44
मजगर 44
एह@@ 44
करसु 44
दुखी 44
मी, 44
तस 44
दुश्मन 44
पसरल 44
पत्रकारन 44
सकीलें 44
हालही 44
साहित्य@@ 44
उपाय 44
पेट्रोल 44
मस्जिद 44
बेवहार 44
त्मक 44
हाँ 44
जोड़ल 44
ज्ञा@@ 44
नामे 44
सत्तर 44
ओइसहीं 44
झगड़ा 44
दार@@ 44
बइठे 44
सोचीं 44
विद्यालय 44
ंडा 44
ओहि 44
खे 44
कब्बो 44
इस्कूल 44
आतंकवादी 44
माइ@@ 44
बज@@ 44
लघुकथा 44
सकेला, 44
व्याकरण 44
बिरोध 44
घि@@ 44
नगरी 44
बाधा 44
उस 44
सँउसे 44
मारी 44
रामरक्षा 44
शा 44
त्याग 44
णा 44
जनक 44
नोकसान 44
न्याय 44
कमल 44
तूं 44
एक्@@ 44
नियमित 44
बरामद 44
्य 44
पहाड़ 44
ः 44
एड@@ 44
बचाव 44
रोशनी 44
जलवा 44
बॉ@@ 44
लेवल 44
दार्शनिक 44
प्रान्त 44
्यु@@ 44
गौ@@ 44
उनकरा 44
लईकी 44
चंद्रगुप्त 44
कक्षा 44
भीतरी 44
ब्यापार 44
मरदाना 44
ग्रेट 44
करना 44
ई॰ 44
विश्वविधालय 44
आलावा 44
समुंद्री 44
खेलाड़ी 44
बंदरगाह 44
संगीति 44
आजमगढ़ 43
दोसरो 43
दी, 43
भरोसे 43
कावे 43
इतिहासकार 43
कमाल 43
दशा 43
भाष@@ 43
इलाकन 43
लगली 43
गोबर 43
सन्@@ 43
एकरो 43
होखब 43
एहिजे 43
अरुणाचल 43
बनर्जी 43
चिन्@@ 43
आरक्षण 43
सत्य@@ 43
देब। 43
िन 43
प्रार्थना 43
भठियरपन 43
अद@@ 43
फागुन 43
खो 43
गंभीर 43
ऐतिहासिक 43
बहि@@ 43
खात 43
महारानी 43
चलल। 43
एसे 43
ार, 43
गोड़ 43
िया। 43
चौक 43
लिया@@ 43
हड़@@ 43
स्टाइल 43
शिक्षक 43
बदमाश 43
दायरा 43
आधिकारिक 43
क्रा@@ 43
छुट्टी 43
ार्@@ 43
घेराइल 43
चित्र@@ 43
मनो@@ 43
कागज 43
भाड़ा 43
ठी 43
देने 43
पहली 43
जवानी 43
आंखि 43
सखी 43
ब्रत 43
पकवान 43
th@@ 43
प्रथम 43
रिय@@ 43
कहां 43
ओपनिंग 43
ज़ 43
ईस्ट 43
आदिवासी 43
चेन्नई 43
अधि@@ 43
पुणे 43
फाइ@@ 43
बोलल, 43
(S@@ 43
36 43
स्टूडियो 43
मेघना 43
4,@@ 43
जालीं। 43
ro@@ 43
अंतर्गत 43
9) 43
परसिद्धि 43
नवका 42
विविधता 42
शशि 42
का-@@ 42
हउवे। 42
पड़ेला 42
ओहनी 42
बनला 42
लालच 42
कट 42
बनवा 42
यूपीए 42
जाते 42
भरी 42
मंडली 42
आकर्षण 42
देखनी 42
स्वर्ग 42
कृष्णा 42
अश्लीलता 42
भेंटा 42
हृदय 42
ऋतु 42
आधुनिकता 42
माघ 42
लह@@ 42
हाउस 42
यूनियन 42
नाक 42
टिंग 42
वित्त 42
रहेले 42
लउकेला। 42
पात्र 42
मिसिर 42
लउक@@ 42
मुद्रा 42
बजाय 42
वल, 42
खरीदे 42
करन 42
हो, 42
खिलाड़ी 42
घूमे 42
रचनाकार 42
आपना 42
व्या@@ 42
तिन 42
सा, 42
कामयाबी 42
लक@@ 42
बतकही 42
राजभाषा 42
नवा@@ 42
पड़ल। 42
वर्तनी 42
अन्दर 42
लवट 42
आद@@ 42
होगा 42
बेहतरीन 42
रचल 42
संग 42
अस्सी 42
उन्हें 42
प्रदीप 42
सटीक 42
टी, 42
गू@@ 42
काम@@ 42
निमन 42
यंत्र 42
समुद्र 42
्रे@@ 42
ंग्@@ 42
गेट 42
सिविल 42
2वाँ 42
कलाम 42
दह@@ 42
प्रोड्यूसर 42
महाविद्यालय 42
टेस्ट 42
जॉन 42
il@@ 42
शास्त्रीय 42
वल्ड 42
of 42
1,0@@ 42
नेशंस 42
(P@@ 42
समुंदरी 42
जाला; 42
पुर्नवासी 42
.5@@ 42
us") 42
दूरबीन 42
राजेन्द्र 41
तिसरा 41
मन्दिर 41
सु। 41
निका@@ 41
राग 41
पकड़ 41
हिन्द 41
जियत 41
खोजल 41
करीहें 41
बढ़े 41
जोड़ 41
विकल्प 41
मोर 41
नंद 41
साधना 41
स्टी@@ 41
उत्सव 41
चइत 41
य-@@ 41
शुभ 41
हाय 41
जोड़े 41
टिकल 41
नेताजी 41
काबू 41
सुनते 41
काटे 41
पटकथा 41
गाँ@@ 41
पक@@ 41
ण्ड@@ 41
शहीद 41
एका@@ 41
पहल 41
छू 41
ढ़@@ 41
चाहीं, 41
जंतु 41
झी@@ 41
बि 41
मिलल, 41
नी-@@ 41
2002 41
तह@@ 41
चाहें 41
छ 41
पौ@@ 41
उत्पाद 41
अवधी 41
कृत 41
अमन 41
निशान 41
सकी 41
सार 41
कलम 41
पहुँचे 41
उठि 41
मोहल्ला 41
एक्स@@ 41
वन@@ 41
मण्डल 41
कमान 41
लम्बा 41
हो। 41
संचार 41
जंग@@ 41
कातिक 41
विष्णु 41
ी) 41
आमिर 41
करें। 41
तहसील 41
बल्कि 41
खत्म 41
s) 41
३@@ 41
सोन 41
बल्ली 41
फिल्मकार 41
बुक 41
आइटम 41
प्रसारित 41
अऊर 41
ब्रिज 41
राष्ट्रिय 41
जंक्शन 41
यही 41
प्रसिद्द 41
6.@@ 41
बिदेसी 41
चौड़ाई 41
अमौसा 41
बांग्लादेस 41
z@@ 41
एयरवेज 41
ट्रंप 41
प्रो॰ 40
टू 40
विरासत 40
सीरियल 40
लवटल 40
वे-@@ 40
बेचैन 40
कस 40
भाषा-@@ 40
चहुँप@@ 40
बाड़ें, 40
नेतवन 40
सवा@@ 40
गोटी 40
खुलेआम 40
गजब 40
सोचनी 40
आतंकी 40
मंजूरी 40
मोह@@ 40
रेल@@ 40
दीहें। 40
चलेला 40
हरा@@ 40
माईभासा 40
हजारन 40
नील 40
रउरे 40
सभ@@ 40
र्स 40
उहाँके 40
परिचित 40
साथ, 40
मोती 40
बिपरीत 40
सीबीआई 40
मल@@ 40
हँसी 40
टूटल 40
पान 40
बेतिया 40
भोजपुरी, 40
स्पेशल 40
चाही 40
उपाधि 40
बाउर 40
चारू 40
उपजल 40
अश्लील 40
दुपहरिया 40
उतरे 40
देखी 40
सरकारन 40
फाँसी 40
स्पे@@ 40
पत्ता 40
लिस 40
एकल 40
अति 40
इब 40
प्रचारक 40
कड़@@ 40
इंतजाम 40
कवि@@ 40
पढ़ 40
फ़@@ 40
त्य 40
मास 40
अला@@ 40
लल@@ 40
लम@@ 40
छोटकी 40
!” 40
महोत्सव 40
लता 40
पारंपरिक 40
बाड़@@ 40
रहल@@ 40
तस्वीर 40
जिंदा 40
अनंत 40
तीज 40
करता 40
चंद्र@@ 40
कैथी 40
दरभंगा 40
अईसन 40
33 40
सर्विस 40
शशिकांत 40
500 40
रोम 40
डिवाइस 40
तिथी 40
(C@@ 40
आंखिन 40
जायेला। 40
3.@@ 40
77@@ 40
)" 40
करीबन 40
आऊर 40
पुरब 40
राय, 39
जुडल 39
आव 39
मिलन 39
तकले 39
सुना@@ 39
साइकिल 39
पूत 39
पीट 39
पचीस 39
छवि 39
रुक 39
अल्पसंख्यक 39
मिले। 39
गिनिती 39
शान्ति 39
कठोर 39
खूबे 39
वती 39
नजदीक 39
री। 39
तबसे 39
छप@@ 39
पथ 39
गुज@@ 39
आ, 39
अन्तर्राष्ट्रीय 39
कर्म 39
करब। 39
गद्दी 39
ए। 39
स्वाभाविक 39
भोज 39
माल@@ 39
ढ़ 39
कार्य@@ 39
महासचिव 39
चम@@ 39
उहां 39
डॉक्टर 39
लाय@@ 39
उत्तर@@ 39
सीमित 39
जमुना 39
मारत 39
जेठ 39
टीका 39
खी@@ 39
ब्य@@ 39
कृति 39
मुलाकात 39
श्र@@ 39
लं@@ 39
दिया@@ 39
गये 39
राजनैतिक 39
चूंकि 39
फेंक 39
साध 39
निंग 39
निया@@ 39
रोमांटिक 39
अप 39
मछरी 39
उतार 39
संवत 39
गवर्नर 39
समर्थक 39
आय@@ 39
सिंधु 39
आदि@@ 39
आटा 39
बरम 39
ढ 39
एइसन 39
वाक्य 39
गणित 39
बर्णन 39
मांग@@ 39
गहिरा 39
दूसरे 39
1950 39
मालिनी 39
मोहम्मद 39
h 39
y 39
100@@ 39
डू@@ 39
नक्शा 39
चम्पा 39
हैदराबाद 39
देहाती 39
फुटबाल 39
मेन 39
लेकर 39
खनिज 39
छत्तीसगढ़ 39
अनुमंडल 39
।	. 39
बर्णित 39
194@@ 39
राज्यक्षेत्र 39
K@@ 39
प्रयोगकर्ता 39
3वाँ 39
जम@@ 38
समापन 38
२@@ 38
संस्कृति, 38
चोपड़ा 38
इस्@@ 38
धुन 38
कामयाब 38
कमे 38
ठीके 38
निशाना 38
जाने@@ 38
उतरि 38
बिला 38
साठ 38
दादा 38
स्थ@@ 38
जतावत 38
डूब 38
विनोद 38
घाम 38
कुमार, 38
धन्यवाद 38
अंगुरी 38
वइसन 38
प्रेम@@ 38
पुत्र 38
निकलि 38
लेख@@ 38
वाई 38
रवि@@ 38
लगाव 38
क्ट@@ 38
गड़@@ 38
धरा 38
च्@@ 38
बोला@@ 38
जन, 38
दुल@@ 38
महेन्द्र 38
समाज, 38
अधिकारियन 38
तेरे 38
ब्रा@@ 38
सद@@ 38
मशीन 38
ईमानदारी 38
रहीं, 38
साइत 38
खइ@@ 38
अस्मिता 38
तरक्की 38
बनव@@ 38
बरत 38
करवले 38
कहाला 38
कोर@@ 38
लिहलन 38
लका 38
उल्टा 38
जना 38
पत्@@ 38
छेद 38
भेद 38
गूगल 38
मथुरा 38
तृणमूल 38
खलील 38
”। 38
कड़@@ 38
निगम 38
झो@@ 38
तहरे 38
परोसल 38
मि 38
गई 38
म) 38
सता@@ 38
लग 38
वाद, 38
किरण 38
नवा 38
उत@@ 38
हां 38
गई@@ 38
कोर 38
शहर@@ 38
निदेशक 38
अनुसंधान 38
छेना 38
उपनिवेश 38
अफ्रीका 38
तंत्र 38
महराज 38
सक्षम 38
ंद 38
सुग्गा 38
अनुपात 38
68@@ 38
पईसा 38
पाहिले 38
कंप@@ 38
रैली 38
ra@@ 38
67@@ 38
बाने, 38
खुलता 38
रेगिस्तान 38
ईसवी 38
59@@ 38
195@@ 38
ड" 38
चलनसार 38
भूमध्य 38
गोलार्ध 38
द्विवेदी, 37
उजागर 37
चिह्न 37
मिश्र, 37
सवाद 37
लिहली। 37
कार्यकर्ता 37
उठावत 37
जवा@@ 37
या, 37
मरले 37
खारिज 37
हल@@ 37
नागपुर 37
बाघ 37
उप 37
रंगमंच 37
हे। 37
अइसना 37
सकारात्मक 37
बचा@@ 37
पिया 37
सिया 37
लगलें। 37
संग्राम 37
बहा@@ 37
जरुर 37
गाँवे 37
उपचुनाव 37
रे, 37
टोपी 37
रियल 37
ारा@@ 37
न्द 37
वगैरह। 37
अंश 37
बुझाला 37
।’ 37
ान 37
पाप 37
रहेला, 37
जमा@@ 37
भाषाई 37
ॉ@@ 37
उड़@@ 37
अबहिन 37
का? 37
धे 37
जहर 37
ब्राह्मण 37
भूटान 37
सिस 37
90 37
धइ@@ 37
धनी 37
निर्देशित 37
टर्@@ 37
हिंद 37
क्षेत्र, 37
ओइसे 37
दाखिला 37
एतने 37
पहिलके 37
लड़े 37
भंडार 37
बताईं 37
डाय@@ 37
खाति 37
पक्का 37
बात। 37
भारत@@ 37
बर्फ 37
हं@@ 37
जबरदस्त 37
किलो 37
पोस्टर 37
इंटर 37
छोटे 37
एकलौता 37
किये 37
पूनम 37
सास 37
पर्यटक 37
ac@@ 37
मिथिला 37
मैनेजमेंट 37
यदि 37
मुर@@ 37
किराया 37
अब्दुल 37
भरती 37
कुटिया 37
नजदीकी 37
टूर्नामेंट 37
ंडे@@ 37
मोनालिसा 37
सोनाली 37
बेहवार 37
गंडक 37
कैलिफोर्निया 37
5) 37
नीकजबून 37
os@@ 37
जीवधारी 37
जनगणना, 37
एक्वाडक्ट 37
जहवाँ 36
ह-@@ 36
जनम@@ 36
चैन 36
टरी 36
जाँ@@ 36
पूछ 36
दूबे 36
हत 36
चारा 36
अतीत 36
किसानन 36
निर्देश 36
बनवावे 36
लम्@@ 36
सवा 36
मिले@@ 36
गिरी 36
कड़ी 36
खर 36
अठवीं 36
पाव@@ 36
बचवन 36
गार@@ 36
संजोग 36
सुपरस्टार 36
कुल@@ 36
गदहा 36
गिरल 36
बाँटे 36
जीतल 36
रिजर्व 36
बतौर 36
० 36
यूनेस्को 36
तरा 36
चली। 36
गृह 36
सचाई 36
किताबन 36
सूत 36
कइल, 36
पहिले, 36
पाथर 36
रुख 36
कर्म@@ 36
कब@@ 36
वलसि 36
ड़ा, 36
खींच 36
डाइ@@ 36
सेंसर 36
व्यक्तित्व 36
गते 36
गाल 36
ंप@@ 36
मंतर 36
बाड़ऽ 36
हउ@@ 36
रु 36
स्वा@@ 36
कोविंद 36
पढ़त 36
नॉ@@ 36
धारी 36
रोजे 36
वों 36
माँस 36
बदला 36
नींद 36
ईल 36
स्त@@ 36
अरविंद 36
लिखा 36
दऽ 36
त्तर 36
चढ़ 36
प्लस 36
केवल 36
त्र 36
शक 36
मिश्रा, 36
ध्वनि 36
अनुमति 36
जेमे 36
अंजना 36
वं@@ 36
चित्रकूट 36
0) 36
देहि 36
डर@@ 36
नगर@@ 36
इरादा 36
पेंटिंग 36
बइठले 36
उदास 36
लकड़ी 36
शपथ 36
ड़ल 36
आस्ट्रेलिया 36
आजकाल 36
प्राथमिक 36
शर्@@ 36
अधीन 36
कूल 36
पेरिस 36
हौ। 36
गढ 36
निशांत 36
दुर 36
बाड़ 36
कोतवाली 36
नापल 36
पटियाला 36
नईखे 36
डॉ॰ 36
अहमदाबाद 36
सर्वेक्षण 36
जांच 36
लों 36
हुसैन 36
सॉफ्टवेयर 36
बालेश्वर 36
कों 36
जाती 36
इसी 36
पुराने 36
देशांतर 36
बैस्विक 36
सिंगल 36
बिभाजित 36
बिलय 36
"ए@@ 36
विमानन 36
हें, 35
ख़@@ 35
मानसिक 35
दीहें 35
सिख@@ 35
इहें 35
खोजत 35
सकीं 35
कृपा 35
इण्डिया 35
एकाध 35
संघ@@ 35
मंजूर 35
सोचि 35
णा@@ 35
कम्@@ 35
मंत्रियन 35
ग्रहण 35
सुभाष 35
जोश 35
बजावे 35
अनिल 35
अधिवेशन 35
पंच@@ 35
बान्हल 35
पहुँच@@ 35
अभय 35
उर्जा 35
जिया@@ 35
दै@@ 35
मॉ@@ 35
क्रे@@ 35
बढ़ा@@ 35
हकीकत 35
तोहरे 35
नाचे 35
गुलाम 35
दरसन 35
बदल@@ 35
सम्पन्न 35
वनी 35
हटावे 35
चट@@ 35
है, 35
प्रदर्शित 35
सभ्य 35
परी। 35
नक@@ 35
धइले 35
रिजल्ट 35
कार्टून 35
धारण 35
गुन 35
मज@@ 35
इहवाँ 35
आत्म@@ 35
बूढ़ 35
प्रगतिशील 35
चावल 35
फ्री 35
जिन 35
विजेता 35
भुगतान 35
सदस्यता 35
अम्मा 35
कू 35
गाय@@ 35
जिन्दा 35
तरा@@ 35
ियाई 35
काई 35
गायन 35
पॉ@@ 35
आपा 35
पासवर्ड 35
दया 35
इमारत 35
वास्तविक 35
4) 35
आदित्य 35
चिन्हित 35
लिन। 35
सवारी 35
कैमूर 35
चाह 35
और@@ 35
”, 35
नहान 35
150 35
राजू 35
कनाडा 35
मिस 35
185@@ 35
शारीरिक 35
2003 35
जुड़ाव 35
58@@ 35
कार्यकारी 35
बैठक 35
भागलपुर 35
भइलें। 35
बनलें। 35
गोत 35
बंगलादेश 35
औरंगाबाद 35
स्वर्ण 35
प्रीमियर 35
189@@ 35
लैटिन 35
क्लब, 35
ऐसी 35
ट्वीट्स 35
इसके 35
ऍ@@ 35
जयपुर 35
बा. 35
प्रायदीप 35
O@@ 35
बिष्णु 35
187@@ 35
हर्@@ 34
सदस्यन 34
रसगुल्ला 34
लट@@ 34
देसु। 34
तबहियों 34
उठत 34
सला 34
जीत@@ 34
भग@@ 34
बेचारा 34
ए-@@ 34
ष्ट 34
ब-@@ 34
दोषी 34
करी, 34
सबकुछ 34
2019 34
माफ 34
बूझे 34
शोर 34
वल@@ 34
करेवाला 34
यादगार 34
लउकल। 34
मेरठ 34
बऽ 34
हट@@ 34
कले 34
अनुसूचित 34
शर्मा, 34
बदनाम 34
हऽ, 34
जीवन-@@ 34
त्य@@ 34
बरा@@ 34
वाद@@ 34
शुभकामना 34
चौबे 34
रहीत। 34
ौ 34
ंद्र 34
भोपाल 34
घट@@ 34
रान 34
रहते 34
धमकी 34
लुका 34
पथ@@ 34
सको। 34
जत 34
विधा 34
मुझे 34
बि। 34
ताजा 34
तारे 34
तिलक 34
कपड़ा 34
कइके 34
सरदार 34
बाबू@@ 34
छोड़े 34
जंग 34
कोट 34
आए 34
इल। 34
दिहनी। 34
साथ-साथ 34
अइलन 34
स्त्री 34
भोजपुरी@@ 34
1991 34
शुद्ध 34
जिकिर 34
अवरू 34
भै@@ 34
दीया 34
खा, 34
गान 34
विद्या 34
गाँव@@ 34
मद@@ 34
३ 34
बाद@@ 34
वृ@@ 34
उचित 34
दुर्घटना 34
ग्रामीण 34
था। 34
(200@@ 34
गणेश 34
राणा 34
मुक्ति 34
अक्सरहा 34
तलाश 34
रैंक 34
सुख@@ 34
पाट 34
पौराणिक 34
पिया@@ 34
युवक 34
स्क्रीन 34
भोरे 34
अंडा 34
बड़ी 34
रौ@@ 34
y) 34
आगमन 34
देशी 34
गठबंधन 34
1998 34
अखबारन 34
ंडी 34
ब्रांड 34
नपुर 34
अरबी 34
कुटी 34
बाबुजी 34
ंडर 34
विन 34
जीतन 34
जयललिता 34
अर्थशास्त्र 34
अधिसूचना 34
परियोजना 34
आरएसएस 34
फीट 34
नामांकन 34
6,@@ 34
पूर्वोत्तर 34
डीह 34
डा। 34
°@@ 34
ियम 34
एशिया, 34
"(@@ 34
V@@ 34
नाडु 34
st@@ 34
(अंग्रेजी:) 34
गौरइया 34
पछिली 34
कमलेश 33
रचना@@ 33
बटो@@ 33
कन्हैया 33
डियन 33
हँसत 33
गुरु@@ 33
अइलें 33
संयोजक 33
तरह-तरह 33
भागे 33
ें 33
बाकायदा 33
कूद 33
माथा 33
मन्@@ 33
रामलीला 33
पह@@ 33
ज्योतिष 33
नाराजगी 33
इन्तजार 33
महत्त्व 33
टेड 33
स्वाभिमान 33
चढ़ 33
हॉ@@ 33
घाव 33
चुनावी 33
हमहीं 33
लटकल 33
सकेले 33
ट्ट@@ 33
42 33
ते-@@ 33
यों 33
अंतर@@ 33
पीर 33
जज 33
नीं 33
हरि 33
जरत 33
ंगा@@ 33
विष@@ 33
अरुण 33
होखी, 33
उठे 33
घूस 33
ग-@@ 33
ीओ 33
न्यायाधीश 33
जुड़ 33
गर्व 33
सिक्का 33
गोस्वामी 33
प्पा 33
कस@@ 33
ऊहाँ 33
पहलू 33
स्त 33
छप 33
डांस 33
ड़ा@@ 33
कत@@ 33
जाइब 33
कहवाँ 33
बनेला 33
पेड़ 33
बुद्धि 33
सूतल 33
पंथ 33
न्द्र 33
घीव 33
दम@@ 33
यता 33
नाप 33
सच्चाई 33
मामूली 33
थोरे 33
पड़त 33
लो। 33
हमें 33
गैर-@@ 33
बा।@@ 33
क्रो@@ 33
उड़ीसा 33
बुझा 33
खन्ना 33
वास 33
उप-@@ 33
छापे 33
खींचे 33
मां@@ 33
नैतिक 33
खुले 33
हल्@@ 33
चार्ज 33
वानी 33
धे@@ 33
अमीर 33
ियर 33
धूमधाम 33
दक्षिणी 33
देबू 33
चारि 33
बिस्@@ 33
ंगे 33
कें@@ 33
हरदम 33
हंस 33
ad@@ 33
ऑफ़ 33
वैश्विक 33
क्स@@ 33
फ्रेंच 33
डॅा० 33
सिख 33
अवध 33
लिक 33
मानवता 33
अर्थव्यवस्था 33
पड़े 33
ियाँ 33
साइंस 33
भागवत 33
रों 33
नीन 33
जलाशय 33
अच्छर 33
नीला 33
अलावा, 33
गणराज्य 33
शासित 33
अधिग्रहण 33
कंपनियन 33
कम्युनिस्ट 33
प्रखंड 33
49 33
औपचारिक 33
चाइना 33
म् 33
रंजू 33
टाइम्स 33
ऐसा 33
शाब्दिक 33
गोरखा 33
जीडीपी 33
फैलल 33
us@@ 33
बाडर 33
जाला: 33
6वाँ 33
समुन्द्र 33
कौशल 32
किए 32
जानकार 32
करऽ 32
कमाए 32
बिग@@ 32
बचे 32
कुछेक 32
लिहली 32
ण्@@ 32
तु 32
मेहरारु 32
बेकत 32
इन्तजाम 32
सकत। 32
जात। 32
तोर 32
ग्री@@ 32
होखसु 32
भूमि@@ 32
रहीहें। 32
लोक-@@ 32
लिहला 32
शर्त 32
एकजुट 32
मरला 32
हाजिर 32
डूबल 32
रा-@@ 32
बरि@@ 32
बुद्धिजीवी 32
78@@ 32
विवेक 32
स्थायी 32
शरण 32
त्व 32
सरकार। 32
फिल्मों 32
फिल्मी 32
सिर@@ 32
ीं। 32
ति-@@ 32
उपा@@ 32
ता’ 32
अउरियो 32
साइन 32
जनमदिन 32
बें@@ 32
संघतिया 32
सिंगापुर 32
रहीहें 32
सिंह@@ 32
तान 32
जयप्रकाश 32
ष्ट@@ 32
अनजान 32
वारी 32
चढ़@@ 32
ङ@@ 32
186@@ 32
बढ़ावे 32
त् 32
बूझल 32
स्तरीय 32
कपिल 32
डन 32
रोव@@ 32
बनावट 32
आन्हर 32
सकेले। 32
आमदनी 32
करसु। 32
लिय@@ 32
संप्रदाय 32
विद्यार्थियन 32
खू@@ 32
प्रश्न 32
समृद्धि 32
समानता 32
गुजराती 32
गहिराई 32
भतीजा 32
पीयर 32
बूझ 32
पार्वती 32
जना@@ 32
चित्रण 32
ऋ@@ 32
जोशी 32
ढु@@ 32
धराइल 32
वही 32
मुहम्मद 32
फर्जी 32
गिरि 32
धइल 32
टॉ@@ 32
कार्यकाल 32
प्रसंग 32
ओइसने 32
(199@@ 32
(196@@ 32
कांत 32
मउ@@ 32
जमल 32
चीझु 32
राव@@ 32
समाधान 32
पुरनिया 32
फा 32
बार्@@ 32
एसी 32
ट। 32
छोटी 32
विजय@@ 32
am@@ 32
ut@@ 32
ph@@ 32
शारदा 32
मला@@ 32
घट 32
1000 32
काल@@ 32
तों 32
पर्वत 32
अली@@ 32
62 32
जुड़े 32
नेपाल, 32
गोत्र 32
मालुम 32
रविरंजन 32
देसाई 32
m 32
तीर्थ 32
फिजी 32
आपकी 32
हॉलीवुड 32
वातावरण 32
188@@ 32
एप्लिकेशन 32
चौथा 32
अधिकतम 32
गइल. 32
.0@@ 32
"अ@@ 32
बिग्यानी 32
179@@ 32
x@@ 32
अधिबरिस 32
होला; 32
ऑफिशियल 32
शैव 32
ed 32
ओजोन 32
गांवपालिका, 32
सहजोग 31
शन, 31
अत@@ 31
दिआवे 31
प्री@@ 31
जनार्दन 31
सुना 31
भेदभाव 31
निए 31
नाग@@ 31
भलहीं 31
वइसने 31
सबेर 31
रंगश्री 31
पूछल 31
थू@@ 31
दलितन 31
दूरदर्शन 31
जवाहरलाल 31
हउवन। 31
ठि@@ 31
बखरा 31
दहेज 31
लागल, 31
आस्था 31
भइली 31
भुलाइल 31
वलें 31
निरा@@ 31
लगव@@ 31
चना 31
वना 31
घेरा 31
कइलीं। 31
पत्रिकन 31
सिद्ध 31
गँ@@ 31
मलेशिया 31
नये 31
गद@@ 31
आग@@ 31
जाला@@ 31
मोर्चा 31
भईया 31
ः@@ 31
उँ@@ 31
नालंदा 31
ध्रुव 31
सूरत 31
बक 31
पट 31
केने 31
निकहा 31
रणनीति 31
ढेला 31
कतनो 31
काट@@ 31
उमर 31
मोड़ 31
कर, 31
आँखिन 31
शतरंज 31
पव@@ 31
ं? 31
नइ@@ 31
बलिदान 31
ज-@@ 31
फैशन 31
किर@@ 31
सम्हार 31
प्रकाशक 31
काल्ह 31
डल@@ 31
कहलन। 31
पोंछ 31
चाई 31
फॉ@@ 31
गुलशन 31
सिरिफ 31
अने@@ 31
बत 31
बह 31
तीं 31
विभाजन 31
पड़ोसी 31
प्रेरणा 31
आज@@ 31
रच@@ 31
उन्हन 31
‘का 31
भई@@ 31
पतोह 31
तारी 31
राजा@@ 31
कली 31
बानी@@ 31
रियो 31
ज) 31
हवे@@ 31
ती। 31
विहार 31
देंहि 31
लाइट 31
जाए@@ 31
गरी 31
पटरी 31
ब्लू 31
लेखक, 31
समा 31
रूचि 31
गाथा 31
पतन 31
ठंडा 31
बँटल 31
राजनेता 31
पहुंच 31
ईया 31
झ 31
वेले 31
गीत@@ 31
आयरलैंड 31
निर्धारित 31
१@@ 31
किनार 31
बंदी 31
थल@@ 31
हमसे 31
फन 31
रबिन्द्र 31
सेकेंड 31
जोन 31
चक्रवात 31
इसरो 31
ट्यू@@ 31
ul@@ 31
किसुन 31
सावंत 31
वाइड 31
धातु 31
सुनयना 31
नदिन 31
लें; 31
अवस्थित 31
लें: 31
(N@@ 31
ig@@ 31
86.@@ 31
ec@@ 31
 की 31
.7@@ 31
नेवता 30
ओमप्रकाश 30
साहित्य, 30
दोकान 30
चैनलन 30
ज। 30
कायदा 30
दिल्ली, 30
संपति 30
समुझावे 30
नशा 30
सिखा@@ 30
प्रवक्ता 30
अन्याय 30
जासु 30
कुमार@@ 30
करजा 30
वी, 30
हमहूं 30
काल्पनिक 30
गंध 30
सार्थक 30
नौटंकी 30
हुं 30
सभे। 30
आखिरकार 30
सानी 30
अकेल 30
देहात 30
हलचल 30
फार@@ 30
खेतिहर 30
मुख 30
अनुभूति 30
साजिश 30
िका 30
गड़@@ 30
पकावल 30
हमनियो 30
लम 30
आभार 30
राजस्थानी 30
बनवला 30
चह@@ 30
तारीफ 30
ने। 30
गाइ@@ 30
तन@@ 30
थोड़ 30
तै@@ 30
करावत 30
आवाजाही 30
जिक्र 30
विवेकी 30
विशेषता 30
संवेदना 30
ज्या@@ 30
बढ़ा 30
अफसर 30
होइ@@ 30
सरजू 30
परि 30
ओसे 30
मचल 30
देले। 30
ँव 30
कहेला। 30
मनी 30
फी 30
मजूरी 30
पाली 30
खण्ड 30
देस@@ 30
सहयोगी 30
घा 30
भरम 30
खोले 30
बूढ़ 30
गिनी 30
हों 30
कारो 30
खन 30
ईं@@ 30
जाईं। 30
महेंद्र 30
कहलस 30
इमेज 30
मतदान 30
भईल। 30
फर्@@ 30
नात 30
बनाव@@ 30
चुनावन 30
उपदेश 30
बृजेश 30
टस 30
खानी 30
माओवादियन 30
ताज 30
श्याम 30
ईद 30
विक्रांत 30
वेवाला 30
महेश 30
रामा 30
अधिकार@@ 30
लागि 30
बताव@@ 30
हारी 30
पीड़ा 30
कोण 30
जिलन 30
बंधन 30
क्शन 30
दवा 30
बने@@ 30
भि 30
सोर 30
मान्‍यता 30
ख, 30
ड्राइवर 30
चिकित्सा 30
टा, 30
देलस। 30
माँझी 30
फंड 30
क्यू@@ 30
चढ़ल 30
फेंड़ 30
सूर्य@@ 30
ड्@@ 30
कैबिनेट 30
मंत्रिमंडल 30
स्टो@@ 30
टिव 30
J@@ 30
रं@@ 30
पड़ेला। 30
et@@ 30
देवनागरी 30
६@@ 30
तुर्की 30
1975 30
सस्ता 30
चहुँपे 30
लकड़ी 30
लांच 30
एफ@@ 30
चाकर 30
दुसरी 30
एल्बम 30
स्थाई 30
ग्र@@ 30
180@@ 30
मांझी 30
ल्ट 30
ब्या@@ 30
डालर 30
op@@ 30
कांस्य 30
सप्ताह 30
9वाँ 30
निकाय 30
दामोदर 30
सिने 30
on 30
होगी 30
लावारिस 30
कबी 30
फिल्मफेयर 30
ग्लोब 30
उष्णकटिबंधीय 30
ड) 30
(या 30
र" 30
8% 30
81.@@ 30
(A@@ 30
नगरपालिका, 30
दखल 29
रहेले। 29
कर्ता 29
ढेरे 29
डाँ@@ 29
छूटल 29
पोसुआ 29
तें 29
बूझत 29
एका 29
बजावल 29
मान, 29
हटावल 29
मंत्र 29
बाँस 29
बीमारी 29
जड़ 29
चहुँपावे 29
िके 29
गतिविधि 29
तकलीफ 29
नत 29
शर@@ 29
्य, 29
प्रणव 29
बखान 29
लंग@@ 29
गहराई 29
सतीश 29
ओझा 29
चं@@ 29
झुंड 29
भेज@@ 29
घुस 29
माँगे 29
पंच 29
भाई, 29
त्या@@ 29
कहलीं 29
67 29
रहो। 29
उल्@@ 29
मंदिरन 29
दौ@@ 29
बेल 29
बच 29
आर। 29
विक्रम 29
चित 29
अदमी 29
करत। 29
केट 29
राजपूत 29
‘भोजपुरी 29
उम@@ 29
ओसहीं 29
आन@@ 29
बाग@@ 29
यत 29
अंग्रेजन 29
कारे 29
भोजपुरिहा 29
मूल्यांकन 29
रामा@@ 29
एगारह 29
इतना 29
खाते 29
बरी 29
सहमत 29
सकीं। 29
जिम्मा 29
तरकारी 29
कथाकार 29
ढ़ 29
छाप 29
नइखे@@ 29
बरोबर 29
गाव@@ 29
महावीर 29
आस@@ 29
स्तान 29
खिला@@ 29
भाषिक 29
स्ता@@ 29
त्रिपुरा 29
घ 29
वोटिंग 29
श्रेष्ठ 29
गण 29
कूट 29
सी। 29
ोज@@ 29
अंग्रे@@ 29
ुआ 29
यश 29
जर्@@ 29
जाव@@ 29
सुजीत 29
खीस 29
जानी 29
शायदे 29
तबहियो 29
५@@ 29
शहर, 29
जिम्मेदार 29
सुघर 29
बनावटी 29
भूख 29
(198@@ 29
शास्त्र@@ 29
हंगामा 29
सुनव@@ 29
कान्@@ 29
मुन्ना 29
सर, 29
धमाल 29
काजल 29
हॉल 29
भुला@@ 29
ऐ 29
श्रम 29
जरूरे 29
कठिनाई 29
गुफा 29
के) 29
पद्मश्री 29
ट्रा@@ 29
निर्मित 29
पूंजी 29
बनके 29
आक्रमण 29
193@@ 29
बिद्रोह 29
400 29
बृ@@ 29
ईंधन 29
समाप्त 29
बहा 29
फइल 29
बेल@@ 29
गंतव्य 29
लिखला 29
तूफान 29
गहना 29
संपत्ति 29
इसकूल 29
होलिका 29
मकर 29
नं@@ 29
द्वीप 29
एजेंसी 29
परगना 29
मिलके 29
चेयरमैन 29
भदोही 29
टार 29
तेलंगाना 29
तिब्बती 29
हुई 29
६ 29
शुरूआती 29
ऑर्@@ 29
कहंवा 29
l 29
गोबरधन 29
सती 29
फ़ 29
नियुक्त 29
लॉग 29
महजिद 29
बिज्ञान, 29
6% 29
हवे; 29
स्टेट्स 29
177@@ 29
पैटर्न 29
ri@@ 29
बिस्लेषण 29
परकार 29
6) 29
मोटो 29
हाथ@@ 28
भलही 28
शत्रुघ्न 28
पूजन 28
बढिया 28
प्रया@@ 28
कवि, 28
पूछत 28
मजाक 28
बिल@@ 28
दाना 28
मुसलमानन 28
घड़ी 28
सुषमा 28
िए 28
भागल 28
बाचल 28
जियतार 28
कवियन 28
पिए 28
सीता 28
बाइ@@ 28
लुक 28
रत्न 28
न्न 28
सी) 28
वलन 28
मौलिक 28
कुछऊ 28
कान्ह 28
उहाँका 28
साफ-साफ 28
मधु 28
दुबई 28
भाई@@ 28
लन@@ 28
लिहनी 28
शं@@ 28
5वाँ 28
एहु 28
समुझल 28
नानी 28
रा। 28
व्यापक 28
पार्ट@@ 28
बतवली 28
पीड़ा 28
यर@@ 28
जमशेदपुर 28
ंज 28
मारि 28
ड़ा@@ 28
गीत, 28
कालीन 28
जेम्स 28
आइ 28
पक्ष@@ 28
सँग 28
गढ़@@ 28
फूलन 28
ते। 28
हरे 28
इब। 28
कचरा 28
समे@@ 28
राधा@@ 28
आठवाँ 28
भं@@ 28
झि@@ 28
लार्ड 28
अपनावल 28
ंटा 28
चोरा 28
गुमान 28
प्ले@@ 28
पालि@@ 28
छिपल 28
दानी 28
बाज@@ 28
हथ@@ 28
होई@@ 28
तिहाई 28
भंग 28
अटल 28
भागीदारी 28
सातवाँ 28
उठल। 28
कच्चा 28
काज 28
लख@@ 28
पइ@@ 28
सत्@@ 28
बाड़ी, 28
उपराष्ट्रपति 28
कृष्ण@@ 28
तनि 28
क्षेत्रन 28
?@@ 28
नाथ@@ 28
पसर 28
उनुकरा 28
चमक 28
आय 28
गाँवन 28
हवा@@ 28
छी 28
डो 28
प्रेमचंद 28
ंसी 28
थी@@ 28
अहम 28
दिलीप 28
1992 28
सहजता 28
स्ता 28
खि 28
न्द्र@@ 28
पहलवान 28
उर 28
जहा@@ 28
कालिदास 28
बढ़ि 28
व्यक्तिगत 28
सेठ 28
खोल@@ 28
दाब 28
धक्का 28
शुरुआती 28
अपराधियन 28
56 28
बौ@@ 28
बुरा 28
कुर्सी 28
रूपया 28
बेहद 28
साथ@@ 28
मार्केट 28
सूत्र@@ 28
तपस्या 28
1857 28
अख@@ 28
अदाकारा 28
इसका 28
सूखल 28
(अब 28
प्रौद्योगिकी 28
लिहलस 28
धुरी 28
भी, 28
वें@@ 28
ऋग्वेद 28
52 28
सर्च 28
मरी 28
सांग 28
सासाराम 28
नीयर 28
साप्ताहिक 28
जानवरन 28
स्मारक 28
निर्वाचन 28
एशियन 28
निपटे 28
इंडोनेशिया 28
एयरबस 28
गिद्ध 28
सांप्रदायिक 28
डि 28
७ 28
मुहाना 28
कहें 28
आयेंगे 28
नमी 28
नद्दी 28
परमान 28
$@@ 28
 – 28
(वर्तमान 28
जालीं 28
um@@ 28
मलेटरी 28
(ए@@ 28
जनसँख्या 28
,7@@ 28
कमिश्नरी 28
बिचारधारा 28
काठमांडो 28
id@@ 28
त" 28
83.@@ 28
,6@@ 28
54@@ 28
पिकासो 28
नयी 27
त्रिपाठी, 27
वले। 27
सहमति 27
होखेवाला 27
खरी@@ 27
्रा 27
ं-@@ 27
कुशवाहा 27
चाँ@@ 27
करवावे 27
हरकत 27
मणिपुर 27
दिय@@ 27
कुरसी 27
लेव। 27
हाँ@@ 27
परे@@ 27
साँप 27
पच@@ 27
चोखा 27
ध्या@@ 27
लोकभाषा 27
अपनो 27
विधायकन 27
करेला, 27
अभ@@ 27
सके, 27
सुनील 27
दिनेशलाल 27
कल्@@ 27
रहलन, 27
मोल 27
ही, 27
भय 27
साध@@ 27
वेले। 27
दुआरी 27
की। 27
करेली 27
रहो 27
बहुतायत 27
वावल 27
उतारल 27
कांड 27
मुख्य@@ 27
ओह@@ 27
तियो 27
उमीद 27
सभन 27
भइले। 27
सव@@ 27
आरोपी 27
फाइल 27
लउकेला 27
पेशा 27
तत 27
संदेह 27
खुलासा 27
बरबाद 27
र’ 27
पढाई 27
आत्@@ 27
बोलल। 27
माने@@ 27
पूजा, 27
गइलीं 27
जबसे 27
द्र 27
निर्णय 27
बिगहा 27
तम 27
ड़ि 27
बेचारी 27
बइठा 27
ऽ? 27
चीन्@@ 27
मिलि 27
ढे@@ 27
चलेला। 27
यार@@ 27
भलाई 27
हिर@@ 27
पढ़ 27
जया 27
निष्@@ 27
विचार@@ 27
जिये 27
जीवन@@ 27
च, 27
द्व@@ 27
अपरा@@ 27
दुर@@ 27
कके 27
बुराई 27
किन 27
कल, 27
मुर्@@ 27
रुचि 27
रिटायर 27
भजन 27
नाटकन 27
इनाम 27
वकालत 27
यक 27
मग@@ 27
जोड़@@ 27
दर्द 27
अक@@ 27
गढ़@@ 27
जगहे 27
खाई 27
शोभा 27
सेक्टर 27
मेगा 27
जेपी 27
प’ 27
जबान 27
जव@@ 27
तौ@@ 27
बा… 27
ताप 27
रवा 27
बढ़ा 27
व्यवसाय 27
बॉक्स 27
भात 27
तोड़ 27
पहिचानल 27
प्रबंधन 27
बनाने 27
चंद्रशेखर 27
इंजीनियर 27
अमी@@ 27
मध्यप्रदेश 27
टेलि@@ 27
गाइ 27
सक 27
गुणवत्ता 27
पछिम 27
कोष 27
पृथिवी 27
ष्@@ 27
रहेवाला 27
व्रत 27
भारतो 27
विस्फोट 27
सिकंदर 27
दें 27
शाह@@ 27
उपेक्षा 27
शाला 27
48 27
अगुआई 27
कइलस, 27
अवस्थी 27
शिया 27
8वीं 27
औद्योगिक 27
गा। 27
ट्टा 27
का) 27
ऐसे 27
1997 27
गीता 27
जादू 27
माप 27
ब्रह्मांड 27
190@@ 27
नासा 27
अंडमान 27
बैडमिंटन 27
रामपुर 27
ईरानी 27
पाकिस्तान, 27
हाइवे 27
गांवे 27
माओवादी 27
सोनपुर 27
लंका 27
प्रि@@ 27
हवाला 27
खोदाई 27
जाये@@ 27
लेन 27
पंचांग 27
सतमेझरा 27
बेड़ा 27
भभोरन 27
ला: 27
.8@@ 27
ent@@ 27
 में 27
8वाँ 27
दैलेख 27
ot@@ 27
33@@ 27
पनामा 27
%बढ़ल 27
फेलिनी 27
कहानियन 26
ड़ल 26
धीरज 26
गढ़ 26
चुन@@ 26
पुरनकी 26
कमजोरी 26
हरावे 26
हल्ला 26
दिया। 26
रहेलें। 26
आसरा 26
जीयत 26
मिलि@@ 26
पढ़ा@@ 26
सङे 26
प्रतिष्ठित 26
बिस@@ 26
रामचंद्र 26
परो@@ 26
“भोजपुरी 26
आलोक 26
खैर, 26
नाग 26
महर्षि 26
पित 26
संकल्प 26
रार 26
गी, 26
फुरसत 26
कायम 26
निष्ठा 26
लावे 26
भउ@@ 26
गवाह 26
लवटे 26
लागऽता 26
कहाई। 26
सवालन 26
पटवारी 26
बिन 26
अज@@ 26
संस्था@@ 26
लोकगीतन 26
कुकुरन 26
नींव 26
समाजसेवी 26
कोर्@@ 26
छोट@@ 26
लगन 26
सेवा@@ 26
ंदर 26
हवन 26
पहुँ@@ 26
मोतिहारी 26
इल, 26
!@@ 26
बीर 26
रूप, 26
हिन्दी-@@ 26
न्य 26
नाहीं। 26
आजो 26
जनी 26
चढ़ल 26
धोबी 26
हँ, 26
रथ@@ 26
फिलहाल 26
बली 26
मौन 26
मरम 26
घटित 26
मूड 26
अर 26
रानी@@ 26
प-@@ 26
अयोध्या 26
रसोई 26
टेली@@ 26
कोर्स 26
कौन 26
पि 26
समाज@@ 26
समकालीन 26
शिक्षा, 26
त्रा@@ 26
हिन्दी@@ 26
बक@@ 26
तिहवार 26
रखा 26
आँगन 26
आडवाणी 26
पाक 26
मंचन 26
ङ्@@ 26
देन 26
1994 26
अपनहीं 26
हर, 26
वर्ण@@ 26
बीज 26
परी@@ 26
पकड़@@ 26
अधिकांश 26
तेलुगु 26
दुसरकी 26
मृत्यु 26
वलें। 26
संशोधन 26
सम्पादक 26
्ट@@ 26
मूड़ी 26
कंठ 26
लोटा 26
बुढ़वा 26
साड़ी 26
खट@@ 26
पन्@@ 26
सिन्हा, 26
समु@@ 26
शिखर 26
जल्दिये 26
बिल्कुल 26
शन) 26
वाहक 26
प्रगट 26
मधुर 26
पूर@@ 26
नामकरण 26
गोदी 26
जापानी 26
देस, 26
के. 26
जब@@ 26
रघुवीर 26
कविताई 26
पें@@ 26
आजुकाल्हु 26
नम्बर 26
मीटिंग 26
पति@@ 26
गेम 26
परम 26
मगर 26
हिन्दुस्तानी 26
ब्रि@@ 26
कुआर 26
योग@@ 26
असलम 26
क्टर 26
व्यास 26
आर्ट 26
धूम 26
परचार 26
आईटम 26
शरद 26
नीय 26
सीनियर 26
पिक्चर्स 26
बेच 26
इंग्लिश 26
इंजीनियरिंग 26
कुलदीप 26
अमेरिकन 26
डां@@ 26
कारखाना 26
सुझाव 26
अम्बेडकर 26
तना 26
पहुं@@ 26
बोस 26
परेम 26
उज्जर 26
महाराजगंज 26
एप 26
५ 26
बिजय 26
पाँख 26
नक्@@ 26
जेसे 26
रेवन्त 26
बनले 26
खुसी 26
संहिता 26
रजत 26
+@@ 26
डबल 26
वेली 26
ब्लाक 26
ओलंपिक 26
नेटवर्किंग 26
माध्यमिक 26
हाजीपुर 26
वर्गकिलोमीटर 26
बरेली 26
साउथ 26
उत्तराखण्ड 26
ड्रामा 26
शेट्टी 26
एलबम 26
यहां 26
कण 26
रॉ@@ 26
सोनभद्र 26
वेबसाइट्स 26
यॉर्क 26
इको@@ 26
बिस्वास 26
हमहि 26
रहे. 26
अक्षांश 26
] 26
आर्कटिक 26
अनुबाद 26
का" 26
ज" 26
पुर्तगाली 26
Ch@@ 26
the 26
काफ़ी 26
उष्णकटिबंधी 26
an 26
बिभाग 26
कुवैत 26
करेंसी 26
कुँवर 25
आशीर्वाद 25
‘पाती’ 25
सकार 25
श्रेय 25
२०१२ 25
न्ट 25
मालि@@ 25
ंगल 25
फँ@@ 25
िया-@@ 25
ईमानदार 25
नोटबंदी 25
अपना-अपना 25
होइहें 25
टूटे 25
माहिर 25
राजनाथ 25
चले@@ 25
निधि 25
रोकल 25
जुट 25
फ, 25
क्ट 25
सुधारे 25
लागे@@ 25
दीहल। 25
सुल्तान 25
ढर@@ 25
शांत 25
कइलीं 25
परसाद 25
भोजपुरी-@@ 25
जी-@@ 25
साहित्यकारन 25
वक्ता 25
जुड़@@ 25
चक्र@@ 25
जनजाति 25
रामनाथ 25
तेयार 25
सेनानी 25
बदलि 25
बाढ़ 25
!“ 25
हिं@@ 25
दाँव 25
खिं@@ 25
चुप्पी 25
बाला 25
ट्रेलर 25
गिना@@ 25
भेजले 25
राज, 25
अठ@@ 25
मैक्स 25
अश्@@ 25
ज्ञापन 25
खइले 25
चेतन 25
प्रवाह 25
बनाके 25
रामचरितमानस 25
दउ@@ 25
रेला 25
कप्तान 25
विद्या@@ 25
जायसी 25
आजु@@ 25
1970 25
तीं। 25
तब्बो 25
ियावे 25
बहार 25
पुरोहित 25
बीबी 25
तलाक 25
घोर 25
गैरकानूनी 25
चढ़@@ 25
घर-@@ 25
प्रो। 25
समझदार 25
पसीना 25
कड़ा 25
अप्र@@ 25
ओइसन 25
अपना@@ 25
शू@@ 25
अभिनीत 25
सीख 25
नाय@@ 25
गुलामी 25
संस्@@ 25
गवले 25
नाजायज 25
बिगड़ 25
पकड़ 25
उत्तर-@@ 25
सम्पर्क 25
बिदेस 25
जेही 25
हमारा 25
दरजा 25
साक्षात्कार 25
अवधि 25
बरे 25
मँ@@ 25
सत्तन 25
वार, 25
भिन्न 25
बीजेपी 25
मंदिर, 25
गार 25
बढ़ा@@ 25
गला 25
चा, 25
होखीहें। 25
प्रत्याशी 25
पशु 25
सांसदन 25
तरी@@ 25
र्ड 25
चंद 25
दा, 25
कोइ@@ 25
खुलल 25
कष्ट 25
कुछुओ 25
अके@@ 25
लेह@@ 25
तबहिए 25
देलन 25
वात 25
नकार 25
मांगे 25
त्ता 25
तंग 25
आवऽ 25
अंत@@ 25
कहानी, 25
बिका@@ 25
८ 25
परिवेश 25
चार्य 25
गद्य 25
गां@@ 25
फिल्@@ 25
रेट 25
समालोचक 25
केश@@ 25
मुनि 25
बराबरी 25
चाही। 25
जात@@ 25
एच 25
कैं@@ 25
कहावत 25
पूछले 25
संगत 25
्यू@@ 25
सॉ@@ 25
गंगा@@ 25
कोठरी 25
घूमि 25
ब्ला@@ 25
मिठास 25
बड़े 25
ag@@ 25
सितारन 25
1972 25
रमाकांत 25
जिन@@ 25
स्‍@@ 25
श्रद्धा 25
थियेटर 25
अगल 25
og@@ 25
ing@@ 25
शोषण 25
आंख 25
रमेश 25
सब्@@ 25
गोरी 25
डेढ़ 25
विद्यापति 25
देते 25
ियल 25
डल 25
अफगानिस्तान 25
४@@ 25
तोपाइल 25
सेतु 25
प्प@@ 25
कटेगरी 25
तोहन 25
मोटर 25
गईल, 25
पूछताछ 25
अगुआ 25
निरिमा 25
हिरोइन 25
रेलगाड़ी 25
जिलाधिकारी 25
एकड़ 25
मईया 25
पाटलिपुत्र 25
85 25
नोएडा 25
स्वरुप 25
लीज 25
इलेक्ट्रानिक 25
बराक 25
लाहौर 25
एयरपोर्ट 25
पुर्@@ 25
निकोबार 25
समुंदर 25
मैसूर 25
९ 25
and@@ 25
मामर 25
क्यों 25
पुरन 25
२० 25
तियों 25
दोनों 25
उत्पन्न 25
रूसी 25
नगरीय 25
मैंटल 25
मुग़ल 25
महाद्वीप 25
ia 25
oc@@ 25
नाँव: 25
1960 25
91.@@ 25
समीति 25
जाला) 25
(बहुअर्थी) 25
2,0@@ 25
मूर्ती 25
(E@@ 25
4वाँ 25
ग्रेगोरियन 25
देसवन 25
(एक्ट्रेस) 25
साढ़े 24
फूहड़ 24
विभागाध्यक्ष 24
समहर 24
मृ@@ 24
सरत 24
ग्लोबल 24
आइडिया 24
विरोधियन 24
खानदान 24
कात 24
गलतफहमी 24
सिया@@ 24
सिम@@ 24
मानीं 24
घोड़ा 24
बिया, 24
दाग 24
तइ@@ 24
आतंक 24
रहेलें 24
जरी 24
कहिया 24
पसार 24
पोल 24
हावी 24
मठ 24
ने-@@ 24
लिट्टी 24
चार्@@ 24
उपलब्धि 24
प्रस्तुति 24
रले 24
बस@@ 24
रहबे 24
फरका 24
गोतिया 24
सुनला 24
लउकत। 24
निंदा 24
अपनावे 24
टेक्@@ 24
शिय@@ 24
वेबसाइटन 24
घुसल 24
शीलता 24
क्ति 24
फें@@ 24
धोखा 24
खींचल 24
प्रभु 24
कपारे 24
भयानक 24
एं 24
सौभाग्य 24
ओहु 24
अफसोस 24
हौ@@ 24
लई@@ 24
प्रासंगिक 24
रे। 24
स्कूलन 24
हिन्दू@@ 24
अंसारी 24
ंव 24
दूर@@ 24
नाना 24
मचा 24
पत्र@@ 24
अपमान 24
सेहत 24
कश्मीरी 24
मजदूरन 24
रुपी 24
लीं@@ 24
खड़@@ 24
गव@@ 24
सुराज 24
छल 24
महीन 24
नउ@@ 24
से-@@ 24
परन्तु 24
मिलजुल 24
अर्थशास्त्री 24
अदा 24
मधुमाखी 24
जाली। 24
जेटली 24
द-@@ 24
ट्रि@@ 24
स्थि@@ 24
अस्@@ 24
ध्@@ 24
मैथिली, 24
ड्स 24
बीसवीं 24
जाउ 24
ससुरा 24
कीय 24
इन्द्र@@ 24
सहा@@ 24
ओमे 24
स्पीकर 24
नोटबन्दी 24
बाबा, 24
मुस्@@ 24
पढ़ला 24
बेमतलब 24
छापा 24
आफिस 24
कर्मचारियन 24
चिंतन 24
फिलि@@ 24
मलयालम 24
जाए। 24
होला@@ 24
एंटरटेनमेंट 24
भक्@@ 24
सुधीर 24
किं@@ 24
सम्मलेन 24
कोरा 24
बबुआन 24
अन्न 24
दरी 24
बति@@ 24
आने 24
क्वीन 24
चौहान 24
सले 24
नेट@@ 24
लगला 24
व्यस्त 24
ताली 24
पाठ्यक्रम 24
क़@@ 24
सेवक 24
वॉ@@ 24
शै@@ 24
सु, 24
निर@@ 24
पहा@@ 24
परिस्थिति 24
ताई 24
ठु@@ 24
वार्@@ 24
व्यंग्य 24
1948 24
षा@@ 24
जन्@@ 24
विचारधारा 24
डै@@ 24
आलोचक 24
स्वच्छ 24
सजल 24
बतव@@ 24
म्प@@ 24
लिन, 24
साज 24
खातीर 24
अइले। 24
बेरोजगारी 24
फौ@@ 24
लऽ। 24
हिन 24
ू, 24
चि 24
तीसरी 24
कसम 24
हमहू 24
चीर 24
झगड़ा 24
गिरला 24
शिष्य 24
नामक 24
रेड 24
खल 24
तत्वन 24
ट्री 24
बाचा 24
समय, 24
खर्चा 24
खिसियाइल 24
संबाद 24
सीडी 24
ंदा 24
un@@ 24
उदित 24
नावे 24
जाउ। 24
टकराव 24
संपादन 24
कालोनी 24
= 24
d 24
बारहवीं 24
पिये 24
थोड़ी 24
करऽ। 24
क्षण 24
राजेंद्र 24
करती 24
जाति@@ 24
उपज 24
डेविड 24
इंड@@ 24
भाप 24
उज्जैन 24
जि 24
चढ़ाई 24
आजम 24
ठन 24
टेबल 24
लड़िका 24
सई 24
हमर 24
सजावट 24
वऽ 24
लु 24
पहिया 24
बाटे@@ 24
टी। 24
कुर@@ 24
गाव 24
68 24
गोता 24
होखेला, 24
बचऊ 24
लास 24
ंस@@ 24
आयटम 24
पूर्णिमा 24
याचिका 24
फार्म 24
हावड़ा 24
72 24
C 24
मार्क 24
चूल्हा 24
पुरातत्व 24
धरीछन 24
88 24
आईफोन 24
61 24
बिपत 24
बेस 24
83 24
खिचड़ी 24
जउन 24
डाउनलोड 24
नली 24
चउथी 24
ज़ा@@ 24
नानाजी 24
दुन्नों 24
E 24
(M@@ 24
स्ट्र@@ 24
साफ़ 24
9% 24
[@@ 24
जैसन 24
I 24
.00 24
कलेंडर 24
7वाँ 24
परसिद्धी 24
9.@@ 24
विलियम 24
बिमान 24
। @@ 24
हरीकेन 24
बढ़ावल 23
मणि 23
प्रबंध 23
मसला 23
लो-@@ 23
टेंशन 23
रीति 23
देलें 23
आवत। 23
कहऽता 23
भोट 23
धि 23
हरावल 23
सकसु। 23
जाइत 23
बहाना 23
बाजपेयी 23
एंकर 23
अनेरिया 23
घटल 23
देखव@@ 23
काय@@ 23
कुर्@@ 23
जम्@@ 23
रहुवे, 23
लेब 23
काहेंकि 23
कोस 23
स्वाद 23
सच 23
हुँ@@ 23
बोलचाल 23
श। 23
मीरा 23
परवाह 23
लिखाइल 23
सत्ता@@ 23
इचिको 23
रहब 23
इए 23
प्रतिनिधित्व 23
बाँचल 23
लू, 23
जन-@@ 23
घड़ी 23
लगु@@ 23
व्यव@@ 23
लगलें 23
नोटिस 23
कव 23
खरा 23
भेंटाइल 23
संगही 23
सवर्ण 23
शुल्क 23
धोती 23
पेन्@@ 23
आर्थ@@ 23
नयकी 23
उपस्थित 23
क्षि@@ 23
नीरन 23
(B@@ 23
कइनी। 23
जतने 23
लालसा 23
फ्री@@ 23
लक 23
जीवनी 23
शब्द@@ 23
णो 23
चिं@@ 23
तीर 23
घाटा 23
सिलसिला 23
सहे@@ 23
चम्पारण 23
‘ई 23
छीन 23
पढ@@ 23
1971 23
अमर@@ 23
उभरल 23
हाइ@@ 23
तवा 23
मियाँ 23
वेला, 23
ओढ़@@ 23
मिली@@ 23
रथ 23
बैं@@ 23
बोलवले 23
इजाजत 23
अबहियो 23
मा। 23
नकारात्मक 23
कथा@@ 23
कुंवर 23
श्रद्धांजलि 23
ग्रीन 23
लीटर 23
पोता 23
गहिर 23
जोगदान 23
घूमत 23
दरिया 23
मेहरारून 23
रिवाज 23
जार@@ 23
रकम 23
बिक्री 23
सकारे 23
मगही 23
खिसिया 23
ओमें 23
ची, 23
जाव? 23
नक्सली 23
गाढ़ 23
अठारह 23
मजबूती 23
कहके 23
हड़@@ 23
भितरी 23
नेता, 23
1945 23
1974 23
सीना 23
स्वी@@ 23
नइखन। 23
पूछीं 23
हटे। 23
थर 23
पीके 23
होले, 23
किताबि 23
उल@@ 23
रहन, 23
टल। 23
तमाशा 23
देलें। 23
आलम 23
इंद्र@@ 23
आयकर 23
हिस्सेदारी 23
बान्हि 23
‘हम 23
हन। 23
छत 23
सिंगार 23
खातिर@@ 23
सुपरहिट 23
मुंबई, 23
दमदार 23
अनूप 23
जाग@@ 23
तिर@@ 23
लैंड, 23
ल’ 23
सलमान 23
नज@@ 23
चुनरी 23
नता 23
ऊ। 23
नाइट 23
बड़की 23
यल 23
द्वार 23
जड़ 23
छठवाँ 23
राजनीति@@ 23
पहु@@ 23
बारात 23
जतरा 23
क्रियाकलाप 23
तड़@@ 23
ियां 23
अमरीका 23
झार@@ 23
रिमोट 23
दिग्विजय 23
हान 23
वासी 23
बादर 23
ढी 23
लड़की 23
स्ट, 23
आदिमी 23
सी-@@ 23
जिउतिया 23
जरे 23
कोच 23
कवा 23
चरम 23
बम्पर 23
सिद्धार्थ 23
बोलले 23
बहू 23
आवागमन 23
150@@ 23
:- 23
j@@ 23
ia@@ 23
ed@@ 23
झील, 23
फिल्मन 23
विवादित 23
वां@@ 23
ला) 23
66 23
300 23
1-@@ 23
डिया@@ 23
55 23
77 23
औजार 23
त्रिभुज 23
जरावे 23
रेंज 23
मे, 23
दर्श@@ 23
स्टा@@ 23
गरहन 23
ल्ली 23
घूर 23
स्वि@@ 23
मजदूरी 23
साथै 23
कहली- 23
मामा 23
बंबई 23
महिना 23
तावा 23
मस 23
वृद्धि 23
निराला 23
मरम्मत 23
फ्रां@@ 23
लक्ष्मी@@ 23
लॉन्च 23
स्पर्धा 23
51 23
यातायात 23
नर्@@ 23
इस्टेशन 23
ियान 23
टाटा 23
सुशीला 23
मलिक 23
अच्छी 23
पंत 23
प्लास्टिक 23
डिंग 23
होल 23
।” 23
काठमांडू 23
रहने 23
अधिनियम 23
एसोसिएशन 23
आकर 23
फैजाबाद 23
युक्त 23
पुराणन 23
न्यूयॉर्क 23
ह. 23
सूरी 23
कवलेज 23
ang@@ 23
प" 23
आर्किटेक्चर 23
मध्यकाल 23
यूरेशिया 23
भूबिज्ञान 23
बाड़ें: 23
46 23
शिवालिक 23
N 23
82.@@ 23
 क 23
कर्क 23
बिधानसभा 23
ay@@ 23
इकोसिस्टम 23
160@@ 23
थॉमस 23
यूनान 23
अलकनंदा 23
खोटाँग 23
परोसे 22
अध्या@@ 22
आयाम 22
नीत 22
आलू 22
पड़े। 22
बहे@@ 22
गा, 22
सना 22
पढ़ावे 22
आपन-आपन 22
तत्@@ 22
इबे 22
भउजाई 22
मानेला 22
पते 22
स्वराज 22
लय, 22
दस्तावेज 22
जुटल 22
झरिया 22
बड़की 22
शरी@@ 22
पीछा 22
सकी@@ 22
सुदूर 22
विशिष्ट 22
साहित्य-@@ 22
ज्ञानी 22
ग्रन्थ 22
सिर 22
मरा 22
खेसारीलाल 22
मानो 22
एक-@@ 22
क्रिया@@ 22
ियनो 22
जँ@@ 22
सचहूँ 22
भार 22
लाइल 22
राजी 22
जिद 22
ड़ा-@@ 22
नाट्य 22
ाई 22
सिद्@@ 22
बैंकन 22
जिंग 22
ग्रोवर 22
उपासना 22
खान, 22
भाषावन 22
रोजी 22
एनडीटीवी 22
जवाहर 22
गृहमंत्री 22
मनी@@ 22
एक-एक 22
नेश@@ 22
जित 22
ओरी 22
सरल 22
त्व@@ 22
लहीं 22
अकाल 22
लोगिन 22
’’ 22
गँवा 22
भाव-@@ 22
भोज@@ 22
ीं, 22
ली-@@ 22
ी’ 22
बी, 22
रोवे 22
नार 22
खीं@@ 22
लीला 22
बाट@@ 22
हऽ@@ 22
इया@@ 22
उलटा 22
लूर 22
रेस 22
घुमा 22
कारा@@ 22
सालन 22
ती-@@ 22
एकमत 22
सुरु 22
पुरबी 22
पा, 22
रम@@ 22
मिनि@@ 22
खरच 22
शिप 22
सोरह 22
डॉ. 22
सिन 22
थ, 22
’’@@ 22
अन्दाज 22
पटा@@ 22
भोजपुरिए 22
घन@@ 22
एम्मे 22
पानी, 22
भोजपुरियो 22
देखवले 22
गीर 22
उल्लास 22
वाला@@ 22
बोलली 22
सुल@@ 22
त्त 22
उलट 22
रहु@@ 22
दृ@@ 22
खड़@@ 22
ड़न 22
लागता 22
दिन@@ 22
पाण्डे 22
पहुँचावे 22
गुला@@ 22
रखा@@ 22
ता) 22
उनको 22
पाटिल 22
झाँ@@ 22
नेहा 22
दाँत 22
मरीज 22
आये 22
‘ठीक 22
रहता 22
गंग@@ 22
गोर 22
ट्रो@@ 22
दिल@@ 22
गाँव-@@ 22
दुख@@ 22
गिरा@@ 22
रफ्तार 22
73 22
पला@@ 22
गोल@@ 22
होखीहें 22
डायरी 22
मिडिल 22
पाल@@ 22
सों 22
प्रगति 22
अति@@ 22
एंटी@@ 22
समझल 22
मानव@@ 22
होखी@@ 22
दत्त 22
जगन्नाथ 22
मिलाके 22
कुमरपत 22
लड़िकन 22
लागल@@ 22
इस्लामिक 22
बटोर 22
जालें, 22
टला 22
क्रोध 22
सारी 22
गूं@@ 22
नाइल 22
बिका 22
समतल 22
सम 22
भादो 22
रेश@@ 22
पोर्@@ 22
हाले 22
फुल 22
खलनायक 22
1989 22
कैसेट 22
1993 22
फिलिमो 22
आपका 22
बुड़बक 22
षा 22
मिया 22
देवलास 22
कुंड 22
पूरे 22
अल-@@ 22
सूरीनाम 22
(G@@ 22
मालवीय 22
ड़ी, 22
बाहुबली 22
गृहस्थ 22
कैलाश 22
शिक्षा@@ 22
समुन्दर 22
मच्छर 22
रहा@@ 22
मंत्र@@ 22
कहलस, 22
कुश्ती 22
कहलन, 22
अच्छे 22
उड़ 22
जानते 22
तीरथ 22
1999 22
नइहर 22
लईकन 22
टैगोर 22
जात्रा 22
पाख 22
क्षक 22
प्लेटफार्म 22
ई) 22
लीय 22
टेनिस 22
जिले 22
आजमगढ 22
र्ट 22
59 22
वैशाली 22
विं@@ 22
टाइगर 22
मोतीलाल 22
कोटा 22
मंगलयान 22
बैंड 22
तरूण 22
दिखाई 22
रियलिटी 22
४ 22
टेलीफोन 22
दीवाना 22
डॉन 22
जायसवाल 22
600 22
फोटो@@ 22
शब्दावली 22
गाइकी 22
राघवानी 22
गयी 22
सेंटीमीटर 22
इसमें 22
तकनीकों 22
पिक्सेल 22
रखना 22
टॉप 22
कुंभ 22
पोस्टस 22
शहाबुद्दीन 22
पैदाइश 22
कार्बन 22
स्ट्रे@@ 22
जिल्ला 22
नदी@@ 22
पनडुब्बी 22
ऽ. 22
ल. 22
मीठा 22
रामबाबू 22
इंडो-@@ 22
एवरेस्ट 22
5.@@ 22
4.@@ 22
परभावशाली 22
बीचोबीच 22
ना" 22
U@@ 22
1988 22
इन्फेक्शन 22
x 22
थियरी 22
गढ़वाल 22
and 22
ea@@ 22
58 22
बिद्यार्थी 22
(अंग्रेजी:@@ 22
पीरियड 22
झापा 22
(R@@ 22
रउ@@ 21
ब्रजभूषण 21
मों@@ 21
बढ़न्ती 21
120 21
ब्रेकिंग 21
सोचे@@ 21
दुर्भाग्य 21
सा। 21
तोड़ 21
पारित 21
अट@@ 21
कमर 21
कमा 21
देवे@@ 21
दोहा 21
देशो 21
अउरिओ 21
खुदकुशी 21
अचार 21
परिवारन 21
करम@@ 21
लुकाइल 21
इतिहा@@ 21
सावधान 21
कारा 21
कक्ष 21
सपोर्ट 21
फलां 21
फेंकू 21
नाट@@ 21
दखिन 21
महाराजा 21
न्यायपालिका 21
खुल@@ 21
काहे@@ 21
भागि 21
्य-@@ 21
गइलीं। 21
प्रकाश@@ 21
अन्तर्@@ 21
ट्रै@@ 21
जौ@@ 21
बातो 21
सिद्धान्त 21
मिजाज 21
मिया@@ 21
डेढ़ 21
वा। 21
तम@@ 21
नाचत 21
हार्दिक 21
सेकुलर 21
तूड़े 21
महँग 21
ंड, 21
रावल 21
रुआ 21
करीं, 21
चाहब। 21
सिंह। 21
गोरख 21
प्रिया 21
रंजीत 21
पटल 21
महामंत्री 21
250 21
जल्@@ 21
धरा@@ 21
अइली 21
पतो@@ 21
माननीय 21
विश्वविद्यालय, 21
जायज 21
कचहरी 21
‘अ@@ 21
ला’ 21
पाके 21
भावी 21
प्रणाम 21
कॉलोनी 21
बनल, 21
करार 21
बढ़ावल 21
प्रथा 21
सबकर 21
पाठकन 21
टिया 21
हुँ 21
डंडा 21
माँगत 21
गी। 21
सकेलें 21
ड्राइ@@ 21
स्कू@@ 21
दीन 21
घेर 21
आउट 21
राष्ट्रवादी 21
मूल्यन 21
पहिलहूँ 21
लावल 21
लेखकन 21
केन्द्र@@ 21
पानी@@ 21
फँस 21
होता। 21
ए, 21
जोग@@ 21
जागल 21
चाव 21
बरबस 21
सम्हारे 21
अनुपम 21
फीस 21
महानगर 21
ताकतवर 21
च-@@ 21
ठिया 21
पों@@ 21
हरान 21
गुलाल 21
ख्@@ 21
सावधानी 21
समाइल 21
होलें, 21
नमन 21
रता 21
श्वर@@ 21
एब। 21
उमीदवार 21
कटा@@ 21
कर। 21
इयो 21
अनुशासन 21
गोरखनाथ 21
करस 21
देश, 21
समुझत 21
सहारनपुर 21
सभागार 21
पग@@ 21
रहस। 21
एँ 21
अनि@@ 21
हल्का 21
नाच@@ 21
बाड़ू। 21
खेयाल 21
हेड 21
श्रीराम 21
पीपर 21
दुआरे 21
अस्था@@ 21
रुके 21
उपन्यासन 21
अझुराइल 21
द्ध 21
उर्फ 21
सङही 21
कल्पित 21
ंट@@ 21
बुजुर्ग 21
वलन। 21
ग्रस्त 21
नक्षत्र 21
आकास 21
संगीत, 21
ौली 21
पहुँचा@@ 21
ति। 21
बिय@@ 21
णि@@ 21
स्मार्टफोन 21
चलनी 21
साली 21
जॉ@@ 21
बद्ध 21
स्वस्थ 21
पूर्@@ 21
दिन, 21
नाला 21
बाबरी 21
भारवि 21
कमला 21
लेख, 21
मित 21
सोलह 21
सिंग 21
खीर 21
बेटा, 21
बर, 21
हिं 21
फर्स्ट 21
जौ 21
साई 21
74 21
बिल्@@ 21
टका 21
काग@@ 21
तुलसी 21
नईखे। 21
रहलऽ 21
पाटी 21
भइल@@ 21
फारसी 21
यूनि@@ 21
माँग@@ 21
छिन 21
नरेश 21
र्थ@@ 21
दबंग 21
करियर 21
लड़ल 21
ञ्@@ 21
काब्य 21
शुक्ला 21
मारधाड़ 21
सीसी 21
पाला 21
अर्थात 21
त: 21
em@@ 21
देशमुख 21
क्वा@@ 21
ससुर 21
क्रांतिकारी 21
वर्णमाला 21
ir@@ 21
(जइसे 21
बेव@@ 21
2-@@ 21
हिस्सन 21
चार्ल्स 21
फोर्@@ 21
‘अरे 21
उपकरण 21
महादेव 21
नंद@@ 21
राँची 21
खंड@@ 21
झाड़ू 21
94 21
सोसाइटी 21
मूलभूत 21
सराय 21
उपमहाद्वीप 21
पैदल 21
तीय 21
मिनी 21
आंकड़ा 21
मिन 21
ओनके 21
बाड़ीं। 21
शन@@ 21
वेल 21
पां@@ 21
केदारनाथ 21
बतावऽ 21
गिरफ्तारी 21
ट्टी 21
आईल 21
‘ना 21
चंदा 21
पेय 21
बंधा 21
संक्रांति 21
पेशाब 21
1982 21
उपजावल 21
आप्रवासी 21
दुरी 21
प्रेसिडेंट 21
सिक्@@ 21
माइकल 21
चालक 21
54 21
पूर्णिया 21
लेंस 21
गोलीबारी 21
गन्ना 21
नेविगेशन 21
पेट्रोलियम 21
(H@@ 21
वाशिंगटन 21
सेंट्रल 21
महोदय, 21
ग्रैंड 21
वक्त 21
कॉर्@@ 21
32@@ 21
टीशन 21
केंद्र@@ 21
श्रीधर 21
शायर 21
1965 21
सुरंग 21
धर्मांतरण 21
स्टर 21
गढ़ी 21
मेँ 21
सर्वर 21
भगवान् 21
एकीकरण 21
वेस्टर्न 21
बिक्रम 21
नेपा@@ 21
कोसी 21
भागीरथी 21
नमर 21
फिन 21
अवशेष 21
उत्तर-पूरुब 21
क्रस्ट 21
अक्षांस 21
कोशी 21
यि 21
बिभिन्न 21
सैन 21
के @@ 21
सफ़ेद 21
.4@@ 21
इलेक्ट्रिक 21
ज़माना 21
(D@@ 21
जायेला 21
ip@@ 21
काँग्रेस 21
प्रजनन 21
ब्याख्या 21
साइड 21
संछेप 21
110@@ 21
as@@ 21
एनीमेशन 21
अरथ: 21
84.@@ 21
कॉमन 21
उच्चारण: 21
(सामुदायिक 21
अपार 20
लड़िकी 20
टर, 20
करहीं 20
अइलें। 20
बचावल 20
लाखों 20
गले 20
कवर 20
कहता 20
धिया 20
सहानुभूति 20
इन्दिरा 20
प्लान 20
ईयाद 20
मश@@ 20
नया-नया 20
साफे 20
गाछ 20
खजाना 20
सभे, 20
नरक 20
आना 20
निहार@@ 20
निहार 20
गुल@@ 20
रेज 20
शह@@ 20
देब@@ 20
सोझ 20
फेल 20
सला@@ 20
बइ@@ 20
भइलें 20
मानस 20
माथे 20
ससुराल 20
जित@@ 20
अनुराग 20
बाकिर, 20
चाहेला 20
साह@@ 20
फूहड़पन 20
सुथरा 20
कारन, 20
हर-@@ 20
चक 20
जथारथ 20
संज्ञा 20
रिए 20
वश 20
मुहावरा 20
जुलूस 20
अइहें। 20
बबु@@ 20
कटहर 20
ग्राफ 20
देवेन्द्र 20
सराहल 20
हर्ष 20
कार-@@ 20
गुप्@@ 20
वर्मा, 20
1995 20
म्बर 20
तिए 20
पंकज 20
व्यक्त 20
शीर्षक 20
ले) 20
कहि@@ 20
शृंगार 20
चंपारन 20
प्ला@@ 20
होम 20
प्रभावी 20
चा-@@ 20
बजा@@ 20
बा! 20
दे। 20
ारि@@ 20
मूँ@@ 20
लिखीं। 20
उतार@@ 20
सोन@@ 20
कानी 20
मानसिकता 20
तेरी 20
न्दा 20
सुनावल 20
रोवत 20
जनि 20
हमलावर 20
चौराहा 20
समर्थ 20
कथ@@ 20
बादल 20
बाती 20
तालाब 20
आपत्ति 20
जोगी 20
०@@ 20
वंचित 20
हिंद@@ 20
समरसता 20
हीरोइन 20
मक्@@ 20
प्रवासी 20
मच 20
बिहार@@ 20
कुरता 20
टेलीविजन 20
विवाह 20
मरजी 20
लहर@@ 20
तिल@@ 20
कामो 20
बागी 20
खार 20
टले 20
जिस 20
तवने 20
असहीं 20
धित 20
तिकवत 20
संरक्षित 20
तानी। 20
सजाय 20
सुगंध 20
दूसरका 20
फ्र@@ 20
केशव 20
भँ@@ 20
बनिया 20
वाय@@ 20
रक@@ 20
भारतेन्दु 20
त’ 20
निम्न 20
पकड़@@ 20
अँगुरी 20
तं@@ 20
मरल 20
फूटल 20
चौकी 20
सूख 20
शरीफ 20
श्रीकृष्ण 20
सराहे 20
पन्द्रह 20
ली- 20
याद@@ 20
जता@@ 20
बैद 20
ओठ 20
री-@@ 20
करवा@@ 20
तुरंते 20
मेह@@ 20
लप@@ 20
कोशि@@ 20
इंटरटेनमेंट 20
समी@@ 20
साधु 20
अक्@@ 20
वाणी 20
प्रभाकर 20
परक 20
दुअरा 20
सियन 20
बुद्@@ 20
नुसार 20
चाहीं@@ 20
काव्य@@ 20
सर्वाधिक 20
आंतरिक 20
अझु@@ 20
बधार 20
क्त 20
चान 20
गूँ@@ 20
खेते 20
ब्लड 20
ट्रेनिंग 20
देता 20
1969 20
व्यापारी 20
फरि@@ 20
वैचारिक 20
आदमी@@ 20
विश्लेषण 20
पूर्व@@ 20
अरु@@ 20
भौ@@ 20
आशुतोष 20
उपस्थिति 20
वरी 20
कइलें, 20
गुर@@ 20
मोर@@ 20
खां 20
देखें 20
उं@@ 20
उनसे 20
गउ@@ 20
वचन 20
पापा 20
जोगाड़ 20
बिधा@@ 20
्यो 20
जामा 20
पाँचवाँ 20
हरीश 20
लिखे@@ 20
ठाँवे 20
पड़ला 20
फाल्@@ 20
संस्कृ@@ 20
हुमायूँ 20
इंद्र 20
बुढ़@@ 20
जतव@@ 20
केदार 20
शिक्षित 20
ब्रह्म 20
नें@@ 20
पछि@@ 20
दवा@@ 20
समू@@ 20
बर्तन 20
ब्रो@@ 20
रुकल 20
थल 20
ab@@ 20
मातृ@@ 20
हिंदी, 20
पियरी 20
लां@@ 20
पहिनावा 20
लाखन 20
रांची 20
निर्धारण 20
शक्तिशाली 20
हस्तक्षेप 20
्री 20
63 20
पतरा 20
छपल। 20
सभा@@ 20
अलग@@ 20
९@@ 20
७@@ 20
हउवे 20
बिनास 20
शेर@@ 20
सर्वोच्च 20
साहस 20
गोवर्धन 20
नियुक्ति 20
कमे@@ 20
पुरानी 20
खाद 20
सत्येन्द्र 20
मुहल्ला 20
गरी@@ 20
वायु@@ 20
सरोकारन 20
कार्यकारिणी 20
सर्वश्रेष्ठ 20
रहली, 20
जोन्हिया 20
पियल 20
च्छा 20
रिंग 20
21@@ 20
अहिंसा 20
बासी 20
डेंगू 20
आल 20
राज्यमंत्री 20
महंगी 20
जीविका 20
ददरी 20
लेक 20
दंगल 20
चेतावनी 20
अमृतसर 20
एम्@@ 20
0-@@ 20
निलंबित 20
जिला@@ 20
69 20
स्विट्जरलैंड 20
समुद्री 20
डा, 20
लद्दाख 20
11,@@ 20
गाने 20
रिलीज़ 20
हरिद्वार 20
लैपटॉप 20
मौसमी 20
१४ 20
त्रिवेणी 20
फॉर 20
इहा 20
प्रोटोकाल 20
जैसी 20
समस्तीपुर 20
मुरादाबाद 20
इहाँके 20
वितरण 20
दर्शकों 20
पैलेस 20
गंगादेवी 20
सेवाएँ 20
बाँध 20
वल्@@ 20
फिक्शन 20
भउरी 20
n 20
फ़ारसी 20
1 @@ 20
1912 20
बहरें 20
शिलालेख 20
0.@@ 20
कोपेन 20
ता" 20
7.@@ 20
ell@@ 20
मैक्सिको 20
बिजेता 20
"; 20
विल्सन 20
al 20
est@@ 20
लिखलें। 20
ब्राउजर 20
पुर्तगाल 20
ज़िला 20
निकास 20
a) 20
7% 20
बिज्ञान) 20
द्रब्यमान 20
म्" 20
बढ़ियाँ 20
85.@@ 20
(फिलिम) 20
पड़रौना 20
ईरान 20
वाइरस 20
बोईंग 20
धादिंग 20
रैडिसन 20
एमिरेट्स 20
वारा 19
टाउन 19
परिचर्चा 19
लिहल। 19
दयाशंकर 19
छठ@@ 19
दरबारी 19
हिन्दुस्ता@@ 19
शिकारी 19
बजावत 19
एहनी 19
अपील 19
भाषियन 19
चाइ@@ 19
जतन 19
कोय@@ 19
सकेलें। 19
बिख@@ 19
कावत 19
सुनाई 19
काबिज 19
सकीलें। 19
ंगन 19
परिवार, 19
गोलन 19
बान्@@ 19
जेने 19
एब 19
दा। 19
होइए 19
चढ़ावे 19
नीयत 19
दीदी 19
मित्र@@ 19
आ-@@ 19
सूर@@ 19
5-@@ 19
वस्त्र 19
चुनाइल 19
सेव@@ 19
बुल 19
प्रेमियन 19
ताना 19
बहाल 19
देखिके 19
शे 19
नेव@@ 19
जोर@@ 19
उछा@@ 19
उमंग 19
किसा@@ 19
गौर 19
रुझान 19
चिचिया@@ 19
फ्रा@@ 19
तिक 19
गिरत 19
टाइप 19
जगावे 19
जरावल 19
छे 19
आचरण 19
कर्तव्य 19
लगनी। 19
जोगीरा 19
प्रभावशाली 19
ठाकुर, 19
उपाध्याय, 19
रितु 19
मनीष 19
वाली, 19
जासु। 19
मच@@ 19
बिगड़ल 19
चढ़ावल 19
97 19
मानना 19
नीति@@ 19
मरि 19
फुल@@ 19
ठेठ 19
मुखी 19
देलन। 19
धुआँ 19
मनेजर 19
रहले, 19
‘‘@@ 19
हजारों 19
गीत-@@ 19
बाबू, 19
छोह 19
छि 19
ड़न 19
पहिरे 19
झेलत 19
बेगम 19
चो 19
चिल्@@ 19
उपहार 19
रे-@@ 19
ब्रह्मा@@ 19
मलि@@ 19
बुड़बक 19
गवर्@@ 19
मांस 19
देबे@@ 19
दश@@ 19
बात-@@ 19
नमस्कार 19
ावे 19
अद्भुत 19
भासी 19
जबे 19
वेद@@ 19
ण्डी 19
पुरूष 19
राखि 19
घेरले 19
बुझाते 19
करीं@@ 19
ढि@@ 19
भगा 19
पिं@@ 19
राष्ट्रवाद 19
पढ़त 19
बूझि 19
झटका 19
एकनी 19
घोड़ा 19
एनडीए 19
हाजिरी 19
राजदूत 19
तबियत 19
कौर 19
अगु@@ 19
1979 19
लवा 19
आठ@@ 19
विधि 19
कहसु 19
फरार 19
सक्रियता 19
बी-@@ 19
अधूरा 19
प्रदेश@@ 19
अपन@@ 19
बात@@ 19
देहल 19
बछ@@ 19
बखूबी 19
रावण 19
ारा, 19
डोर 19
कमीशन 19
घूम 19
खुस 19
ना? 19
सरकार@@ 19
डालत 19
हरी@@ 19
गुलाबी 19
पुरु@@ 19
कमी@@ 19
सिनेमाघरन 19
लिटी 19
धक 19
पछ@@ 19
भाइयन 19
एहसास 19
जुबान 19
विभाजित 19
स्नातक 19
कुलपति 19
आध्यात्मिक 19
संवेदनशील 19
एकदमे 19
धर्@@ 19
परदेस 19
घे@@ 19
ए. 19
त्त@@ 19
पहिल@@ 19
सम्पूर्ण 19
रिपोर्@@ 19
ठ, 19
पावेला 19
1984 19
नामवर 19
उसका 19
प्रयुक्त 19
कथन 19
मइया 19
डाढ़ 19
तव@@ 19
वर्ड 19
मैथिली-भोजपुरी 19
त्सव 19
प्रहार 19
श्लोक 19
प्रतिबद्धता 19
नाथ, 19
सीवान 19
अध्यादेश 19
केल 19
्री@@ 19
मचवले 19
बदला@@ 19
छाया 19
डलले 19
बैटरी 19
दरकार 19
ँ, 19
ंगा, 19
वाँ@@ 19
हिए 19
जाग 19
साधे 19
बेंच 19
एमे 19
सुमन 19
मां 19
कुआ@@ 19
लका@@ 19
सरकारो 19
मिर्@@ 19
गंदा 19
बालू 19
1949 19
1962 19
खाल 19
योद्धा 19
सोख 19
अमृता 19
हरिराम 19
सिनेमाघर 19
धारा@@ 19
लीक 19
गर्ल 19
लड़िकी 19
वाली@@ 19
कड़ा 19
लइकिन 19
पीए 19
साहिब 19
गंदगी 19
चयन 19
बन्हले 19
शिला 19
लाई@@ 19
धर्म, 19
बंगलौर 19
धिकार 19
तरफा 19
अँगरे@@ 19
गोलाई 19
ड़त 19
चाय@@ 19
चाहिए 19
आउ@@ 19
भ्रमण 19
बदौलत 19
हिअ। 19
92 19
अनुच्छेद 19
भट@@ 19
उनहीं 19
केश 19
हाईस्कूल 19
राजमार्ग 19
पार्टियन 19
दोस्ती 19
कटा 19
आशीष 19
शास्त्र, 19
बिर@@ 19
लेश्वर 19
दीप@@ 19
मल्ल 19
ल्ड 19
परान 19
मध्यम 19
बताई 19
विवेकानंद 19
महक 19
76 19
चन्द्रमा 19
सुदामा 19
फूहड़ 19
जुलत 19
प्राइ@@ 19
ओपन 19
ब्यू@@ 19
जूनियर 19
दाता 19
मतदाता 19
सकती 19
रहल; 19
दिहलस, 19
बोलले, 19
समि@@ 19
वेन 19
नाश्ता 19
खाद्य 19
बिधि 19
खतिर 19
रखत 19
खिलौना 19
उम्मीदवारन 19
+ 19
पोर्ट 19
खट्टर 19
98 19
राकांपा 19
चंडीगढ़ 19
ठाकरे 19
चिदम्बरम 19
उच्चतम 19
ग्रेड 19
जन्म@@ 19
वेस्ट 19
अफ्रीकी 19
चतुर्वेदी 19
ंद्र@@ 19
थाईलैंड 19
टेंडर 19
नोबल 19
फेयर 19
म्स 19
de@@ 19
शिकागो 19
राज्य, 19
आर॰ 19
दर्रा 19
दुल्हा 19
हिंदू, 19
बहुधा 19
इंदू 19
सूर्योदय 19
सी॰ 19
बियन 19
1980 19
if@@ 19
िल 19
शोहदा 19
ंगे। 19
मैदा 19
स्पि@@ 19
क्योंकि 19
मुख्यपृष्ठ 19
ऐसन 19
प्रोफ़ाइल 19
होस्ट 19
परेड 19
फेडरेशन 19
फाइनेंस 19
वैसे 19
फ़ि@@ 19
चट्टानी 19
ब्राजील 19
भरतपुर 19
कटाव 19
स्कै@@ 19
दुन्नो 19
स. 19
?" 19
सउसे 19
"), 19
1942 19
जेकरी 19
क्षय 19
फारस 19
निचली 19
डेल्@@ 19
कैश 19
में @@ 19
मराठा 19
79.@@ 19
%) 19
राप्ती 19
बितरण 19
(अंगरेजी:@@ 19
iv@@ 19
कॉकेशस 19
गोमती 19
।<br> 19
es 19
परिनिर्वाण 19
खंड) 19
डाइरेक्ट 19
II 19
(I@@ 19
कैरेबियन 19
(गाविस) 19
फोर्ड 19
93 19
बै॰:"@@ 19
परौठा 19
द्वि@@ 18
शुभ@@ 18
तरे@@ 18
जानल-मानल 18
नेता@@ 18
पक 18
ार्थ 18
पूछनी 18
नागरिकता 18
रखला 18
मूड़ी 18
देसु 18
बँवारा 18
एहिसे 18
चौदह 18
रविशंकर 18
पुरावे 18
शान्त 18
ें। 18
मला 18
भड़@@ 18
सिखावे 18
लड़ 18
घी 18
लागो 18
परिवार@@ 18
काठ 18
होखसु। 18
गड@@ 18
देली 18
घटत 18
जीप 18
फिरकावाराना 18
कही@@ 18
देवी, 18
तुरंत 18
खइला 18
नन्द 18
श्रीमती 18
विश्वविद्यालयन 18
अढ़ाई 18
वलसि। 18
हैसियत 18
नीच 18
छल@@ 18
कावल 18
गाँठ 18
रहब। 18
टिका 18
गाँधी@@ 18
मानि@@ 18
अभ्यास 18
बतवलें 18
आम्रपाली 18
पायल 18
तथाकथित 18
कलात्मक 18
सुनी 18
अन्तर 18
नियति 18
वरन 18
जातीय 18
लय@@ 18
चइ@@ 18
इनार 18
संवेदन 18
कउवा 18
कइलन, 18
देखे@@ 18
उनु@@ 18
पचा@@ 18
कउ@@ 18
देखी@@ 18
गाली 18
आँच 18
खोर 18
नीं@@ 18
प्त 18
दलित-@@ 18
सम्हार@@ 18
पहिर 18
मनावत 18
ो, 18
दुअर्थी 18
रामदेव 18
अनुरोध 18
चत 18
उतजोग 18
लाल, 18
खुर@@ 18
लागी, 18
अइहें 18
निये 18
सूट 18
अछरंग 18
फाटल 18
किन@@ 18
खारा 18
नरसंहार 18
गांव@@ 18
विद्यानिवास 18
तरल 18
षण@@ 18
परेला 18
प्रशिक्षण 18
व्यक्ति@@ 18
वता 18
हने 18
बुता@@ 18
लिहनी। 18
सोहा@@ 18
लरि@@ 18
पँ@@ 18
कुँ@@ 18
मुँह@@ 18
सित 18
मीत 18
जेएनयू 18
प्रधान@@ 18
अध्यक्षा 18
राजकुमारी 18
नह@@ 18
कैथोलिक 18
उड़ा@@ 18
मुठभेड़ 18
करत, 18
पाठ@@ 18
छूटे 18
सीरिया 18
माली 18
षित 18
सम्मत 18
कम्प्यूटर 18
कम्प@@ 18
रति 18
बसे 18
अझुरा 18
तुर@@ 18
रित 18
इयन 18
आइब 18
हले 18
दाय@@ 18
नरे@@ 18
सरो@@ 18
गुजरल 18
खों@@ 18
ओहीजे 18
हईं, 18
घुसे 18
दंग 18
जला@@ 18
राखे@@ 18
तर-@@ 18
करप्शन 18
बेट@@ 18
सीख@@ 18
नाती 18
जनमत 18
म’ 18
मुद्दन 18
जाइत। 18
पकड़े 18
धम@@ 18
सुनावे 18
लगल 18
कटल 18
टूटि 18
कबि@@ 18
लउकी 18
धड़@@ 18
जुड़ 18
दरअसल 18
पूर्वक 18
सरधा 18
समझत 18
क्री@@ 18
सेकूलरिज्म 18
ऊ, 18
संजीव 18
एट@@ 18
सिखावल 18
केकरो 18
लगे। 18
मरद-मेहरारू 18
सुख-@@ 18
चलीं। 18
काइ@@ 18
भइलन 18
सीढ़ी 18
रावे 18
फिलिम, 18
दिनन 18
सजावल 18
सिक 18
१९@@ 18
अनजाने 18
बान@@ 18
भास्कर 18
पढ़ावल 18
अरूण 18
महाकाव्य 18
जीवित 18
महे@@ 18
खासकर 18
संग्रहालय 18
हड़ताल 18
कहते 18
सुघराई 18
कुशल 18
तेरा 18
निशा@@ 18
शिवपाल 18
इलाहा@@ 18
किता@@ 18
देखने 18
टीला 18
अंतर्@@ 18
ँग 18
बायाँ 18
बाजारू 18
तनिक 18
आजुए 18
प्रभुनाथ 18
गुड 18
नुमा 18
कोख 18
पिट@@ 18
होखें 18
वर्ग@@ 18
सामा@@ 18
ेले 18
31@@ 18
प्राणी 18
बिग्यान 18
ऑक्सीजन 18
बापे 18
ण्डा 18
टेक 18
दुब@@ 18
जरा@@ 18
चिता 18
विराम 18
हसन 18
डू 18
पंजा 18
तैनात 18
स्का 18
निखिल 18
थान 18
देना 18
हिंदुस्तान 18
आसन 18
साड़ी 18
भागत 18
i 18
भन 18
मैनेजर 18
ट्री@@ 18
वइया 18
देखली 18
ना) 18
पड़ी, 18
बसे@@ 18
बाल@@ 18
बिता@@ 18
जरूर@@ 18
भारते 18
कमेटी 18
नार्@@ 18
हाव@@ 18
री) 18
बंग@@ 18
नाटककार 18
तमा@@ 18
पंचमी 18
पृथ्वी@@ 18
निम्नलिखित 18
उच्@@ 18
पैर 18
117@@ 18
ज्योति@@ 18
नून 18
प्रवास 18
रचना, 18
झट@@ 18
नीं। 18
पुरुष@@ 18
मूल@@ 18
कहऽ 18
मेहरारूवन 18
कुणाल 18
गणितज्ञ 18
रूट 18
न्य@@ 18
मिन@@ 18
नष्ट 18
उगि@@ 18
विन्@@ 18
व) 18
मे़ 18
आतंकवादियन 18
जतवले 18
बानर 18
कहलें, 18
अकसर 18
पवलस। 18
अर्चना 18
इम्तिहान 18
चिचि@@ 18
पाय@@ 18
ठठा 18
फइले 18
भर्ती 18
तुर 18
84 18
उत्तराधिकारी 18
गर्दन 18
अंगु@@ 18
चाणक्य 18
फ्रे@@ 18
सुन्नर 18
८@@ 18
कोइला 18
दारू 18
पतुरिया 18
पै 18
मोहब्बत 18
‘प्रेम’ 18
हिडिम 18
झुकाव 18
महंगाई 18
राजघराना 18
खम्हा 18
संगीत@@ 18
प्रेशर 18
जगनाथ 18
पाड़ा 18
दीपिका 18
दीक्षित 18
पेन 18
मिर्जा 18
धनबाद 18
अमीरात 18
गोंडा 18
डिय@@ 18
भीखा 18
युनाइटेड 18
सोलर 18
सिने@@ 18
गोवि@@ 18
सेल 18
मिस्र 18
माइक्रो@@ 18
ter@@ 18
मधुबनी 18
इस्टे@@ 18
रमन 18
स्टैंडर्ड 18
श्व@@ 18
बापी 18
मधुकर 18
हेगड़े 18
थ्रिलर 18
दीप, 18
डबिंग 18
हिंदू@@ 18
बर्मा 18
प्रमोशन 18
किरन 18
सागर, 18
1955 18
क्लासिकल 18
रीन 18
विष्णु@@ 18
२१ 18
कुछो 18
is 18
सपाट 18
जियो@@ 18
शनल 18
देहरादून 18
सिरीज 18
सिलि@@ 18
नवरात्र 18
बनने 18
परफार्मेंस 18
डच 18
आकर्षित 18
कजरा 18
बारूद 18
मेगा@@ 18
बसिया 18
कोन 18
झाँसी 18
ग्रेटर 18
अजा 18
बिलुप्त 18
गएल। 18
ली. 18
संबैधानिक 18
पठारी 18
43@@ 18
इत्यादि) 18
संजुक्त 18
(3@@ 18
1936 18
ग्रि@@ 18
"ओ@@ 18
दक्खिन-पूरुब 18
मील) 18
कन्नौज 18
समशीतोष्ण 18
ट्रां@@ 18
निकसे 18
पुरम 18
कारण, 18
गइलेन। 18
ion@@ 18
er) 18
ric@@ 18
140@@ 18
कलिंग 18
170@@ 18
तीतर 18
फ़्रांस 18
नमकीन 18
43 18
इलाम 18
(W@@ 18
हिमानी 18
चूसे 18
कैनियन 18
पनीर 18
एक्टर, 18
पैरामाउंट 18
मोटू 18
वर्गकिलोमिटर 18
अनगिनत 17
करु@@ 17
कॉम 17
बिआ@@ 17
जनेऊधारी 17
अवधारणा 17
राते 17
मिंग 17
राजग 17
चहुँपा 17
साईं 17
पुत्र@@ 17
लसि, 17
होश 17
बरी@@ 17
घोटा@@ 17
पंजाब, 17
लक्ष@@ 17
बर्दाश्त 17
तोस 17
कुं@@ 17
गिरा 17
अनशन 17
स्टील 17
तहाँ 17
पॉलि@@ 17
हार, 17
एहले 17
चौबीस 17
मझ@@ 17
बैठ@@ 17
मनो 17
जइसहीं 17
चरि@@ 17
खोजले 17
लागेला, 17
खासमखास 17
पठ@@ 17
कवितन 17
फुट@@ 17
बरनन 17
बिद@@ 17
सदा@@ 17
श्रा@@ 17
वर, 17
च्छ@@ 17
चउथका 17
उम्र 17
औकात 17
बाड़न, 17
बन्ह@@ 17
धड़कन 17
प्रतिरोध 17
बला@@ 17
मन-@@ 17
खोरी 17
बच्ची 17
कांग्रेसे 17
तन्@@ 17
त्र, 17
्यन 17
बचावत 17
काटत 17
जिन्@@ 17
दिनांक 17
लाइव 17
बनि@@ 17
किस्मत 17
अबीर 17
हिन्दु 17
पाँ@@ 17
देखब 17
पाँचवा 17
फीचर 17
विख्यात 17
अनुज 17
श्रीवास्तव, 17
कुम्@@ 17
कांग्रेसियन 17
इग्नू 17
सहन 17
हारल 17
मजाल 17
तूड़ 17
दीह@@ 17
भोजपुर@@ 17
सुबह 17
पद्धति 17
पढ़ले 17
मत। 17
चानी 17
लउक 17
लि। 17
बतावेला 17
दरा 17
ते, 17
मनले 17
तर, 17
दल@@ 17
घुम@@ 17
लगी 17
अब्बो 17
रघु@@ 17
मिलले 17
बोले@@ 17
बढ़नी 17
ले; 17
पहिर@@ 17
नकली 17
काटि 17
बढ़वले 17
बुझाए 17
धमाका 17
न्ही 17
संप्रभु 17
बेर-बेर 17
पहिरल 17
नइख@@ 17
कनो 17
होखबे 17
संहार 17
इन, 17
उड़@@ 17
रेंस 17
समाजिक 17
हासन 17
खानपान 17
अंदा@@ 17
मारि@@ 17
रहित। 17
व्यावसायिक 17
पाँच@@ 17
जे, 17
बढ़ावा 17
हाँ। 17
बने। 17
श्वरी 17
वु@@ 17
मजूर 17
सर्ग 17
ूर 17
रियन 17
बतियावल 17
महि@@ 17
फोर 17
दिक 17
जोड़े 17
होखब। 17
सुखा@@ 17
फला@@ 17
तन। 17
44 17
लीहें। 17
मिलावे 17
बोकारो 17
कहलें- 17
रहस 17
करवट 17
बेटन 17
झल 17
ओहके 17
कइल@@ 17
साव@@ 17
बातन 17
खोलल 17
श्रीनगर 17
मानेला। 17
वइ@@ 17
आआपा 17
जंतर 17
हाइल 17
नम@@ 17
सोनू 17
भीष्म 17
छंद 17
लित 17
क्ला@@ 17
प्रयोग@@ 17
दास, 17
ह? 17
तला 17
ईं, 17
पत्रि@@ 17
स्पीड 17
तः 17
बिलकुल 17
चिंतित 17
हकदार 17
बट@@ 17
अक्षय 17
प्रीतम 17
सांस 17
प्रभु@@ 17
बिचार@@ 17
…’ 17
बिन्@@ 17
अन्तिम 17
खेला 17
गुण@@ 17
अक्ष@@ 17
हाला 17
उदासी 17
देबि। 17
३० 17
सुंदर 17
महेन्दर 17
वाह@@ 17
पल्@@ 17
साधु@@ 17
कला, 17
इम्@@ 17
बनावेला। 17
क्ता 17
निया, 17
रामेश्वर 17
जुटावे 17
सेल्@@ 17
प्राइमरी 17
व्यंग 17
ठहर@@ 17
ंगे@@ 17
पहचा@@ 17
आवश्यक 17
सिय@@ 17
दया@@ 17
किडनी 17
हें@@ 17
हिल 17
जाइब। 17
सृष्टि 17
मेटा 17
दिल्‍ली 17
न्‍@@ 17
तु, 17
साहु 17
विक 17
वस्तु 17
खा। 17
पिछलका 17
अनुरूप 17
निहाल 17
आगम 17
लेश@@ 17
नवाज 17
बड़े 17
धुँआ 17
भरसक 17
सांचो 17
बोझ 17
पिछड़ा 17
टाई 17
बरा 17
भारत। 17
नी) 17
पुलि@@ 17
हनी 17
अवि@@ 17
एला@@ 17
बोलऽ 17
डेरा@@ 17
कोहबर 17
कुल्@@ 17
मस्@@ 17
राजने@@ 17
या। 17
लॉस 17
टक 17
सजीव 17
संबं@@ 17
सरी 17
वासियन 17
अवले 17
av@@ 17
संरक्षक 17
समाहित 17
माई-बाप 17
आखर 17
दीर्घ 17
मल्@@ 17
बीन 17
स्तन 17
सुनीता 17
कलेक्शन 17
वितरक 17
सुहा@@ 17
डायरेक्टर 17
इच्छा@@ 17
ओइजा 17
इनकार 17
मेम 17
अजबे 17
छोड़ीं 17
ज्ञान@@ 17
हमार’ 17
ड्यू@@ 17
सून 17
टुकड़ा 17
ap@@ 17
असमिया 17
कथा-@@ 17
बंध 17
राजगीर 17
जटिल 17
सल्तनत 17
ow@@ 17
पड़ेला 17
यहूदी 17
उद्यम 17
वस्था 17
सिंध 17
असम@@ 17
मसा@@ 17
दू-@@ 17
आचार 17
शायरी 17
पसन 17
6-@@ 17
जैविक 17
फूट 17
वाल्मीकि 17
भौगोलिक 17
म्ब@@ 17
गोदावरी 17
नर्मदा 17
प्रा 17
उज्@@ 17
दीक्षा 17
बाहु@@ 17
बेल्@@ 17
पुन@@ 17
लड़की 17
निभावे 17
एफ 17
मिस्टर 17
धोनी 17
लपुर 17
रिक 17
पिंग 17
ख़@@ 17
जियन 17
पलट 17
याँ 17
गॉ@@ 17
लेस 17
ियात 17
तारी@@ 17
कैंसर 17
ऊँख 17
हैं@@ 17
हँसि 17
ठुमरी 17
इनहीं 17
जले 17
कठोरता 17
यर, 17
कुमारी 17
बेदी 17
ताड़ें 17
ट्रैक्टर 17
पियला 17
मोज@@ 17
खरीदारी 17
वायु 17
‘चल@@ 17
डिब्बा 17
1930 17
मण@@ 17
स्नान 17
कॉपी 17
स्की 17
छान 17
घोष@@ 17
निगरानी 17
वर्दी 17
देवरा 17
210@@ 17
रामगुलाम 17
बदली 17
मिलत। 17
जरि 17
दीपावली 17
दर्शको 17
टकरा 17
सेमीफाइनल 17
अड्@@ 17
वसूली 17
ब्लैक 17
करोड 17
जू 17
नई@@ 17
सप्लाई 17
42@@ 17
91 17
41 17
कराची 17
पोरबंदर 17
ion 17
अरो@@ 17
81 17
हुसै@@ 17
के॰ 17
अगहन 17
गंगोत्री 17
स्टंट 17
अमरीकी 17
गार्ड 17
फोकस 17
गिरीश 17
सिंगर 17
ऑटो@@ 17
ist@@ 17
बौना 17
पीआरओ 17
हैरी 17
कना@@ 17
गौरी@@ 17
1973 17
मणि@@ 17
1934 17
आकाशवाणी 17
थे। 17
म्यूजियम 17
न्ना 17
बॉस 17
सीरिज 17
ब्रा 17
चड्ढ़ा 17
पूर्वाह्न 17
शशिकला 17
व्हाइट 17
शव 17
हरण 17
मँगावत 17
आर्काइव 17
निचे 17
फेस्टिवल 17
टावर 17
अजमेर 17
ईस्वी 17
कांसेप्ट 17
चौड़ा 17
परिचालन 17
गएल 17
ले. 17
रामचनर 17
00 @@ 17
दौरान, 17
स: 17
बाटे; 17
दीपसमूह 17
1985 17
केबिल 17
ईसापूर्व 17
बंगाल, 17
रेस्तरां 17
86 17
.9@@ 17
"स्@@ 17
आइएसओ 17
4% 17
मोताबिक, 17
बिद्या 17
मकबरा 17
ज़ी@@ 17
टी) 17
भूगोलवेत्ता 17
ंग" 17
ub@@ 17
शिल्पा 17
गॉर्ज 17
इकोलॉजी 17
नागालैंड 17
ing 17
in 17
de 17
10,@@ 17
(L@@ 17
(197@@ 17
बिंदुसार 17
कलर 17
(अंग्रेज़ी:) 17
C) 17
ताप्लेजुंग 17
जीबी 17
जेने@@ 17
चिरई) 17
रियम 16
जयकान्त 16
शील 16
राजे@@ 16
न,@@ 16
गण@@ 16
चैन@@ 16
चीफ 16
कहेलें 16
घंटी 16
सचहूं 16
भूगोल, 16
महफिल 16
हारे 16
हिन्दु@@ 16
मेहमान 16
द्ध@@ 16
प्रसाद, 16
होइहें। 16
कतार 16
छोड़ल 16
जाति-@@ 16
नक 16
नेहरु 16
दा-@@ 16
सारधा 16
लगवला 16
सको 16
ओहिजो 16
द्वी@@ 16
लड़ि@@ 16
बुढ़िया 16
वारे 16
टाँ@@ 16
हटा@@ 16
मम@@ 16
फिर@@ 16
धनुष 16
आकर्षक 16
केहूँ 16
क्लि@@ 16
आउट@@ 16
मन, 16
सुखद 16
श्रोता 16
कान्त 16
देवर@@ 16
नीर@@ 16
साथियन 16
संधि@@ 16
सोहर 16
खरीद@@ 16
अपहरण 16
वशिष्ठ 16
यज्ञ 16
सुनिके 16
ध्य@@ 16
च्यू@@ 16
खंभा 16
आजकल 16
ग्या@@ 16
रला 16
मूल्यवान 16
अक्षरा 16
दिवा@@ 16
आत्मीय 16
अनुष्ठान 16
हार्@@ 16
वत, 16
अगो@@ 16
इमानदारी 16
रेप 16
निपट 16
दुलार 16
समर्थकन 16
पीस 16
स्टि@@ 16
कहात 16
टुक@@ 16
वली। 16
हिंदु@@ 16
गँवे-गँवे 16
पढ़ा@@ 16
रंगकर्मी 16
तिया@@ 16
चहुँपल। 16
दिए 16
कगार 16
मिलावल 16
घाघ 16
ंके 16
अल्लाह 16
अमेरि@@ 16
सौदा 16
सीटन 16
छाड़ 16
सँ, 16
गुर्@@ 16
पटाखा 16
हजारी 16
बौद्धिक 16
समर्पण 16
मूर्ति@@ 16
कानू@@ 16
पढ़ि 16
दित 16
स्ती 16
गरीबन 16
खाँ@@ 16
संपाद@@ 16
आकलन 16
गंभीरता 16
नित 16
नग@@ 16
ेवाला 16
किछु 16
ग़ज़ल 16
हेर@@ 16
जेतने 16
झं@@ 16
खत 16
ऽ! 16
झे@@ 16
प्रीति 16
दउरल 16
खयाल 16
गुं@@ 16
थाती 16
ऽता, 16
सिल 16
गुंजाइश 16
गन्@@ 16
दुःख 16
देखलें 16
लाला 16
नहा@@ 16
मुद्@@ 16
तई 16
पहिरले 16
छत्ता 16
फट@@ 16
प्रचार@@ 16
स्व। 16
काश 16
दायक 16
राष्ट्रगान 16
टें@@ 16
जीय@@ 16
सरह@@ 16
हे, 16
जाइ 16
भावनात्मक 16
कान@@ 16
आह 16
परिक्रमा 16
जगह, 16
वस 16
नी’ 16
अच्छा@@ 16
भाव, 16
अंगीकार 16
फूहड़ता 16
सीएम 16
माई-@@ 16
जाएब 16
माया@@ 16
फार 16
बढ़न्ती 16
मरि@@ 16
देलस 16
जुड़@@ 16
जानबूझ 16
मुकाबले 16
रंग-@@ 16
तलवार 16
फरीक 16
सारे 16
विलय 16
सबे@@ 16
नकदी 16
हऊ 16
मट@@ 16
त्मा 16
देहले 16
णीय 16
सतरह 16
पूछलन 16
देव, 16
कीन 16
मलकिनी 16
भाई। 16
असीम 16
आस-पास 16
पितामह 16
पढ़ीं 16
बचन 16
तब, 16
भण्डार 16
उपयोगी 16
लोकतांत्रिक 16
ठा, 16
जीता 16
रेड्डी 16
दान@@ 16
सर्जिकल 16
डाल@@ 16
घोष, 16
सम्हर@@ 16
कहीं, 16
पुजारी 16
झां@@ 16
मही@@ 16
दिखा@@ 16
राम, 16
हिला 16
नीके 16
आहि 16
।। 16
ड़-@@ 16
हूँ@@ 16
सचेत 16
छायांकन 16
तला@@ 16
खाति@@ 16
बितावे 16
ंग्स 16
ऑन 16
टाइल 16
दें@@ 16
ग्रंथन 16
अड़@@ 16
परिकल्पना 16
गाते 16
प्रशं@@ 16
२००@@ 16
दलदल 16
तूड़ 16
इश्क 16
शक्ति@@ 16
रमबोला 16
योज@@ 16
स्वयं 16
महेंदर 16
1924 16
सूते 16
जें@@ 16
लोकजीवन 16
अह@@ 16
्यो@@ 16
आखि@@ 16
आलेख 16
धिक 16
झा, 16
सों@@ 16
के’ 16
कृष्णदेव 16
उछ@@ 16
बच्@@ 16
प्रिंट 16
कहीं-कहीं 16
कमेंट 16
दौड़ 16
डरे 16
हजारे 16
टिया@@ 16
ष्‍@@ 16
उख@@ 16
द्धि@@ 16
गाजियाबाद 16
परेला। 16
असा@@ 16
टाइन 16
चढ़ि 16
हिंदी@@ 16
खं@@ 16
ंग-@@ 16
डिक्शनरी 16
अध्याय 16
बगइचा 16
लिखीं 16
लेले। 16
पवले। 16
सलाहकार 16
समाजवाद 16
बुढ़ऊ 16
पुट 16
जुटि 16
ऽतानी 16
इत 16
ठी@@ 16
ाइल 16
लड़ि@@ 16
(जेकरा 16
भउजी, 16
फुआ 16
रेला। 16
चलला 16
कों@@ 16
सिहं 16
प्रिय@@ 16
कुश 16
पांडव 16
लिंग@@ 16
ाराम 16
रसा 16
भाई-बहिन 16
अचानके 16
निर्यात 16
किर 16
निकलले 16
डूबत 16
रखलन 16
ढेरहन 16
अइनी 16
अलबम 16
द्दर 16
ठहरल 16
जवानन 16
मिलेला, 16
के? 16
समे 16
पुस्तकालय 16
फिल्मावल 16
ग्राफी 16
ड़िया 16
टेला 16
उच्च@@ 16
हिस्सा, 16
फ़ 16
क्लिक 16
अतिरिक्त 16
स्ट्री@@ 16
नदिया 16
देखभाल 16
नया@@ 16
पुरखा 16
ध्रुवीय 16
विद्यापीठ 16
स्टेज 16
कालि@@ 16
रोमांस 16
भू 16
us) 16
k 16
अलगा-अलगा 16
The 16
कन्या 16
सर्वे@@ 16
तत्काल 16
पालतू 16
नंगा 16
निभा@@ 16
ण-@@ 16
बनवासी 16
आश्र@@ 16
शत 16
करण, 16
सुतल 16
उत्पाद@@ 16
साम्राज्यवाद 16
चुनौतियन 16
मार्क्स 16
क्यो@@ 16
पशु@@ 16
झर@@ 16
मीटर@@ 16
एक्सप्रे@@ 16
अनुयायी 16
धौ@@ 16
मुस्कान 16
एस. 16
जतावल 16
रोज@@ 16
असहज 16
हेलो 16
लघु 16
झग@@ 16
गार्@@ 16
अरा@@ 16
दिशाईं 16
होस 16
ैं 16
खुश@@ 16
धरमपत्नी 16
विंड@@ 16
उवा 16
ंपल 16
चाप 16
कमंडल 16
सिगरेट 16
कोयलरी 16
गयल। 16
मंगल@@ 16
साथ। 16
जलपान 16
फल@@ 16
आपसे 16
क्षी 16
महाबली 16
स्व॰ 16
मर्यादा 16
X@@ 16
दहन 16
दिव्य 16
गया। 16
आयुक्त 16
गोण्डा 16
साइबर 16
कटौती 16
व्यवसायी 16
नू। 16
अवार्@@ 16
डेमोक्रेटिक 16
रसड़ा 16
परीक्षण 16
रोजाना 16
चिंटू 16
वाड़ 16
गिरफतार 16
बीबीसी 16
इंडिगो 16
विकेट 16
फायरिंग 16
किरा@@ 16
तारा@@ 16
मार्टिन 16
ध्यक्ष 16
मानसरोवर 16
लाख) 16
रहमान 16
फ्रेडरिक 16
िय 16
बालाजी 16
सनोज 16
टाइटिल 16
ऑपरे@@ 16
हालिया 16
बारिश 16
सिस्ट@@ 16
22@@ 16
अमेठी 16
कुर 16
बोर्@@ 16
पारा 16
मछली 16
जईसन 16
ंडा@@ 16
मून 16
समानांतर 16
अई@@ 16
बूंट 16
घाघरा 16
पका 16
चाहता 16
उसकी 16
कर्ण@@ 16
शनिवार 16
राजपुर 16
किस 16
अपराह्न 16
एकत्रित 16
ख़ान 16
हिमालिनी 16
बीएन 16
द्रव 16
गिक 16
खगोलीय 16
शहरीकरण 16
ग़@@ 16
हुये 16
स्टन 16
बिकास@@ 16
ब्रह्मा 16
गईल@@ 16
एंड@@ 16
नैनी 16
अंबेडकर 16
सिंधु@@ 16
आकाशीय 16
….। 16
डाॅ0 16
पहिचानक 16
ख़ाली 16
समुंद्र@@ 16
हाइड्रो@@ 16
 % 16
डब्लू@@ 16
1983 16
1996 16
एईजा 16
(18@@ 16
A 16
ma@@ 16
300@@ 16
पतझड़ 16
ob@@ 16
uc@@ 16
dic@@ 16
ह्यू@@ 16
1920 16
गइलेन 16
आयरिश 16
76.@@ 16
आक्सीजन 16
रेडियोएक्टिव 16
महाजनपद 16
(मने 16
फिलिम) 16
जोधपुर 16
od@@ 16
im@@ 16
21,@@ 16
ड्र@@ 16
 के 16
लॉक 16
दुआरा 16
यूरेशियाई 16
99 16
उदगम 16
5,@@ 16
(F@@ 16
होखें। 16
नगीचे 16
118@@ 16
यूके 16
(लगभग 16
129@@ 16
कोरियाई 16
सूँस 16
इमरजेंसी 16
अंटार्कटिका 16
ी" 16
किर्@@ 16
ल्फ 16
116@@ 16
कबाब 16
एतिहाद 16
गेज 16
इंटरसिटी 16
नोकिया 16
अर्नमा 16
त्रिभुवन 15
किया। 15
इन्टरनेट 15
प्रमुखता 15
नें 15
बिलाई 15
बीते 15
िओ 15
रहऽ 15
छितरा 15
अभिया@@ 15
टी-@@ 15
बों 15
मिलते 15
गिन@@ 15
कसर 15
भव@@ 15
निकलला 15
बाड़ऽ 15
कुकुरबझाँव 15
तानाशाह 15
चुपा 15
झेले 15
टोल 15
पछता@@ 15
मथैला 15
मायने 15
न्दर 15
चढ़ा 15
सिग्नल 15
तइसे 15
गठ@@ 15
तेवहार 15
दाबाद 15
नरी 15
ध्य 15
कर्मी 15
प्रेमशीला 15
सर्जन 15
होखऽ 15
त्रिशंकु 15
पुरुषार्थ 15
ष्ठ@@ 15
अन्त 15
राहि 15
भईंस 15
नाते 15
कार्यपालिका 15
बान्हे 15
कहाई 15
बीए 15
नके 15
खेतन 15
आपुसी 15
आत्मीयता 15
अगराइल 15
सजा@@ 15
बिछ@@ 15
छोड़े 15
भाला 15
जाट 15
विशेष@@ 15
ज्ञ@@ 15
नका 15
छोड़ि 15
बइठकी 15
टियन 15
चाहेला। 15
एक्ट 15
मौनी 15
ढ़ा 15
बैर 15
नैतिकता 15
थाह 15
दुश्मनी 15
स्पी@@ 15
पदाधिकारी 15
झूठ@@ 15
बबुअवा 15
मेघालय 15
जरू@@ 15
बन्दी 15
बुल@@ 15
संघर्ष@@ 15
हरेक 15
पल्लवी 15
हस्ताक्षर 15
दिना 15
अविनाश 15
द्वा@@ 15
गह@@ 15
बाझल 15
खिया 15
ससु@@ 15
पोसल 15
गड़बड़ी 15
क्रिसमस 15
अध्यापक 15
मए 15
टल, 15
छव 15
विश्राम 15
माछी 15
माई। 15
तीर्थ@@ 15
सच्@@ 15
बरन 15
।’’ 15
संतोख 15
एघरी 15
टीवी, 15
उत्कृष्ट 15
करो। 15
हव 15
हम। 15
ठोकर 15
नेह-@@ 15
सूरदास 15
आवेला, 15
हरे@@ 15
रोक@@ 15
भाखा 15
आँखी 15
कै 15
बाट 15
बन-@@ 15
ओनकर 15
गुजरत 15
दारन 15
तक, 15
बुधवार 15
मस्ती 15
बँट 15
बेवकूफ 15
गिन 15
शिवाजी 15
कुर्ता 15
रजिस्टर 15
इमाम 15
रिटी 15
देली। 15
फैक्टरी 15
क्रिया-@@ 15
करनी 15
वंश@@ 15
होखीं 15
इले। 15
तर्@@ 15
निकलल। 15
डें@@ 15
रम 15
षी 15
हरिया@@ 15
ल्हा@@ 15
कनिया 15
तन, 15
रहें 15
सवार@@ 15
पना@@ 15
मय@@ 15
अपने@@ 15
गनीमत 15
खाइ@@ 15
हँस@@ 15
सोगहग 15
उर्@@ 15
फइलाव 15
लागे, 15
जनला 15
भाँ@@ 15
केहू@@ 15
देखाव@@ 15
जला 15
पेंच 15
अतहत 15
वसु@@ 15
370 15
मों 15
बरदान 15
देखलस 15
कैद 15
असलियत 15
मजबू@@ 15
नां@@ 15
रचनन 15
स्वार्थ 15
रोचक 15
चार, 15
प्रगतिशीलता 15
मरत 15
फ्ले@@ 15
क्वालिटी 15
च्छ 15
केतनो 15
षन 15
बुढ@@ 15
आपे 15
गइल? 15
एगो@@ 15
एकमात्र 15
नियर, 15
डाक्ट@@ 15
लीट 15
घों@@ 15
सम्मान@@ 15
मस@@ 15
जिसका 15
मण 15
एसपी 15
कमिश्नर 15
बया@@ 15
दलाली 15
कल्लू 15
हर्ष@@ 15
मथ@@ 15
पांडेय, 15
उड़त 15
ल? 15
खेला@@ 15
बा…। 15
सुनके 15
टन@@ 15
दुलहि@@ 15
कहले। 15
नापे 15
देखेवालन 15
मांड@@ 15
सरन 15
एशिया@@ 15
जमावे 15
गृह@@ 15
परिणा@@ 15
तारी। 15
शोक 15
बिगड़ 15
रचयिता 15
पैसा 15
मेट 15
न्या@@ 15
मार्मिक 15
फगु@@ 15
मे। 15
जल, 15
घटे 15
सुरु@@ 15
प्रेम, 15
बेटा@@ 15
पुरहर 15
सम्पति 15
स्तम्भ 15
लीन 15
अदि@@ 15
हाई@@ 15
कॉलेज, 15
जागरूक 15
1957 15
काला@@ 15
उपन्यासकार 15
प्रधा@@ 15
…… 15
कारी@@ 15
विजयी 15
क्की 15
आरे 15
पंचाय@@ 15
बनाम 15
करेलन 15
देवर 15
अकाद@@ 15
‍य 15
मेंबर 15
‍त 15
जानेला 15
मुंशी 15
तूर 15
पी। 15
धता 15
पहुँचा 15
ऑडियो 15
ओवर 15
इली 15
हलुक 15
दिल्ली@@ 15
दसक 15
फोटोग्राफी 15
कले@@ 15
शर 15
अबर 15
फेड़ 15
साग 15
षण, 15
णन 15
बाँह 15
पौधन 15
सोता 15
परसो 15
वरो 15
भूल 15
करो@@ 15
अपवाद 15
दोहरा 15
बई@@ 15
हिल@@ 15
फं@@ 15
हमरी 15
ऊं@@ 15
दत 15
बइठावे 15
कुरुसी 15
बग@@ 15
बेद 15
इन्वर्सिटी 15
लटक 15
टूट@@ 15
पीय 15
बरोबरी 15
सावल 15
लिखनिहार 15
न्नी 15
महासभा 15
रहनी, 15
तने 15
हरिय@@ 15
रक्षाबंधन 15
फतेहपुर 15
सचिन 15
पर्व@@ 15
गरिमा 15
बुरा@@ 15
अर्ध@@ 15
दीर्घ@@ 15
सल्@@ 15
अग्रवाल 15
भ्रष्ट 15
प्यारे 15
मोहक 15
अरुणेश 15
गोविन्द 15
इंटरव्यू 15
”हम 15
ॉ 15
कहली। 15
पहुँचल। 15
बडहन 15
वान@@ 15
नवोदित 15
बिलग 15
देवल 15
ताड़@@ 15
पिछले 15
टकरा@@ 15
लब 15
चाँदी 15
बाउ@@ 15
तथ्य 15
डाली 15
;@@ 15
ंगु@@ 15
जैन, 15
आवेले 15
कांग@@ 15
लेब। 15
नदियन 15
ब? 15
बहार@@ 15
होय 15
(c@@ 15
(बी@@ 15
उच्चारण@@ 15
=@@ 15
प्रायः 15
ऋषि@@ 15
अपभ्रंश 15
चाहि@@ 15
बारी@@ 15
अस्मिताबोध 15
पैकेज 15
डियम 15
ई० 15
यूनिवर्@@ 15
सचि@@ 15
जंगल@@ 15
दसवीं 15
हवीं 15
कन्नड़ 15
नन्@@ 15
1967 15
मनु@@ 15
महोदय 15
धनतेरस 15
रहर 15
ग्रियर्सन 15
ज़ा 15
मुर्गी 15
काम, 15
समन्वय 15
ऐलान 15
बोधगया 15
सड़कन 15
13,@@ 15
मेरि@@ 15
इतिहास, 15
ठहराव 15
ज़ी 15
शून्य 15
वृत्त 15
तिसरकी 15
जुल 15
झार 15
उपनिषद 15
लर@@ 15
आपूर्ति 15
परसों 15
प्लेस 15
कारी, 15
चढ़ा@@ 15
वोह 15
अइलन। 15
साई@@ 15
886 15
ताके 15
लक्खी 15
होवे 15
दुई 15
सोचते 15
नाचि 15
खुलल। 15
बरतन 15
पंखा 15
बिटिया 15
विय@@ 15
पिटाई 15
टाई@@ 15
मदरसा 15
कहली, 15
मॉरिशस 15
सोनी 15
उतरले 15
भड़@@ 15
मोलायम 15
सिंग@@ 15
साय@@ 15
टोक@@ 15
कय 15
गयल 15
निका 15
बल्@@ 15
रिज 15
अवसाद 15
दिहलें, 15
नागरिकन 15
बाड़े, 15
्यों 15
जुधिष्ठिर 15
चुकी 15
बोलावे 15
हब 15
लगाके 15
दुआ 15
१७ 15
स्नेह 15
स्पेनिश 15
पेटी 15
साख 15
बिगड़ल 15
‘खून 15
नहीं’ 15
घराना 15
क्ष 15
47 15
ससुरारी 15
लाभ@@ 15
मोर्@@ 15
पूर्वज 15
सुरभि 15
एयर@@ 15
चन्द्रशेखर 15
पुलिस। 15
सदर 15
खिताब 15
मुरली 15
‘योद्धा’ 15
हाईवे 15
टकरइत 15
श्रृंखला 15
दिपावली 15
यूनिट 15
आईएएस 15
फरी@@ 15
चरस 15
स्वच्छता 15
हाकी 15
डाक्टरन 15
पहाड़@@ 15
मपुर 15
रजिस्ट्रेशन 15
पंचा@@ 15
अलीगढ़ 15
भुज 15
न्यायिक 15
अधीक्षक 15
टेशन 15
नितिन 15
न्यूयार्क 15
उपभोक्ता 15
महँगाई 15
ट्विटर 15
पसंदीदा 15
अमरोहा 15
लुधियाना 15
रविकांत 15
बारा@@ 15
तिरुपति 15
शंकराचार्य 15
सनातन 15
डाई@@ 15
शीला 15
सेक्रेटरी 15
पूजा@@ 15
हउए। 15
२५ 15
लरी 15
गुजर 15
जिन्न 15
कहवा 15
टोकियो 15
सेस 15
उजाला 15
गायत्री 15
उन्नाव 15
इंस्टीट्यूट 15
1500 15
ट्रांस@@ 15
स्लैंग 15
स्टार@@ 15
टर्मिनल 15
रायबरेली 15
इससे 15
टैग 15
जम्मूकश्मीर 15
बताया 15
कटिहार 15
शाहरुख 15
सुपर@@ 15
अबसे 15
आज़@@ 15
जिसमें 15
ल्यू@@ 15
एडि@@ 15
ब्राउज़र 15
संबद्ध 15
लोड 15
रॉय 15
ग्रो@@ 15
चक्रवर्ती 15
कनेक्ट 15
गोल्डन 15
मेहँदी 15
टीजर 15
इश्क़ 15
स्क्रीनिंग 15
दसवाँ 15
नउवाँ 15
आता 15
मेहता 15
उद्गम 15
००० 15
इका 15
छठवीं 15
जहवा 15
वाया 15
किशनजी 15
कार्ल 15
टाना 15
एयरलाइन्स 15
गर्म 15
लघुकथन 15
ग़ा@@ 15
नाँव, 15
नियो@@ 15
आतंरिक 15
जलोढ़ 15
ऍफ़@@ 15
82 15
ic 15
प्रोजेक्शन 15
9,@@ 15
(संस्कृत: 15
इलाका, 15
(अंगरेजी 15
1937 15
जमाव 15
ब्यवस्थित 15
खाती, 15
é@@ 15
प्रासेस 15
सोलुखुम्बु 15
49% 15
कलेज 15
समुद्रगुप्त 15
खुसरू 15
रेकार्ड 15
शिमला 15
फ़ी 15
93.@@ 15
वीं-सदी 15
पूजल 15
क्वी@@ 15
"मै@@ 15
87.@@ 15
all@@ 15
(जनम: 15
(195@@ 15
नी" 15
बिज्ञानी 15
जहाँगीर 15
120@@ 15
कांगो 15
बीछल 15
गहिरी 15
महाकाब्य 15
प्रोटीन 15
पश्चिमांचल 15
तारीफी 15
एस्टेरॉइड 15
फ्यू@@ 15
सबर्ग 15
आल्प्स 15
पंचांग, 15
oph@@ 15
ensis") 15
अमेजन 15
ब्रू@@ 15
मनोबिज्ञान 15
"बै॰:@@ 15
बर्टोलूची 15
विभोर 14
बापू 14
२४ 14
चित्रित 14
इलाकाई 14
सनसनी 14
लाँ@@ 14
रहेली 14
पुनर्@@ 14
सउ@@ 14
खाड़ 14
कहो 14
केप 14
रहती 14
ईयन 14
लोभ 14
पड़ि 14
विरो@@ 14
जुटान 14
बाहरो 14
दिआ 14
लड़ा@@ 14
लूटे 14
जोगाड़ 14
पाटन 14
गिलास 14
थू 14
सुलतान 14
बटोरे 14
उनुको 14
माह 14
मानी@@ 14
शिविर 14
झुण्ड 14
रोहि@@ 14
दुर्दशा 14
सुप्रीमो 14
नायडू 14
आइए 14
लीह@@ 14
मान-सम्मान 14
बबुआ। 14
पियाज 14
ियत 14
आपुस 14
होखहीं 14
कार्यवाही 14
तेयारी 14
ड़ी, 14
श्लील 14
बांध 14
फिलिमावल 14
फिरौती 14
क्षे@@ 14
धरे 14
पटक 14
चले। 14
रिश्तेदार 14
चुना@@ 14
अड़@@ 14
बगावत 14
बोलि 14
धन्य 14
सुने@@ 14
किशन, 14
शुभी 14
कटिया 14
बेग 14
सावे 14
सऽ, 14
नफरत 14
वारदात 14
दस्तखत 14
हेरा 14
बतवला 14
उपास 14
चनो 14
बसावल 14
आ। 14
हिया@@ 14
सरिता 14
अथ@@ 14
पाकल 14
लड़ी 14
नइखऽ 14
जोखिम 14
कार। 14
ताइल 14
कहियो 14
कारोबारी 14
साहित्यो 14
सुप्रसिद्ध 14
संगी@@ 14
मस्ताना 14
आर्य@@ 14
आश्वासन 14
रॉबर्ट 14
शांति@@ 14
पाए 14
मरा@@ 14
केजरी@@ 14
वाल, 14
डु 14
विपक्षी 14
मगन 14
बजा 14
लड्डू 14
ज्योति 14
टुकी 14
कांफ्रेंस 14
फोर्स 14
पुरस्@@ 14
आग्रह 14
एकह@@ 14
कल्प@@ 14
सरे 14
दमन 14
सत्या@@ 14
— 14
नील@@ 14
मानु@@ 14
राइ 14
फइलावे 14
साढ़े 14
होइत। 14
देहा@@ 14
मर्द 14
बुनियादी 14
अनर्थ 14
भोजपुरिये 14
मानिक 14
नाहीं, 14
नरम 14
निन 14
मान-@@ 14
वलो 14
ला? 14
कइगो 14
हियरा 14
नान्ह 14
कहीं। 14
अभियान” 14
आगा@@ 14
रस्@@ 14
लउके। 14
शौ@@ 14
अनेत 14
बाजे 14
समुझले 14
बल, 14
चाल@@ 14
बतवलसि 14
मा-@@ 14
सरो 14
कबहीं 14
न्यास 14
बाड़न, 14
देखीं, 14
भोगे 14
सांस्@@ 14
वट 14
धरत 14
भयंकर 14
लावत 14
तिया। 14
दीही। 14
लाह 14
चल, 14
भूभाग 14
बाद-@@ 14
आन्@@ 14
लीहें 14
चाभी 14
पलटी 14
बड़-@@ 14
दोसरकी 14
डोम 14
तेवर 14
मंथन 14
अंध@@ 14
दामिनी 14
चरन 14
पोढ़ 14
अउरीओ 14
सैकड़न 14
राए 14
एकतरफा 14
—@@ 14
कम, 14
देखऽ, 14
मगही, 14
पी, 14
दसो 14
राखेला 14
रास 14
ओरि@@ 14
अंगरे@@ 14
पताका 14
गौरी 14
भुलाइ@@ 14
लगीहें 14
करेलें। 14
पंचायती 14
कटो@@ 14
7, 14
देखके 14
अलो@@ 14
हँ। 14
रण@@ 14
प्लानिंग 14
नीज 14
अफवाह 14
जद@@ 14
छटपटात 14
1977 14
लेखनी 14
झलकत 14
कता, 14
हाट 14
माने। 14
लान 14
फँसल 14
गैर@@ 14
89 14
तुक 14
चतुर 14
पियले 14
ध्वनि@@ 14
समुझा@@ 14
गोरख@@ 14
धरम@@ 14
जनपद 14
जाँगर 14
कहाये 14
जल-@@ 14
फुट 14
टं@@ 14
डूबि 14
बत्ती 14
सुभा@@ 14
निर्मात्री 14
मारपीट 14
ार्ड 14
बढ़ि 14
टोली 14
इंत@@ 14
जगह-जगह 14
मिसि@@ 14
गुनी 14
मुं@@ 14
महारा@@ 14
लिलार 14
तहरो 14
रेवाज 14
खूंटा 14
क्रिएटिव 14
वेट 14
परोसत 14
आहट 14
बढ़के 14
भक्ति@@ 14
देखेवाला 14
सेवन 14
नीय@@ 14
पड़ोस 14
मा) 14
य) 14
अंजोरिया 14
ण) 14
एही@@ 14
सरोज 14
षण 14
महानगरपालिका 14
विश्वा@@ 14
दफ्तर 14
रामाय@@ 14
माधुरी 14
“बिदेसिया” 14
तां@@ 14
ओर। 14
राजकीय 14
बीच@@ 14
उभार 14
ढा 14
षडयंत्र 14
डह@@ 14
द्य 14
-प@@ 14
क्रांति@@ 14
झल@@ 14
बी. 14
प्रती@@ 14
प्रवृत्ति 14
वेश@@ 14
ष, 14
बनते 14
म्य 14
कविता, 14
ओर, 14
मार्ग@@ 14
केन्द्रित 14
सोना@@ 14
रंगा 14
क्षा@@ 14
विका@@ 14
जसहीं 14
ीं@@ 14
छात्रन 14
देता। 14
चाहते 14
रावत 14
कीर 14
नीलकंठ 14
अकु@@ 14
काशी@@ 14
राइन 14
कारत 14
बेहतरी 14
समस्यन 14
जल्द 14
जुड़े 14
को, 14
समाजो 14
कियो 14
बनाई। 14
पिताजी 14
नइखीं। 14
सूप 14
दिग्@@ 14
ंदा@@ 14
आजुवो 14
ईंटा 14
खोट 14
फ्लैश 14
अत 14
रघुवर 14
हरखू 14
लइकवा 14
अजीब 14
साल, 14
शौक 14
डाक 14
स्ट्रा@@ 14
लोहिया 14
इंच 14
मंटो 14
लिश 14
रच 14
ठि 14
साफ@@ 14
झे 14
तनि@@ 14
सुनी@@ 14
तोप 14
ियाइल 14
कुरु@@ 14
वहीं 14
गम@@ 14
कुली 14
पाँव 14
राजनीतिज्ञ 14
ँ। 14
इनिका 14
रसरी 14
करेलें 14
दस@@ 14
बेटी@@ 14
1। 14
ब्रह्म@@ 14
दलि@@ 14
बाड़ीं 14
जौहर 14
बृहस्पति 14
लापरवाही 14
यशस्वी 14
सहेली 14
देखीं। 14
शंख 14
‍य@@ 14
वंदना 14
२३ 14
रहस्य 14
अंजोर 14
स्त्र@@ 14
अया@@ 14
टाईगर 14
बेशक 14
स्टोरी 14
महीने 14
खों 14
बिता 14
बाँहि 14
लगहीं 14
इनकी 14
बइठका 14
मेज 14
खाना, 14
हॉस्टल 14
सामुदायिक 14
सुनिश्चित 14
पहुंचे 14
डेट 14
स्‍थान 14
महापर्व 14
मान्य 14
मुट्ठी 14
कमिटी 14
स्ट्री 14
जनन 14
गोर@@ 14
सोम 14
पुरस्कारन 14
ड्ड@@ 14
फिलिम@@ 14
गीतो 14
यकीन 14
शेक्सपियर 14
विधाय@@ 14
विद्रोह 14
राँ@@ 14
पत्ति 14
वर्त@@ 14
बनावे@@ 14
निकट 14
सुविधा@@ 14
बुद्धि@@ 14
बेन 14
मुफ्त 14
भद्र@@ 14
निकसल 14
(10@@ 14
गाई 14
पाया 14
काल, 14
म्या@@ 14
स्टिक 14
पुष्टि 14
ीकरण 14
फिराक 14
बारह@@ 14
ऊंच 14
सहकार 14
ताव 14
नॉर्थ 14
चन्द्र@@ 14
गांवन 14
भूला 14
जार्ज 14
मेडि@@ 14
मिसाइल 14
गुरुत्वाकर्षण 14
नार्ड 14
रमा@@ 14
किलो@@ 14
कनी 14
पोषण 14
अंकल 14
तट@@ 14
संकल्पना 14
अन्नपूर्णा 14
तप 14
पनि@@ 14
दिनों 14
आशारानी 14
होली, 14
जागत 14
कइसे? 14
फूहड़ता 14
बालीवुड 14
मैट्रिक 14
दिन। 14
हँसे 14
वेब@@ 14
रउवे 14
गेंहू 14
महा 14
हरभज 14
कभार 14
होइ 14
ढ़ी 14
रुकि 14
चंदौली 14
स्थिर 14
होलीं 14
बेच@@ 14
रहीम 14
देला, 14
०० 14
तहरी 14
तोहके 14
ताश 14
दुआरि 14
रावाँ 14
पुकार 14
सब्सिडी 14
देखि@@ 14
दुपट्टा 14
वृक्ष 14
ढेरि 14
तली 14
थार 14
बेहोश 14
मेटा@@ 14
बनवासियन 14
नहा 14
डाढ़ि 14
‘हँ 14
जिया-जंतु 14
जन्तु 14
बिद्या@@ 14
ठहर 14
कम्युनि@@ 14
वारि@@ 14
सदा 14
श्रे@@ 14
‘औरत 14
हैदर 14
गोपनीयता 14
खान@@ 14
थरूर 14
रिया, 14
ईस 14
चूँकि 14
बढा@@ 14
लस्टम 14
एफसी 14
सेंसेक्स 14
8,@@ 14
इंडि@@ 14
घोंप 14
स्वयंसेवक 14
हॉकी 14
खुदरा 14
बैरिया 14
राजकोट 14
प्रीत 14
ट्रांसफर 14
असलहा 14
विवरण 14
हुदहुद 14
द्य@@ 14
वर्ती 14
टेक्नोलॉजी 14
घाहिल 14
अमे@@ 14
पासवान 14
सिव 14
चीझ 14
रें@@ 14
तकनी@@ 14
57@@ 14
हउए 14
राउत 14
चैंपियनशिप 14
डम 14
फिलिमी 14
स्कॉटलैंड 14
ऑपरेटिंग 14
अंबाला 14
पदार्थन 14
नाली 14
‘सजना 14
मंगिया 14
सजाई 14
सुदीप 14
पुष्पा 14
तिरंगा 14
बीमा 14
सिक्योरिटी 14
तेजस्वी 14
लिं@@ 14
गांधी@@ 14
एप्लीकेशन 14
नेपाल@@ 14
रिकार्डिंग 14
पॉल 14
बाकीर 14
हिंदुस्तानी 14
पंजा@@ 14
आरंभ 14
उगे 14
हॉट 14
राब 14
थी। 14
कटोरा 14
स्टै@@ 14
इर@@ 14
ग्रीक 14
सेलुलर 14
प्रकोप 14
पार्क, 14
बनचरी 14
इलेक्शन 14
माना 14
उससे 14
एक्सेस 14
साझेदारों 14
ज़ि@@ 14
रीमेक 14
सौर्य 14
नीदरलैंड 14
व्यार 14
इंप्लाईज 14
एंजे@@ 14
रोजीरोजगार 14
बागमती 14
नंदन 14
टेम्पलेट। 14
नवी 14
शियल 14
लाइफ 14
जनकपुर 14
पाउ@@ 14
वू@@ 14
बिच 14
पीएच@@ 14
वर्षा 14
हवाईअड्डा 14
न्स@@ 14
नी. 14
ब. 14
.. 14
छाहीं 14
नंदू 14
‘मानव’ 14
ई॰पू॰ 14
दीपीय 14
लक्षदीप 14
(आइ@@ 14
US$@@ 14
ऍक्स@@ 14
बायो@@ 14
इंजीनियरी 14
मेरवन 14
बाने: 14
1959 14
गोहूँ 14
बिस्व@@ 14
कब्ज़ा 14
राजतंत्र 14
ep@@ 14
en 14
ation@@ 14
]], 14
पेड़-पौधा 14
up@@ 14
5), 14
("P@@ 14
सोवियत 14
जनसंख्या, 14
स्पेनी 14
मिसिसिपी 14
ला" 14
हाइड्रोजन 14
अणु 14
g 14
r 14
1910 14
1916 14
उत्तर-पच्छिम 14
प्रशासित 14
हाइकोर्ट 14
क्स, 14
 किमी 14
सर्कुलेशन 14
स", 14
द) 14
भूआकृति 14
क्रिया-प्रतिक्रिया 14
सेंसिंग 14
कोट, 14
सतलज 14
(T@@ 14
1858 14
87 14
लाँड़ 14
सेक्सुअल 14
बा) 14
फीट) 14
निचाई 14
कंचनजंघा 14
हिमाल@@ 14
गंगटोक 14
ian@@ 14
art@@ 14
as 14
पालिका 14
(यू@@ 14
सा" 14
कोलंबिया 14
ई.पू. 14
जर्मनिक 14
डिवीजन 14
आयतन 14
%), 14
In@@ 14
देखलाई 14
и@@ 14
पञ्चांग 14
eg@@ 14
हेरन 14
डोमेन 14
लियो@@ 14
7), 14
एकेडमी 14
ओखलढुंगा 14
सपोर्टिंग 14
तस्मान 14
आइस 14
"नेक्टरनिडाई" 14
(फूल 14
मैग्@@ 14
126@@ 14
कंपटीशन 14
88.@@ 14
फ्रीडा 14
लीगल 14
एयरवेज़ 14
स्केटबोर्डिंग 14
(अभिनेता) 14
इऽ 14
लक्ष्मीपुर 14
बिसौरी 14
दीनदयाल 13
सहभागिता 13
पाठक, 13
विचित्र 13
चन्द 13
हीरालाल 13
एत@@ 13
कलाकार, 13
ड़, 13
शुभकामना। 13
मनाही 13
फेंक@@ 13
भासन 13
राहु@@ 13
निश्चिन्त 13
इज्जति 13
तरफदारी 13
ठेकान 13
निहारन 13
झारखंड, 13
एहि@@ 13
प्रभारी 13
तंज 13
छोड़त 13
ढाँचा 13
चूक 13
हँस 13
एहला 13
सालो 13
वाल@@ 13
पाई@@ 13
ौर 13
लवटा 13
लवटला 13
बरबादी 13
दबा@@ 13
गरी, 13
मरी@@ 13
डिया 13
जश्न 13
शुरुए 13
गिरो@@ 13
जीतला 13
टिकाऊ 13
धँ@@ 13
बाच 13
करोड़ो 13
उड़ा 13
हुजू@@ 13
मुअ@@ 13
काबिल 13
सादा 13
गा-@@ 13
हलु@@ 13
पस@@ 13
खुब 13
सांझ 13
पहिरा 13
हिन्@@ 13
बतवलें। 13
अनूठा 13
जाद 13
मिथिलेश 13
घबरा@@ 13
गुट 13
घुन 13
भाग्य 13
मले@@ 13
सड़@@ 13
पंचन 13
भेंट@@ 13
इहें। 13
महत्@@ 13
पावेला। 13
प्रशंसा 13
ॉर्@@ 13
युग@@ 13
बलि@@ 13
ृ@@ 13
केंद्रित 13
दुबे, 13
हुलास 13
सन्दर्भ 13
निराश 13
आफ@@ 13
क’ 13
हिन्दुत्व 13
झँ@@ 13
हटि 13
मास्ट@@ 13
चारे 13
जियल 13
प्रतिबद्ध 13
कुकर्म 13
एकव@@ 13
उमीदवारन 13
रहसु। 13
दोस्@@ 13
हस्त@@ 13
लोकार्पण 13
आयो@@ 13
स्मार्ट 13
बयानबाजी 13
बबुआ, 13
काहेकि 13
दी-@@ 13
तनखाह 13
बेटा। 13
विभा@@ 13
शु 13
गर, 13
नात्मक 13
तबला 13
सिस्टम, 13
आल@@ 13
भीख 13
टेल 13
रें 13
ढील 13
पाँचो 13
ढोल 13
वादियन 13
लइकियन 13
ध-@@ 13
पंडितन 13
न्याय@@ 13
जनावर 13
जीए 13
वाजपेयी 13
लकीर 13
जाईं@@ 13
ग्वालियर 13
मियो 13
सोचल@@ 13
मारवा@@ 13
करिहें 13
गइलि। 13
तेज@@ 13
मेहरारुन 13
बिस्तर 13
कोठी 13
वलस। 13
सवाले 13
खीसि 13
1887 13
तेल@@ 13
झर 13
सपूत 13
ममिला 13
संगति 13
प्रिं@@ 13
पढा@@ 13
अबे 13
जीभ 13
साइल 13
‘ल@@ 13
नाहीं@@ 13
चारी 13
हालि 13
ववले 13
डेहरी 13
चढ़ा@@ 13
ियार 13
तिलाक 13
पोसे 13
हित@@ 13
चाहत। 13
करोड़ों 13
पढ़ेवाला 13
लुका@@ 13
चवा 13
ईसा@@ 13
छपत 13
मंद 13
वैष्णवी 13
जार 13
घटिया 13
बड़ाई 13
आवेलें। 13
मनुष्यता 13
आश्@@ 13
स्नातकोत्तर 13
बतवनी 13
उघार 13
कत्@@ 13
अचक@@ 13
शक्@@ 13
होखो, 13
जिनि@@ 13
बिसवास 13
अपनव@@ 13
परा 13
वर्चस्व 13
अँगना 13
ब्रज 13
दुसमन 13
मात 13
ियु@@ 13
ओढ़@@ 13
सैयद 13
गिरमिटिया 13
अछूत 13
तब्@@ 13
मुँ@@ 13
बदस्तूर 13
सामाजि@@ 13
दीदीया 13
खूं@@ 13
फो 13
ीन 13
राये 13
उसी 13
ओं@@ 13
डेर@@ 13
देल 13
समझावे 13
ताल, 13
प्रोत्साहन 13
सामरथ 13
भरमार 13
बहक 13
निजता 13
रंगीन 13
एकदिन 13
कीर्तन 13
लू। 13
रियर 13
मंगले 13
उमी@@ 13
उदा@@ 13
शिल्प 13
न्त@@ 13
सयान 13
हवें, 13
बाँचे 13
लेबल 13
उमे@@ 13
रहुवन 13
समीक्षक 13
रवीन्द्र 13
क्का 13
मिट्टी 13
पुष्@@ 13
पना 13
जालन। 13
नमक 13
बा- 13
तबका 13
सुंदरता 13
मानकीकरण 13
इक्@@ 13
बाड़े, 13
रहिहें। 13
आन्दो@@ 13
वत। 13
संकोच 13
समावेश 13
बीसन 13
उतरत 13
टिक्स 13
एट 13
फजीरे 13
बैलन 13
पड़ि 13
दयाल 13
राधे 13
नेहाश्री 13
मोहिनी 13
लाद 13
पब्लि@@ 13
आरा@@ 13
दिनी 13
अरुण@@ 13
जगदीशपुर 13
सहीं 13
मेहरारू@@ 13
सटा 13
पुछले 13
न- 13
हन@@ 13
अगवानी 13
बी। 13
पारे 13
बोर 13
ऽतार@@ 13
बनारस, 13
मनव@@ 13
ठान 13
नौजवान 13
प्रियेश 13
भेट 13
पियास 13
मिश्र@@ 13
दयानंद 13
उपेन्द्र 13
मुन@@ 13
बेरी 13
विश्वविद्यालय@@ 13
जीवंत 13
1914 13
पाइल 13
साह 13
(भोजपुरी 13
बिला@@ 13
आभा 13
समग्र 13
सर्टिफिकेट 13
सन्न 13
कइलो 13
वेस्ट@@ 13
घरा@@ 13
राजनीति, 13
सड़@@ 13
नारायण, 13
रीना 13
भरपाई 13
बारिस 13
सुत 13
अमृत 13
ज्यो@@ 13
दृष्टि@@ 13
णात्मक 13
‘एक 13
बसं@@ 13
धनिया 13
दहिना 13
प्राचार्य 13
उठाके 13
जनले 13
जगा@@ 13
पोस्ट@@ 13
अरथ@@ 13
बन्हा 13
नीचा 13
बतावेला। 13
जातिवाद 13
प्रत्यक्ष 13
जोड़ल 13
प्रजा@@ 13
सैकड़ों 13
सुबिधा@@ 13
मानवी 13
विवे@@ 13
‘स@@ 13
रक्षा@@ 13
कोमल 13
चन्द्रा 13
खादी 13
किंग@@ 13
आपत्तिजनक 13
मानि 13
ऑक्सफोर्ड 13
थोड़ा 13
पहल@@ 13
फायर 13
ियावल 13
गांजा 13
खट 13
साँचो 13
मचावे 13
नक्सलियन 13
वसू@@ 13
जता 13
घर, 13
सनेसा 13
तिर 13
बड़ा@@ 13
संपादकीय 13
हड्डी 13
माङ 13
पूछि 13
्यू 13
प्रभा@@ 13
फ्ट@@ 13
सन्नाटा 13
गइलि 13
बेकति 13
दिहल@@ 13
तउ@@ 13
कुलि 13
जानि 13
ढोवे 13
चस्का 13
खेलकूद 13
लेना 13
कुछउ 13
अब्@@ 13
पावन 13
वते 13
पाएब 13
संप्रभुता 13
पंक्ति 13
कीने 13
चाइल 13
सुई 13
सने@@ 13
शाकाहारी 13
झट 13
बध 13
निकलेला 13
जियरा 13
हमनिये 13
दबाइल 13
मेघ@@ 13
डाला 13
गदर 13
रतन 13
लखन@@ 13
खुशबू 13
संभ@@ 13
दर्शा@@ 13
नेस 13
सनी 13
बाली 13
परानी 13
केवाड़ी 13
लग्गे 13
भइली। 13
वाटर 13
सवाँग 13
लीहीं। 13
कूड़ा 13
फेर@@ 13
छाँह 13
कार्तिक 13
1911 13
आधार@@ 13
बगले 13
शेड 13
बे। 13
लोदी 13
नजीर 13
बेमार 13
घनघोर 13
कहलस। 13
चाही@@ 13
मंजिल 13
बीमार 13
यूपी@@ 13
मौर्या 13
पत्थ@@ 13
प्रतिष्ठा 13
करोड़) 13
qu@@ 13
नेशन 13
दाई 13
भव 13
तालमेल 13
राजकाज 13
कुल्ह 13
लेबर 13
पढ़ा 13
नोबेल 13
लियो 13
धूर 13
बिज्ञा@@ 13
घरनी 13
निस 13
हमने 13
%@@ 13
गुल 13
घातक 13
पुर-@@ 13
मुड़ी 13
जानकी 13
छोट-बड़ 13
हज़ार 13
विचारन 13
ब) 13
हों@@ 13
हस्ती 13
उत्तम 13
पहाड़न 13
बदरी 13
नाइ 13
प्वाइंट 13
उपजाऊ 13
माव@@ 13
आजा@@ 13
शब्द, 13
खरी 13
भूखे 13
पुनर्जागरण 13
शिक्षकन 13
काने 13
मतल@@ 13
दूत 13
वलस 13
हौ 13
उपभाषा 13
ार्थी 13
काॅलेज 13
बढे 13
ग्रेजुएशन 13
प्रदेश। 13
जलज 13
अजित 13
ात 13
उत्तरा@@ 13
काटल 13
बेर। 13
लरिका 13
आला@@ 13
टांग 13
चिकन 13
पाले 13
दहिने 13
जिंदगी 13
खर्च 13
विश्@@ 13
टोबैगो 13
नाज 13
सकीले 13
अगा@@ 13
देवा@@ 13
गिरमिटिहा 13
चावे 13
बाड़ऽ। 13
तपस्वी 13
सऽ@@ 13
भैरवी 13
दिखा 13
विकारी 13
जिट 13
7-@@ 13
निम्बा 13
पलानी 13
थोरकी 13
मुड़ 13
अधी@@ 13
उत्साहित 13
हिडिम्ब 13
कश्यप 13
हम्@@ 13
गोला@@ 13
सीताराम 13
कलास 13
सगाई 13
क्लासिक 13
र्द@@ 13
एहमे 13
छठी 13
ट्रस्ट 13
सू 13
प्रणब 13
डगर 13
गुल्लक 13
भोजपुरीओ 13
प्रतिभागी 13
बाजारन 13
हिरासत 13
डब्ल्यू@@ 13
एम। 13
चाँद 13
प्रतिमा 13
अजी@@ 13
पेट्रो@@ 13
नौसेना 13
निवे@@ 13
1953 13
रजनीश 13
यम 13
ड़ी-@@ 13
इंदौर 13
जबलपुर 13
शार@@ 13
आनंद@@ 13
बेचल 13
इब्राहिम 13
सार्क 13
फाई 13
अमरीश 13
भीतरे 13
आज़ाद 13
जीजा 13
स्तु@@ 13
डियो@@ 13
वोल्@@ 13
चुका 13
पैरा@@ 13
म्यू@@ 13
एक्सप्रेस, 13
पाहुन 13
निजाम 13
त्रिवेदी 13
उड़े 13
चिली 13
परमानेंट 13
कुच 13
पांक 13
हेठ 13
२०१० 13
बनवलें 13
कप्तानी 13
साहेब। 13
लछिमी 13
पड़े@@ 13
याल 13
पुनः 13
हिन्दूओं 13
पस्टम 13
ताओं 13
मिजोरम 13
चुके 13
णों 13
रखरखाव 13
१२ 13
दों 13
वर्त्तमान 13
शुक्र 13
समय@@ 13
महासंग्राम 13
मैंने 13
दीही 13
लगता 13
जाएँ 13
बनाएँ 13
स्वामित्व 13
प्स 13
अग्नि 13
लोकायुक्त 13
मिल्की 13
छात्रनेता 13
अठारहवीं 13
बनवलें। 13
शराबबन्दी 13
अन्जान 13
ग्य 13
मारवाड़ी 13
ब्यव@@ 13
ब्यक्त 13
मिल्@@ 13
इड 13
भूतपूर्व 13
जोल 13
्यान 13
दीहीं 13
बैराज 13
जामुन 13
माहटर 13
ए॰ 13
राकस 13
नक्सा 13
रेशन 13
महासागर, 13
चीन, 13
तटीय 13
19वीं 13
दक्कन 13
संघीय 13
चेरी 13
महादीपी 13
ऍम@@ 13
%, 13
निरूपण 13
(14@@ 13
बिसेस्ता 13
काठमाडौं 13
145@@ 13
ईशा 13
p 13
क्याम्पस 13
[[श्रेणी:@@ 13
कईयन 13
वर्जीनिया 13
दस्खत 13
सिंथेटिक 13
); 13
पीरियॉडिक 13
1917 13
1952 13
1987 13
कोसल 13
ट्रिपल 13
मउअत 13
कभर 13
895 13
अक्षां@@ 13
मंडल, 13
अध्ययन, 13
जीआइएस 13
इनहने 13
पुरातात्विक 13
लिखलें 13
गंज, 13
90.@@ 13
जर्सी 13
री" 13
 और @@ 13
से @@ 13
130@@ 13
इंडेक्स 13
टेक्नालॉजी 13
हाइपरलिंक 13
 मीटर 13
Th@@ 13
ant@@ 13
rid@@ 13
ers@@ 13
अछाम 13
से) 13
प्यादा 13
होखे; 13
शन" 13
पूँजी 13
परिकरमा 13
क्रोड 13
डाई 13
खगोल@@ 13
5% 13
शुंग 13
परतिष्ठा 13
(इ@@ 13
नापजोख 13
157 13
ओर@@ 13
(J@@ 13
3,0@@ 13
स्वेज 13
पाँचवीं 13
परवेश 13
पद्मा 13
167 13
गढी 13
तारीफ़ 13
इंक@@ 13
बटेर 13
प्रॉ@@ 13
क़ानून 13
एलिजाबेथ 13
लखीमपुर 13
पेंटर 13
6), 13
मैनचेस्टर 13
मीनार 13
el 13
पाँचथर 13
लुंग 13
लिबर्टी 13
नाँव:"@@ 13
rin@@ 13
पिट्टा 13
पिटक 13
107@@ 13
ईयू 13
अवार्ड, 13
89.@@ 13
रीमा 13
रैनसमवेयर 13
एक्स 13
पतलू 13
सुखीपुर 13
गाँवपालिका, 13
ऱ@@ 12
बिटोर 12
गिरिधर 12
सदस्@@ 12
साहित्यकार, 12
निवेदन 12
सकेनी 12
अझू@@ 12
कुटुम्ब@@ 12
ड़-@@ 12
खत@@ 12
भारत-@@ 12
जनेऊ 12
विद्@@ 12
वक 12
निओ 12
महतार@@ 12
नहीं। 12
बिछा 12
टा-@@ 12
अझूराइल 12
चिन्तित 12
वनो 12
मानुष 12
भगावे 12
शाली 12
पनरह 12
मरो@@ 12
हत@@ 12
तें। 12
बन्हाइल 12
अबकि 12
मरण 12
माधव 12
लउके@@ 12
डंका 12
मर्जी 12
इओ 12
जमी@@ 12
दीहले 12
फोकट 12
खबरन 12
खिलाफत 12
तर्ज 12
सुनात 12
रेघरियावल 12
शय 12
लो, 12
खिल@@ 12
वाक 12
ष्कार 12
भारती@@ 12
जिं@@ 12
जनमानस 12
शी, 12
अतिथियन 12
उल्लेखनीय 12
एतिहासिक 12
गों@@ 12
पारम्परिक 12
हुकुम 12
लउकी@@ 12
टवा 12
पैकेट 12
सिंहासन 12
वा-@@ 12
दिआइल 12
अइसन@@ 12
मती 12
पढ़ले 12
जाएब। 12
हमनिए 12
गुआ 12
संतुलन 12
निगाह 12
मनोज@@ 12
दय 12
तिओ 12
संवेद@@ 12
रूपी 12
सुतार 12
दार, 12
पी-@@ 12
बरसा@@ 12
‘सु@@ 12
समूचा 12
कसौटी 12
शब्द-@@ 12
ऋतु@@ 12
मोट@@ 12
आवत-आवत 12
जीवी 12
बउ@@ 12
निर्द@@ 12
अझूरा 12
मलिकाइन 12
देस। 12
हात 12
रामनवमी 12
जमान@@ 12
मँग@@ 12
शिकाय@@ 12
यौ@@ 12
बनी। 12
फरके 12
साझेदारी 12
मंत्रा@@ 12
सपने 12
मैया 12
तरि@@ 12
दोहरावल 12
ठहाका 12
इन्कार 12
जरल 12
करिए 12
लागेले 12
फिल्म@@ 12
चंदन 12
वीणा 12
राजन@@ 12
2, 12
ओहपर 12
बैंकिंग 12
पॉप 12
उहें 12
अलख 12
कर्जा 12
सियार@@ 12
वेज 12
खूबी 12
आधी 12
चुनावो 12
मुकाबिला 12
फेंके 12
गमछा 12
चादर 12
की-@@ 12
बलि 12
लागेले। 12
बनाया 12
दुर्लभ 12
ारत 12
दिहलीं 12
ो। 12
उ। 12
कर्मभूमि 12
रस, 12
समुझि 12
हरन 12
आजिज 12
पट्टा 12
1978 12
नवहा 12
ग्रह@@ 12
दाँ@@ 12
जरिया 12
चमके 12
दिलचस्पी 12
प्रचार-प्रसार 12
विमर्श 12
रचनात्मकता 12
झोल 12
धइ 12
अगुवाई 12
सिरि@@ 12
चइता 12
कवने 12
मली 12
राही 12
केले 12
गीति 12
चिन्हारी 12
होई? 12
हरिया 12
रत्@@ 12
जानी@@ 12
लेते 12
सही, 12
मेहरारुवन 12
करिया@@ 12
हिमा@@ 12
छेड़@@ 12
कितने 12
सभ। 12
इंकार 12
मोदी@@ 12
पेशा@@ 12
फिरा 12
युवराज 12
बिटो@@ 12
आते 12
संवेदन@@ 12
त्मकता 12
योगे@@ 12
विभागन 12
दोहरा@@ 12
इराक 12
चिहुँ@@ 12
स्थिती 12
कारि@@ 12
साखी 12
उदारता 12
सइ@@ 12
गरभ 12
बलाते 12
रूप-@@ 12
कद 12
गइलन, 12
करवला 12
लिम 12
कोला@@ 12
भेंटा@@ 12
धू 12
मण्ड@@ 12
बाजार@@ 12
पुरू@@ 12
नती@@ 12
धनु@@ 12
पदा 12
दरि@@ 12
खउ@@ 12
हिन्दियो 12
छत्तीस@@ 12
महिमा 12
कन्नौ@@ 12
दीठि 12
साथे, 12
डँ@@ 12
उपे@@ 12
तिरस्कार 12
कसे 12
जान-@@ 12
कुशलता 12
मैं@@ 12
बैंग@@ 12
लुरु 12
रंडी 12
पैड 12
देखलन 12
बाद। 12
खुलि 12
मीट 12
तृणमूलिया 12
बुढ़@@ 12
टीप 12
छपे@@ 12
न्द्रनाथ 12
दाह 12
हरियरी 12
लेबे@@ 12
57 12
बंगा@@ 12
भोग 12
चम्@@ 12
ब्ल@@ 12
हियो 12
अई 12
बात, 12
अनिवार्य 12
चन्दन 12
गरमा@@ 12
फंडिंग 12
गम 12
सैं@@ 12
दलाल 12
करेली। 12
बताव 12
चलते, 12
सकता। 12
सप्@@ 12
जगा 12
जीव-@@ 12
वाट्स 12
ल्ले 12
धर्मी 12
इये 12
भोजपुरि@@ 12
गाईं 12
गइलऽ 12
सामयिक 12
थरिया 12
स्ट्राइक 12
सबक 12
कोरियोग्राफर 12
ठोक 12
आपरेशन 12
सकु@@ 12
विशेषण 12
उतारे 12
संगे-संगे 12
टिन 12
पंड@@ 12
मुस@@ 12
टँ@@ 12
सुखी 12
बिच@@ 12
आदमिन 12
आबाद 12
कहलन- 12
होखत। 12
चिहा 12
देनी 12
होइत 12
इज्ज@@ 12
राखब 12
उड़ि 12
इज 12
बिरादरी 12
सत्या 12
मोशन 12
हिस्@@ 12
पचा 12
आया 12
इयादि 12
सरसो 12
रउँआ 12
जाड़ा 12
पहिले@@ 12
प्रवचन 12
फुर्@@ 12
सधल 12
मनवा 12
खाला 12
बइठला 12
२०१३ 12
मोरे 12
अमृतांशु 12
शेख@@ 12
गुप्ता, 12
इहवां 12
अप्@@ 12
पला 12
मुग्ध 12
फइ@@ 12
बनवलसि। 12
प्ति 12
हजार@@ 12
चमकदार 12
डकैत 12
वोटर 12
बरसे 12
लाइसेंस 12
सांकेतिक 12
प्रवा@@ 12
मी। 12
सामाजिक-@@ 12
अँजुरी 12
लौकिक 12
करीबी 12
र्य 12
पूर्वा@@ 12
रोहित 12
‌@@ 12
धमाकेदार 12
धं@@ 12
तिसरी 12
चंद@@ 12
प्रदेश) 12
रू, 12
सट@@ 12
पाकिस्ता@@ 12
रेखा@@ 12
अनमोल 12
लक्षण 12
‘लोक@@ 12
है’ 12
थियन 12
खला 12
मस्त 12
बोतल 12
साधारन 12
गड़बड़ी 12
जली 12
गोलबंदी 12
बैक्टीरिया 12
एहीजा 12
पतो 12
आर. 12
आरो@@ 12
गदही 12
ठल 12
कथानक 12
सम्बन्ध 12
स्थली 12
ट्ठ@@ 12
पुरे 12
भो 12
ओम्मे 12
गरज 12
प्ट@@ 12
सहे 12
कुँअर 12
शिष्ट 12
नीतिन 12
धियन 12
अनपढ़ 12
दिसंबर, 12
पटा 12
मूर 12
बोलले। 12
इम्तहान 12
रोकि 12
चक्@@ 12
समझा@@ 12
विजन 12
तैयारी 12
मनरेगा 12
चिन्ह 12
ओरहन 12
नब्बे 12
मजा@@ 12
बलूचिस्तान 12
हईं@@ 12
बिं@@ 12
नीयन 12
पहुंच@@ 12
चहु@@ 12
कहवां 12
रेजी@@ 12
फलित 12
कांट 12
कैम्प 12
बुझला 12
वैष्णव 12
चम्मच 12
बीया। 12
जीरो 12
बचवले 12
लिखनिहारन 12
आरी 12
बशर्ते 12
दं@@ 12
नय@@ 12
हास्य 12
साँझि 12
प्या@@ 12
गरुड़ 12
नाकाम 12
पण 12
बनवलसि 12
पद्मिनी 12
जाल@@ 12
लिनी 12
चौथ 12
गइया 12
टिके 12
भुजा 12
ओहर 12
एकरा@@ 12
बेचत 12
रसे 12
कृष्णा@@ 12
अग्र@@ 12
“का 12
संचालक 12
कैमरामैन 12
निरहुआ@@ 12
भवन, 12
महाराज, 12
मजेदार 12
अशो@@ 12
माइक 12
कुत्@@ 12
तरह@@ 12
उठले 12
निराशा 12
अबेर 12
पुछली 12
गोद 12
निहारत 12
हिक 12
चे, 12
मुख्या@@ 12
लेनी 12
की’ 12
परस्पर 12
रहिहें 12
दस्तावे@@ 12
छावनी 12
पंथी 12
शनि 12
मदर 12
सीखल 12
लॉ 12
चढ़ाव 12
फूहड़पन 12
छापल 12
अमेरिका, 12
इंसान 12
हना 12
संबंधन 12
तोप@@ 12
सारन 12
अनोखा 12
ललन 12
एशन 12
सम्मान, 12
मरदे 12
सन्धि 12
ation) 12
समास 12
बिआ 12
यूरो@@ 12
मंड 12
इजराइल 12
पट्ट@@ 12
चीज, 12
व्याख्या 12
नवल 12
1981 12
द्रविड़ 12
सिंधी 12
बंटवारा 12
कूट@@ 12
राक्षस 12
चमकावे 12
फरे 12
लावा 12
बुर्@@ 12
यात्रा@@ 12
दिन-रात 12
शोध@@ 12
मैकाले 12
मध्य-@@ 12
खुसरो 12
मान्य@@ 12
भूमंड@@ 12
विद्यालय, 12
खेलन 12
मझिला 12
लड़िकन 12
उदार@@ 12
कमजो@@ 12
करोड़@@ 12
125@@ 12
सिद्धान्त@@ 12
लिखि@@ 12
सात@@ 12
फांसी 12
क्लो@@ 12
वई 12
भोग@@ 12
पेशेवर 12
कलकत्@@ 12
नइकी 12
प्रतिनिधि@@ 12
अरे@@ 12
विस्@@ 12
ताखा 12
हरो 12
दायित्व 12
राष्ट@@ 12
उर्दू@@ 12
आयु 12
सैनिकन 12
सशस्त्र 12
लाखो 12
4-@@ 12
युक्@@ 12
बंधु 12
ड़िया 12
व-@@ 12
पूड़ी 12
हाला@@ 12
फजि@@ 12
मंत्री, 12
त्रा 12
सरकार, 12
स्कूली 12
गिने 12
विद्वानन 12
लड़त 12
ही-@@ 12
कमी, 12
करुणा 12
ुल 12
भौतिकी 12
ष्ठ 12
आंग@@ 12
हाईकमान 12
बचवा 12
लोई 12
लैं। 12
पहुँचि 12
तिउराइन 12
डांसर 12
आडियो 12
्स 12
बेर, 12
फनफ@@ 12
180 12
हार्ट 12
प्रशंसकन 12
बाड़ू@@ 12
डोली 12
ओसही 12
पारा@@ 12
डाक@@ 12
बसन्त 12
पिआस 12
आक्@@ 12
दखि@@ 12
माँगल 12
बाजलि 12
बैरनि 12
देही 12
गंगा-@@ 12
मनुष@@ 12
निहन 12
पुल@@ 12
कहाला, 12
प्रादेशिक 12
चढ़ा 12
खूनी 12
ढलान 12
हिंसक 12
आवश्यकता 12
गर्मी, 12
बोलली, 12
चित्रकारी 12
सम्मान’ 12
बढ़ी 12
मोड़ 12
‘निरहुआ 12
२०१४ 12
ंडो 12
प्रस्तावित 12
सामा 12
डब्बा 12
बहकल 12
नोकदार 12
नवासी 12
लेनदेन 12
शुद्@@ 12
ंगर 12
सूत्रधार 12
दुबर 12
जैसा 12
बकरा 12
कुरान 12
त्रिनिदाद 12
रिर्जव 12
बढ़ोतरी 12
टकर@@ 12
दायर 12
सहेज 12
ीदार 12
हाॅकी 12
दाबाद, 12
रामनगर 12
मवेशी 12
वाल्@@ 12
स्पेक्ट्रम 12
होकर 12
दारोगा 12
दरगाह 12
पौने 12
लापता 12
हांगकांग 12
लोजपा 12
1,000 12
सातवीं 12
चौसा 12
डिस्@@ 12
लैंड@@ 12
दह 12
तिहाड़ 12
भगदड़ 12
एजेंडा 12
आयुर्@@ 12
रैंकिंग 12
दशहरा 12
फ्लि@@ 12
रई 12
शिलान्यास 12
शम@@ 12
गोल्ड 12
800 12
सीईओ 12
360 12
आओ 12
बाबर 12
इलेवन 12
आम@@ 12
महंत 12
दुष्यंत 12
ंडि@@ 12
एक्ट@@ 12
चिन 12
अवैध 12
म्यांमार 12
सीक्वल 12
नीतू 12
प्रोफेशनल 12
भैया 12
कड़ेर 12
इकोनॉ@@ 12
अहमियत 12
ली) 12
(हल्ला) 12
हाईकोर्ट 12
ऑफि@@ 12
गहरा 12
जलेबी 12
जीना 12
हापु@@ 12
सुरेन्द्र 12
स्लीपर 12
जिकल 12
आवेलें 12
हल्दी 12
सरी@@ 12
एड 12
रिकार्ड्स 12
अग्नि@@ 12
ंगी@@ 12
परमोशन 12
२६ 12
ug@@ 12
उत्साही 12
बीच, 12
पाणि@@ 12
तुमको 12
जबा@@ 12
मिड 12
बुन्नी 12
बुलंदशहर 12
मुख्यतः 12
कुरा 12
खेर 12
रेडियो@@ 12
साउंड 12
ब्री@@ 12
लेने 12
काव्या 12
रखने 12
लड़कियों 12
वर्जन 12
सिडनी 12
इसकी 12
होना 12
तरीके 12
साउ@@ 12
प्राधिकरण 12
राइड 12
विज्ञापनों 12
खरीदा 12
स्टोर 12
राठौड़ 12
हार्डवेयर 12
वेयर 12
_@@ 12
D 12
इंडस्ट्रियल 12
सतरंगी 12
शबाना 12
कुबेरा 12
जपुर 12
उसको 12
द्वारा@@ 12
अवार्ड्स 12
कॉमनवेल्थ 12
मार्बल 12
होगा। 12
मध्यकालीन 12
क्सि@@ 12
छेत्र 12
भिक्षु 12
गुरुवार 12
श्रुति 12
ख़ूब 12
खोला 12
दिखावल 12
बेल्ट 12
अन्तर्गत 12
उत्तराख@@ 12
मेदिनीपुर 12
हुआ। 12
गणितीय 12
वरुण 12
जों 12
मैरवा 12
ङ्ग@@ 12
बिकाए 12
लागल. 12
-. 12
एलन 12
गोइ@@ 12
खाएक 12
गिरधारी 12
... 12
चनरमा 12
हव। 12
इंडिया@@ 12
अफ़@@ 12
दक्खिन-@@ 12
सिंचनी 12
1956 12
बर्तमान 12
कच्छ 12
पी) 12
140 12
उद्यो@@ 12
(c. 12
ली: 12
ब्यापारिक 12
47,@@ 12
Un@@ 12
अल्पाइन 12
(जी@@ 12
ऊख 12
कुक 12
अफिरकी 12
मिशिगन 12
मधेस 12
िया" 12
दाहिने 12
लियम 12
ॉन 12
)) 12
8.@@ 12
सूक्त 12
1905 12
1932 12
्रो@@ 12
अजोध्या 12
0), 12
पानीपत 12
 °C 12
(एस@@ 12
चूँकि, 12
P 12
′ 12
52@@ 12
ran@@ 12
 — 12
संश्लेषण 12
सुर्खेत 12
मेडीकल 12
तिरु@@ 12
निर्देशांक 12
12,@@ 12
उत्तर-दक्खिन 12
मी) 12
ron@@ 12
ov@@ 12
Com@@ 12
ation 12
जाऽला। 12
मि. 12
डार्@@ 12
इक 12
सौरमंडल 12
रॉयल 12
10,000 12
प्रदूषक 12
यर" 12
अम्माल 12
चौथी 12
चौकोर 12
53 12
ऋचा 12
कैस्पियन 12
900 12
sp@@ 12
फेड़ा 12
एना@@ 12
रेडियेशन 12
(एन@@ 12
а@@ 12
स्थानिक 12
सुनामी 12
e") 12
Sp@@ 12
ing) 12
डब्@@ 12
बर्लिन 12
यूरोप, 12
114@@ 12
गोभी 12
ज़े@@ 12
4), 12
इकोनॉमिक्स 12
es) 12
ब्रै@@ 12
मेमोरी 12
जॉर्ज 12
बाइबिल 12
(जीव 12
बीकानेर 12
विष्णुपुर 12
1987) 12
रिसोर्ट 12
क्वांटास 12
लुफ़्थान्सा 12
रवीश 12
एसिड 12
महाकाल 12
6S 12
मॉब 12
बरियारपट्टी 12
पतारी 12
सीरीस 12
639-@@ 12
सम्पदा 11
सराहना 11
अध्य@@ 11
सुनेवालन 11
डॉट 11
प्रणा@@ 11
सनी@@ 11
पक, 11
कृत@@ 11
ठहरे 11
जोर-@@ 11
बंदा 11
डपट@@ 11
सपनो 11
देत। 11
बरहमन 11
दे, 11
बथी 11
अगिले 11
फँसा 11
पची@@ 11
गू 11
बढ़ल। 11
देखो 11
एहिजो 11
बांग्ला 11
मंगलवार 11
छतीस@@ 11
गायक, 11
बेइमानी 11
चपरासी 11
160 11
वाड्रा 11
फाय@@ 11
काईं 11
जियते 11
कहलो 11
बेजाँय 11
दबाव@@ 11
बाजन 11
पियत 11
ईया@@ 11
बस, 11
बबुआ@@ 11
सुन्@@ 11
देश-@@ 11
किओ 11
लटकत 11
भावे 11
भकु@@ 11
बाँच 11
आवि@@ 11
असभ्य 11
अङ@@ 11
रण 11
प्रेरित 11
ब्यवहार 11
गणमान्य 11
बलिया@@ 11
श-@@ 11
सराहत 11
कविता@@ 11
सुधि 11
हे-@@ 11
ऊँट 11
काउं@@ 11
कार्यक्रमन 11
रमजान 11
रचाइल 11
अइसनके 11
निकालत 11
चउदह 11
अबकियो 11
जुगत 11
देशवासियन 11
मंत्री@@ 11
मुनि@@ 11
नीच@@ 11
साले 11
स्वर्गीय 11
संस्था, 11
स्क@@ 11
एकाएक 11
स्प@@ 11
ज्ञान, 11
काव्य-@@ 11
किम 11
‘लोक’ 11
उरे@@ 11
कवि-@@ 11
हीं, 11
से’ 11
बीफ 11
फेंकल 11
सहि 11
दौलत 11
कसि 11
हीं। 11
यूरे@@ 11
मेन्ट 11
तीने 11
ढूं@@ 11
पंछी 11
थोड़@@ 11
सधले 11
बोलला 11
थथम 11
हराम@@ 11
बेईमान 11
आदमी। 11
बुआ 11
पहिले। 11
बिहारो 11
टुआ 11
सशक्त 11
लहजा 11
टप@@ 11
लागत। 11
पका@@ 11
ौरी 11
बयार 11
राजी@@ 11
चलत-चलत 11
क्ले@@ 11
प्रताप@@ 11
जे। 11
परिषद् 11
सराबोर 11
विरह 11
आवे, 11
ने, 11
होखीत। 11
झारखण्ड, 11
I) 11
झारख@@ 11
हुंकार 11
शुरुवे 11
केर@@ 11
कटि 11
ठकुआ 11
अनुदान 11
जब-जब 11
विदेश@@ 11
जालन 11
खा-@@ 11
सिक्ख 11
जतावे 11
बानीं, 11
योग्यता 11
मानद 11
दुगुना 11
फोर@@ 11
पक्षधर 11
बार-बार 11
एकहू 11
रामायन 11
अश्ली@@ 11
उज@@ 11
जबरन 11
टर्स 11
जुलल 11
वरिया 11
जात, 11
श्राद्ध 11
वाचिक 11
पढ़ावल 11
शोहरत 11
वाट्सएप 11
पढे@@ 11
संस्थानन 11
चउपट 11
साधक 11
मार्फत 11
कबे 11
कब्@@ 11
नियाँ 11
धोवे 11
भ्र@@ 11
के-@@ 11
हीं@@ 11
तनो 11
चलो 11
चिया 11
बँसुरी 11
मोदी। 11
काई@@ 11
आजीविका 11
इण्ड@@ 11
फोड़ 11
पुरनके 11
सकसु 11
जामल 11
भई 11
पों 11
भें@@ 11
ँसी 11
हज 11
स्क्रिप्ट 11
बहुल 11
छत्रपति 11
बढ़ी 11
अछ@@ 11
ताकतन 11
सुनीं 11
हतना 11
चमचा 11
टोक 11
समरथ 11
लघु@@ 11
संके@@ 11
छात्रा 11
मरदन 11
झुक 11
लइकाईं 11
भे 11
ेला, 11
चेता@@ 11
सङ@@ 11
रामचन्द्र 11
फइल@@ 11
सम्प्रदाय 11
उठान 11
पच्छि@@ 11
लउकी। 11
तबहीं 11
राज्या@@ 11
उत्थान 11
पीटत 11
तव्य 11
बनिके 11
केनियो 11
हमेसा 11
त? 11
ारि 11
सैकड़न 11
मू 11
लहान 11
साक्षात 11
आपनो 11
तहिया 11
मुकाम 11
नो, 11
झाड़@@ 11
रहें। 11
सांस्कृतिक-@@ 11
ओही@@ 11
बेदखल 11
अत्या@@ 11
राज-@@ 11
बाह 11
विभू@@ 11
बघे@@ 11
इस्कू@@ 11
बुला 11
बनार@@ 11
अनुभू@@ 11
पोथी 11
हारिक 11
राजस्था@@ 11
काव 11
चीन्ह 11
जीये 11
आड़ 11
उघ@@ 11
दुआ@@ 11
जात-@@ 11
बघवा 11
राह@@ 11
सँउप@@ 11
जीतले 11
वादो 11
जियो 11
राशि@@ 11
इश@@ 11
अइली। 11
14वाँ 11
नइला 11
शिक्ष@@ 11
अपने-आप 11
मतभेद 11
मुहा@@ 11
मौजू@@ 11
बीतत 11
दक्षिण@@ 11
धर्मेन्द्र 11
सृ@@ 11
आचार@@ 11
खोजी 11
वर्ण, 11
पोस 11
सूर 11
आतंकियन 11
रहेके 11
तवनो 11
ओठँ@@ 11
न्दु@@ 11
लेल 11
प्रदेशन 11
हइ@@ 11
रचे 11
करोड़ो 11
नवीन 11
तनिके 11
लत@@ 11
सरि@@ 11
1976 11
निभव@@ 11
चहे@@ 11
पुरी, 11
कहीहें 11
अस्पतालन 11
आला 11
सनमान 11
सृजन 11
मेश्वर 11
प्रेमदेव 11
नूं 11
तिलका 11
बहरिया@@ 11
गइली, 11
आत 11
लोके 11
ठाकुर@@ 11
रात्रि 11
करस। 11
भंडारी 11
कोठ@@ 11
बाड़ी@@ 11
मुअल 11
कहाइल 11
निबा@@ 11
बानीं@@ 11
‘अब 11
भइया@@ 11
आँखि@@ 11
ंघ@@ 11
सवांग 11
अँचरा 11
संगी 11
कीर्ति@@ 11
मार्केटिंग 11
महाराणा 11
द्दा 11
एकजुटता 11
फेरी 11
रग@@ 11
अब। 11
डेन 11
अइबे 11
चिंता@@ 11
दारो 11
खन@@ 11
रामकथा 11
ज्ञ 11
विधवा 11
कसल 11
पंद्रह 11
दरवा@@ 11
जहवां 11
कथा-कहानी 11
दशा@@ 11
वी. 11
धरातल 11
ब्रजेश 11
हॉं 11
मोरा 11
डोल 11
समन्व@@ 11
रहे- 11
नवो 11
राजगद्दी 11
लटका 11
ध्व@@ 11
प्रेम-@@ 11
शिल्@@ 11
बुझाई 11
उभर 11
पन, 11
वाहि@@ 11
जिगर 11
निकलेला। 11
मजू@@ 11
स्कूल, 11
आलोच@@ 11
सालगिरह 11
प्रामाणिक 11
बाबा@@ 11
तंत्र@@ 11
विकास@@ 11
सरस्व@@ 11
2), 11
बोझा 11
रंग, 11
जने@@ 11
ओकराके 11
शुरू@@ 11
आत्महत्या 11
फूहर 11
बेरि 11
सवन 11
पेड़ा 11
वरिष्‍ठ 11
न्‍द्र 11
श्रीकांत 11
लिखलका 11
ड़ो 11
ब्रह्@@ 11
जनवाद 11
गति@@ 11
काली@@ 11
सह-@@ 11
अइस@@ 11
प्रकृ@@ 11
प्रोडक्ट 11
टावे 11
दुरा@@ 11
जातिगत 11
बुढ़ापा 11
झूम 11
निकली 11
जीर 11
दर्शन, 11
पूर्ण@@ 11
फूँ@@ 11
दरसल 11
कुकु@@ 11
िकी 11
धीरेन्द्र 11
किहां 11
रहीं@@ 11
श्य@@ 11
भाग, 11
हमनी@@ 11
गढ़, 11
दिआवल 11
जतवलन 11
कस्@@ 11
परेशा@@ 11
भाईजी 11
ओहि@@ 11
मुह 11
ंका 11
अव्वल 11
भूकंप 11
सिक@@ 11
अंदाजा 11
अरे, 11
वीर@@ 11
खोलि 11
घूम@@ 11
फड़@@ 11
जुट@@ 11
ठिकाना 11
सांझि 11
घटा 11
क्कड़ 11
देवी@@ 11
हमहुं 11
उठली 11
राखीं 11
कनेक्शन 11
पेंशन 11
लेलें 11
बेचैनी 11
स्या@@ 11
सरग 11
दांते 11
लेबि। 11
निम्@@ 11
कहऽ@@ 11
सूखे 11
अनेरे 11
बलुआ 11
बाड@@ 11
उनही 11
घे 11
वाइल 11
देंह 11
सूबा 11
जंगल, 11
सूरुज 11
ओरचन 11
खराबी 11
आराम@@ 11
फ्रेम 11
वर्क 11
नेवार 11
बक्सा 11
हद@@ 11
दिमागी 11
नाईक 11
अफसरान 11
शब्@@ 11
भूं@@ 11
कट्ट@@ 11
रहुवन। 11
आदित्य@@ 11
विविध 11
पुरनियन 11
कइली, 11
मुग@@ 11
सँउप 11
मायावी 11
वती@@ 11
लसि@@ 11
कुम@@ 11
यंत्र@@ 11
ढ़ा 11
परदेश 11
सुंदर@@ 11
ेरे 11
चिक्कन 11
उम्मी@@ 11
अलं@@ 11
जिद्द 11
साथे-साथे 11
सदियन 11
लगल। 11
ब्राह्मणवाद 11
भेटाई 11
मुंबईओ 11
खरीदले 11
वाई@@ 11
विलेन 11
थकान 11
हऽ? 11
मनि@@ 11
लोन 11
ौं@@ 11
बड@@ 11
आगी 11
गुरुद्वारा 11
टेप 11
बचत 11
फलनवा 11
मानदेय 11
मुहैया 11
दिलदार 11
राइट 11
खूबसूरत 11
कुल्ही 11
करू@@ 11
सीकर 11
मूवी 11
ट’ 11
घोसी 11
यार 11
खुर्@@ 11
एल। 11
नान 11
खुदाई 11
मंदि@@ 11
छोड़ल 11
धार्@@ 11
नियम, 11
देब, 11
नोक 11
टावल 11
ज़ी 11
78 11
हवाले 11
ity@@ 11
तबाही 11
डिफे@@ 11
परिष@@ 11
कल्चरल 11
रेन 11
मणिपुरी 11
सुरिया 11
मिश्रा@@ 11
चाउ@@ 11
गिरिजा 11
थिएटर 11
एनएस 11
पड़ा@@ 11
महानगरन 11
आजकाल्ह 11
तोहे 11
गायकन 11
मुश्@@ 11
पटना, 11
अफ्री@@ 11
आधुनिकीकरण 11
लड़ 11
500@@ 11
जन्मदिन 11
निशानी 11
रहे; 11
बहि 11
अहंकार 11
सुधारक 11
समीर 11
u 11
(p@@ 11
पड़े। 11
नृ@@ 11
चट्टा@@ 11
कालिक 11
वैकल्पिक 11
पिछड़ल 11
मिर@@ 11
न्याया@@ 11
उपभोग 11
दिलावे 11
एडवर्ड 11
फिनलैंड 11
सुरक्षा, 11
धर्मपत्नी 11
सागर@@ 11
मैथि@@ 11
(1) 11
बिधायक 11
आपातकाल 11
बहर@@ 11
ओ) 11
(आ 11
गंगा, 11
ष्टि@@ 11
क्षति 11
बुझाला। 11
संयोग 11
लूट@@ 11
नहाए 11
भाषा। 11
आकाश@@ 11
हारा 11
पार्थिव 11
मान्@@ 11
स्थ 11
इल@@ 11
बेमेल 11
प्रावधान 11
गारंटी 11
मेंट, 11
जां@@ 11
रक्@@ 11
तवाद 11
दक्खिन@@ 11
सामं@@ 11
गोली@@ 11
मतलबी 11
ध। 11
“हम 11
इब्न 11
रोमांच 11
कल्या@@ 11
हला@@ 11
ंकि 11
शास्त्री, 11
खुट@@ 11
सध@@ 11
सावत 11
भां@@ 11
लला 11
सुलभ 11
समता 11
गति, 11
आदर्श@@ 11
नियरे 11
टेम्पो 11
झिया 11
असरा 11
सामन 11
ड़ाइल 11
मेघ 11
मोक्ष 11
वाही 11
पवि@@ 11
एला 11
माता-पिता 11
ै। 11
डेशन 11
ोजन 11
अनुरा@@ 11
काद@@ 11
बुझ 11
छपवावे 11
सिवाय 11
किश@@ 11
ंगा। 11
जिक 11
सत्ताधारी 11
मुस्त@@ 11
एरो@@ 11
(डी@@ 11
होखि@@ 11
अपडेट 11
पाइब 11
क्राउन 11
धवन 11
प्यारेलाल 11
सरक 11
गइलें, 11
अपलोड 11
खसरा 11
लेलस 11
भटके 11
हरिहर 11
सने 11
बचपने 11
कीमती 11
घमंड 11
खोद@@ 11
करब@@ 11
लै 11
पटिया 11
पउ@@ 11
ज्ञा 11
उँहा 11
ंश 11
भेंटात 11
हराम 11
समाचारन 11
उखा@@ 11
उत्कोच 11
कहलसि, 11
लग्@@ 11
बोलेला 11
सँझिया 11
दसखत 11
करिहें। 11
पहिलहू 11
सर्याति 11
निसान 11
चमकत 11
लट 11
मद्धिम 11
रबी 11
उठलन 11
बाई@@ 11
मदन@@ 11
दउरि 11
वाहिनी 11
गु 11
बनारसी 11
हिन्दीओ 11
उड@@ 11
खल@@ 11
चटकल 11
गुलजारी 11
“त 11
66@@ 11
1915 11
हिडिमा, 11
अस्थिर 11
मंत्राी 11
रच्छकन 11
सुगंधित 11
स्वीकृति 11
मोटरी 11
लाली 11
ज्वार 11
पालक 11
दिल्ली। 11
बांस 11
लेलन 11
चापट 11
दिहलन, 11
मुकुट 11
सकीले। 11
मधिम 11
राती 11
हिन्दुस्तानी’ 11
लैला 11
कईसन 11
काजमी 11
रूपईया 11
कार्यकर्@@ 11
रना 11
सुनेवाला 11
सशक्तिकरण 11
बरगद 11
तकरीबन 11
कालाधन 11
बाड़े@@ 11
ंदर@@ 11
राजघाट 11
उगत 11
चांस 11
पीपी@@ 11
कर्फ्यू 11
महु@@ 11
क्वार्टर 11
वियतनाम 11
जुंग 11
बोधि 11
मारो 11
टापू 11
1, 11
रिक्शा 11
मुगलसराय 11
फाउंडेशन 11
नापुर 11
महादलित 11
टर्मिनस 11
ढाका 11
वेस्टइंडीज 11
आनलाइन 11
दीवानी 11
चतुर्@@ 11
जुर्माना 11
सैदपुर 11
एजेन्सी 11
ग्राहक 11
काले@@ 11
सर्वा@@ 11
तल्ला 11
सडक 11
पु 11
112@@ 11
सुधा 11
हजारीबाग 11
दत्ता 11
पीलीभीत 11
जीन 11
मददगार 11
द्रमुक 11
मैरी 11
हेनरी 11
मिलो 11
आयात 11
समुद्र@@ 11
साला 11
ध्रु@@ 11
व्यापारिक 11
मालदीव 11
पिस्टल 11
महाकाली 11
राजस्व 11
मेडल 11
अफगा@@ 11
हैंड@@ 11
पाठिका 11
धाबी 11
मनु 11
डॉलर 11
माइक्रोसॉफ्ट 11
एले@@ 11
सिल्वर 11
सोचलन 11
दुल्@@ 11
इलेक्ट्रो@@ 11
56@@ 11
सहि@@ 11
बाटी 11
स्वीटी 11
दिवाना 11
गाह 11
लिका 11
खरा@@ 11
महंथ 11
Y@@ 11
जमाल 11
परम-पद 11
हमे 11
मचा@@ 11
मोरक्को 11
उषा 11
मार्शल 11
आर्ट्स 11
इंदु 11
चुअल 11
क्षा 11
जासूसी 11
जसवंत 11
नियन्त्रण 11
लेवा 11
देहांत 11
नियार 11
बादी 11
श्रीदेवी 11
१३ 11
ियाना 11
अंगूर 11
दां@@ 11
राजशाही 11
निर्मल 11
बाला@@ 11
कहेली 11
आईपीएल 11
मारा 11
मोहम्@@ 11
रेस्ट 11
मुजफ्फरनगर 11
रोप 11
वाट 11
बही 11
उपजाऊँ 11
फिट 11
पुनर्गठन 11
गोरखपुर, 11
खाद@@ 11
स्टेंट 11
वी॰ 11
नवाब 11
रखलें। 11
मज़@@ 11
बनाई 11
ऎल्बम 11
इतनी 11
मुआवजा 11
हेडली 11
आती 11
डेली 11
फिल्में 11
मौलवी 11
खेतवा 11
खरीदल 11
ग्रहन 11
प्राय@@ 11
िये@@ 11
लीड 11
जिससे 11
रौशनी 11
वेबसाइटों 11
साइटन 11
सुप्रेरणा 11
ब्रह्मेश्वर 11
सदाबहार 11
प्रत्येक 11
निष्कासित 11
कुलगाम 11
कैनिंग 11
जहरीला 11
बसन्ती 11
घिरल 11
२०@@ 11
राजदेव 11
गंडकी 11
कोलार 11
बस्@@ 11
आडिशन 11
बिद्यालय 11
तीस्ता 11
ध्वज 11
अमाव@@ 11
फॉर्@@ 11
पहाडी 11
कोशिस 11
बेरिया 11
शरिर 11
थन 11
नरकटियागंज 11
शब्दों 11
वसंत 11
कॉमेडी 11
मतगणना 11
मंडी 11
कौशांबी 11
बहराइच 11
संभल 11
जहानाबाद 11
ग्रेजुएट 11
उपलक्ष 11
ग्राफिक 11
रिस 11
काउंसिल 11
चित्तौ@@ 11
तुर्@@ 11
त्यौहार 11
जालंधर 11
पर्यट@@ 11
मुंगेर 11
ला।@@ 11
हावा 11
न), 11
रॉक 11
"महा@@ 11
अरावली 11
CE) 11
5,5@@ 11
छोड़ो 11
सगरमाथा 11
ललितपुर 11
प्रधानमन्त्री 11
नेपालमे 11
रा" 11
जिला) 11
मंगो@@ 11
ट्स" 11
कोलं@@ 11
फ्लोरिडा 11
बसाव 11
स्थान, 11
पंचिमी 11
शाहाबाद 11
शियम 11
टीना 11
प्लु@@ 11
अथर्ववेद 11
1921 11
1941 11
1946 11
1968 11
एस) 11
(IS@@ 11
स्ट) 11
एटा 11
भद्रा@@ 11
सहजोगी 11
में), 11
इनहना 11
नाहन 11
उपशाखा 11
रूपरेखा 11
नागार्जुन 11
): 11
यस 11
वीरेन्द्रनगर 11
कोड@@ 11
औसतन 11
बिभेद 11
हिरण्यकश्यप 11
ज्ञानकोश 11
और @@ 11
जलधारा 11
</br> 11
फ़ा@@ 11
7,@@ 11
त्से 11
कटिबंधी 11
तिरहुत 11
दक्खिन-पूरबी 11
हे।@@ 11
अमरावती 11
दक्खिनी-पूरबी 11
ib@@ 11
ult@@ 11
fl@@ 11
550 11
फ़्@@ 11
73.@@ 11
69.@@ 11
(हिंदी: 11
20,@@ 11
k) 11
किस्तान, 11
घाना 11
निपुण 11
प्लैनेट 11
पुच्छल 11
नोकसानदेह 11
परतदार 11
दिन) 11
ओभर@@ 11
"का@@ 11
1946) 11
137@@ 11
(193@@ 11
नवरातर 11
सी" 11
(22 11
किलोग्राम 11
स्तूप, 11
232 11
end@@ 11
अलेक्जेंडर 11
22,@@ 11
कौण्डिन्य 11
d) 11
नॉर्@@ 11
यूराल 11
ऑस्ट्रेलियाई 11
is") 11
यारलुंग 11
नुवाकोट 11
क्रेटर 11
टॉम 11
होखे) 11
उपनाँव 11
प्रजातिन 11
ct@@ 11
O 11
ऑस्ट्रिया 11
निको@@ 11
अरल 11
विल्@@ 11
229@@ 11
12% 11
47% 11
उमेदवार 11
320 11
(19@@ 11
κ@@ 11
काफ़्का 11
ast@@ 11
।  11
14% 11
पदमा 11
ऑब्@@ 11
सिंगा@@ 11
सिद्धांत@@ 11
176@@ 11
शेंकल 11
लंबी 11
101 11
स्पाइस 11
डार्क 11
चनरगरहन 11
वरम 11
पोर्टफोलियो 11
शामी 11
एंड्रॉइड 11
फ्रेंचाइज 11
जी20 11
लिंचिंग 11
जगजीत 11
बाटे! 11
गोलबजार 11
एलिया 11
(कस्बा) 11
एरोसोल 11
सदानन्द 10
रघुवंश 10
विशेषांक 10
कहानीकार 10
दीय 10
अपेक्षा 10
उधार 10
परोस 10
बाड़ 10
फजीहत 10
पवलें। 10
बुझाव 10
आराधना 10
पइहें। 10
ीत। 10
चुनाव, 10
लरिकाईं 10
आए@@ 10
बिछा@@ 10
दोहरावत 10
बेबस 10
मीडियो 10
समृ@@ 10
ीहें 10
प्रेमी, 10
चारा@@ 10
जुटा 10
रहि-रहि 10
राजभर 10
छर@@ 10
तर। 10
गुजरा@@ 10
चक्की 10
शरा@@ 10
अउरो 10
गज 10
सोचि@@ 10
मजहबी 10
विनाश 10
जोड़ा 10
क्ल@@ 10
ट्ठा 10
रणनीतिक 10
परिवारे 10
समिलात 10
टेढ़ 10
घ्@@ 10
आपा@@ 10
वावत 10
अदालतो 10
चल। 10
कश्मीर, 10
उपजे 10
भईं@@ 10
वंशी 10
छूत 10
गजबे 10
अलगाववादियन 10
डेराइल 10
मलिकाई@@ 10
विजयादशमी 10
कुछ। 10
स्वयं@@ 10
सुबूत 10
झावे 10
दहा@@ 10
छुटकारा 10
जयकारा 10
देखलसि 10
पुर) 10
जमिके 10
महातम 10
कढ़@@ 10
ऊँ 10
थै@@ 10
विद्वा@@ 10
“पाती” 10
चित्रगुप्त 10
ेगा 10
अदाल@@ 10
छपाई 10
मेयर 10
समुझा 10
किस्@@ 10
बहुसंख्यक 10
इती 10
मेहरारु@@ 10
नेहरू@@ 10
गुरुदेव 10
पहुँचत 10
लाजवाब 10
भोजपुरिओ 10
खेति@@ 10
लउकेला, 10
जागरन 10
रोप@@ 10
खेत-@@ 10
स्के@@ 10
-संस्कृति 10
सरसों 10
क्षोभ 10
वी-@@ 10
प्रान 10
नशा@@ 10
मत, 10
सोचली 10
जस्टिस 10
न्यूटन 10
तब। 10
चाई, 10
बंद@@ 10
जहें 10
सटे 10
मेटावे 10
चात 10
कारो@@ 10
बारी, 10
म्मा 10
बाँट@@ 10
टाँग 10
वीजा 10
श्त 10
निन्दा 10
पक्षियन 10
उलझन 10
मोदी, 10
बसा 10
फूंक 10
नमाज 10
फानन 10
कारोबारियन 10
भोजपुरिया, 10
मीना 10
सिवा@@ 10
रंगन 10
थार@@ 10
वादक 10
शाह, 10
भुलाए 10
हई, 10
सन्देश 10
निरंतर 10
शैलेन्द्र 10
श्या@@ 10
रानी, 10
दुश्मनन 10
अनेरियन 10
कुछुए 10
लड़त 10
बोली@@ 10
विद्यालयन 10
मध@@ 10
पाँत 10
ियवा 10
सरकारे 10
भीं@@ 10
निबंधकार 10
शिवप्रसाद 10
बेर@@ 10
फाग 10
देबेवाला 10
रामकृष्ण 10
हवा, 10
प्राण@@ 10
नसीब 10
पँच@@ 10
उमाशंकर 10
मूल्य@@ 10
कहिके 10
स्टाल 10
सवख 10
बि, 10
बिरा@@ 10
बाँदा 10
कम। 10
वेशन 10
शरम 10
उन्हनी 10
पिछड़ल 10
उहवाँ 10
जमीन, 10
ियेशन 10
चों@@ 10
खिसिया@@ 10
अंगरेजन 10
डा० 10
हम, 10
लिखे-पढ़े 10
अवधी, 10
नऽ 10
ललक 10
पढ़े-@@ 10
बढल 10
बड़-बड़ 10
कीर्@@ 10
बोलावत 10
संगठ@@ 10
भरले 10
एक्को 10
गुन@@ 10
ही। 10
राई@@ 10
उमि@@ 10
इबो 10
चलब 10
जाईं, 10
मने@@ 10
चमक@@ 10
वेग 10
करब, 10
ोर 10
मेवाणी 10
पीड़ित 10
छिट@@ 10
गदगद 10
6, 10
मूर@@ 10
तोता 10
शीट 10
डे़ 10
भसान 10
नमा@@ 10
मुसल@@ 10
धाँ@@ 10
रहु 10
रहिमन 10
स्त्र 10
जइहन। 10
शंका 10
भितर@@ 10
घाती 10
विवा@@ 10
लोगे 10
टेज 10
चढ@@ 10
रों@@ 10
अदा@@ 10
नाबालिग 10
मद्@@ 10
धर्मा@@ 10
ड़त 10
ड़ु@@ 10
असहाय 10
विद@@ 10
हीनता 10
घाट@@ 10
तीन-@@ 10
गो, 10
सामाजिक, 10
आर्थिक, 10
बइठा@@ 10
लजी 10
चरित@@ 10
प्रोटो@@ 10
ऊँच-@@ 10
सइ 10
न्ती 10
पोढ़ 10
राहता 10
परचम 10
हिदी 10
फत 10
गहन 10
हीर 10
इन्टर@@ 10
क्रेडिट 10
पसेना 10
त्मक@@ 10
तबाह 10
बरू 10
ंदन 10
ऊँचा 10
पावे, 10
पर-@@ 10
लूटल 10
कसा@@ 10
मुह@@ 10
बतियवला 10
जमींदार 10
रिको 10
बाप, 10
सम्बन्धी 10
असी@@ 10
लोगवा 10
रोब 10
आवऽता 10
थोड़े 10
ऽ’ 10
‘हम’ 10
करीलें 10
वध 10
पोसले 10
प्राइवेसी 10
राखीं। 10
निज 10
सलाम 10
सं 10
खानदानी 10
हिय 10
धन-@@ 10
सेन्@@ 10
स्य 10
जल। 10
गिरोह@@ 10
मेन@@ 10
उड़ 10
वरा 10
मुसीबत 10
चट 10
नेह@@ 10
पइहें 10
जगजीवन 10
परौ@@ 10
राष्ट्रपति, 10
रवी@@ 10
निभावत 10
ओहमे 10
ही’ 10
बृह@@ 10
कोटि 10
बोलवा 10
वाजिब 10
नरसिंह 10
साक्षी 10
राजनी@@ 10
मुलाय@@ 10
मियत 10
निर्वाचित 10
गिरावे 10
न्ड@@ 10
पीये 10
नौकर 10
टेढ़ 10
हिचकि@@ 10
अनुभवी 10
वेके 10
पूजा-पाठ 10
कहेले 10
नजारा 10
बडा 10
काहे? 10
लिखल-@@ 10
तह 10
आक्रोश 10
मता 10
विकट 10
फ्यूजन 10
फसाद 10
निर्णायक 10
कामचलाऊ 10
करेक्ट 10
पवनी 10
दर्जनो 10
रब@@ 10
दुनियो 10
जोरू 10
डॉक्ट@@ 10
टावत 10
सोचला 10
अइबऽ 10
अवदान 10
थोरही 10
आगे-@@ 10
किरि@@ 10
भगवान@@ 10
दउड़ 10
हीरा@@ 10
चन@@ 10
गँवार 10
हाँ, 10
‘कुछ 10
गइनी@@ 10
पहर 10
छड़ी 10
परिस्थि@@ 10
बाह@@ 10
गंगा-जमुना 10
बोलि@@ 10
सा-@@ 10
ठेका 10
लेली 10
सुनऽ 10
गोवा, 10
मजे 10
बम@@ 10
असहिष्णुता 10
राधेश्याम 10
सुर्@@ 10
वन, 10
िल्@@ 10
आरती 10
लफ@@ 10
करबि 10
हिच@@ 10
बंध@@ 10
अत्यंत 10
वाद। 10
द्ध, 10
उपन्या@@ 10
स्कर 10
बाक्स 10
थोड़ 10
चित्रकार 10
पंख 10
क्रम@@ 10
गठित 10
नन@@ 10
आँचर 10
रवींद्रनाथ 10
सूति 10
भी) 10
शृ@@ 10
विराट 10
कोठा 10
कहिये 10
तना@@ 10
णी@@ 10
पीरा 10
अनुकूल 10
करबे 10
कविता-@@ 10
खरिहा@@ 10
पोख@@ 10
प्रभाव@@ 10
घुसि 10
भाईचारा 10
छोट-मोट 10
जांगर 10
भंगिमा 10
स्था, 10
गाहक 10
कीहें 10
एम. 10
मुसु@@ 10
लौट@@ 10
पेशकश 10
का’ 10
‘जन@@ 10
कल्पना@@ 10
सवीं 10
शेष 10
संस्मरण 10
एकइस 10
हलका 10
गेना 10
बिना@@ 10
कौश@@ 10
खड़े 10
मुक्@@ 10
लेंट 10
मोड 10
नाँवे 10
मिट@@ 10
फी, 10
डियो-@@ 10
बोधन 10
बरदा@@ 10
तक्षशिला 10
हमहु 10
गन्ध 10
शिवा@@ 10
भटक 10
प्रवृति 10
प्रगतिवाद 10
तटस्थ 10
्र 10
पार्टी@@ 10
पैरोकार 10
रसगर 10
पुष्ट 10
विसंगतियन 10
हिम 10
प्रकरण 10
योजन 10
सौन्दर्यशास्त्र 10
इतिहास@@ 10
न्द, 10
द्विती@@ 10
प्रा। 10
इयारी 10
च। 10
नाम। 10
वैया 10
उपनाम 10
सुनावत 10
संगठित 10
ट्रम्प 10
कैले@@ 10
सम्भव 10
रोई 10
पइसे 10
चिउ@@ 10
ंगो 10
संस@@ 10
केतने 10
कुछ@@ 10
नवाजल 10
औरंगजेब 10
रूआ 10
जनतो 10
लेसु 10
तत्सम 10
वारा@@ 10
दुइये 10
नीम 10
रामायनी 10
एकल@@ 10
चोर@@ 10
छः 10
कहँवा 10
काका, 10
अरमान 10
रहे।@@ 10
हार। 10
किरासन 10
हमही 10
चिट 10
एकेगो 10
मौके 10
कैदी 10
दिश 10
पतोहु 10
जुदा 10
यम@@ 10
पलट@@ 10
केशन 10
धड़@@ 10
हिंग@@ 10
बहादुरी 10
अस्पताल, 10
वेल@@ 10
उतरी 10
प्रभात 10
बडी 10
पहुंचि 10
आंसु 10
करबि। 10
मुसुका 10
फारि 10
पड़ाका 10
पासा 10
गइलू 10
जिमवारी 10
गिल 10
रिपोर्टिंग 10
चां@@ 10
अबो 10
बाबत 10
काल्@@ 10
हज@@ 10
कितना 10
सतर्कता 10
सतर्क 10
ा-@@ 10
ियावत 10
ढुकि 10
लजात 10
हंसी 10
अष्टमी 10
यु 10
द्रौपदी 10
वत्@@ 10
गइले, 10
बतवले। 10
भूखि 10
प्रेमिका 10
हमे@@ 10
चेला। 10
मिठा@@ 10
अभिन्न 10
कलाई 10
धागा 10
दांग 10
कर्मकांड 10
(जे 10
बउरा 10
खां@@ 10
स्ड 10
हटल 10
पीसल 10
जुलाई, 10
मिट 10
जोत 10
अहं 10
रोज-रोज 10
ंडन 10
बेनी 10
२२ 10
भूपे@@ 10
आयर@@ 10
स्ति@@ 10
काठमांडु 10
नृत्य@@ 10
भिक 10
महिन्ना 10
अँकवारी 10
बीतल। 10
गइली@@ 10
ले? 10
सेब 10
बाजत 10
ंगी। 10
दब@@ 10
मैदान, 10
मांगत 10
गरबा 10
कब्र 10
संजो@@ 10
ैल 10
गिया 10
डी। 10
पासे 10
कु 10
दूकान 10
जाति, 10
सम्पादन 10
कुरैशी 10
(जवन 10
चहुँ@@ 10
आयोजनो 10
आया@@ 10
प्रदर्श@@ 10
सिन्@@ 10
इकबाल 10
चन्द्रभान 10
कायस्थ 10
संध्या 10
हमार। 10
सायना 10
नेहवाल 10
डालि 10
जादेतर 10
भ्रम 10
फइला@@ 10
यापन 10
तानाशाही 10
दंश 10
उपेक्षित 10
जयन्ती 10
मोनो@@ 10
वियो@@ 10
नाऊ 10
कोश 10
भिन्@@ 10
ताला 10
मिलत-जुलत 10
पूल 10
डेयरी 10
ला)। 10
भगवा@@ 10
परम्परागत 10
कता@@ 10
पूंजी@@ 10
सैद्धांतिक 10
125 10
भारतवर्ष 10
प्रांतीय 10
बंगला@@ 10
शिक्षण 10
जबरदस्ती 10
माता, 10
गुस्सा 10
संस्कृति@@ 10
पोलैंड 10
नद्@@ 10
भाष्य 10
ताड़@@ 10
मे़ं 10
प्रवर्तन 10
पंप 10
1961 10
106@@ 10
वीं-@@ 10
दिहि@@ 10
डी.@@ 10
स्टेटस 10
सोचावट 10
मेक 10
स्वायत्त 10
दिआ@@ 10
ज्य@@ 10
सुरूज 10
इका@@ 10
लाए 10
मशी@@ 10
द्धन 10
नवरात 10
प्रकृति@@ 10
98% 10
327@@ 10
बरो@@ 10
गिरफ्@@ 10
चश्मा 10
बतइ@@ 10
गतिविधियन 10
”अरे 10
,8@@ 10
अम्बेड@@ 10
धर्मवीर 10
डॉ0 10
ंग) 10
निवेश@@ 10
नस्@@ 10
तिकी 10
1922 10
5000 10
सहकारी 10
हंस@@ 10
समर्@@ 10
अपरि@@ 10
विले 10
ज्ञान-विज्ञान 10
वोल्यू@@ 10
मतलब, 10
गुजर@@ 10
ओंकार 10
सटले 10
मानुस 10
सच@@ 10
दार्शनिक, 10
टेन 10
गाँधीजी 10
निरीक्षण 10
करले 10
चटनी 10
1/@@ 10
गौरवशाली 10
शाही, 10
सता 10
कल-@@ 10
अच्छाई 10
मद 10
ल; 10
संस्थागत 10
लैंगिक 10
नीतियन 10
नागरि@@ 10
दांत 10
130 10
मिथक 10
िहें 10
लौंडा 10
लास्ट 10
सादी 10
नाँव@@ 10
दिख@@ 10
भयल 10
ैं। 10
बाबु 10
फरीदाबाद 10
व्यवसायिक 10
फर्क 10
1954 10
मद्रास 10
मासिक 10
टुकुर 10
ौती 10
हरावत 10
कमनीय 10
तोरे 10
”अब 10
रबि@@ 10
जोतत 10
तिवराइन 10
कँ@@ 10
दुइ 10
लैं 10
डरा@@ 10
तप@@ 10
संतो@@ 10
सावित्री 10
अल्बम 10
बनलें 10
षक 10
सेलिब्रिटी 10
कीर्ति 10
विकिपीडिया 10
कर्ण 10
करमसाँढ़ 10
अग्रिम 10
इठ@@ 10
खम्@@ 10
चलेले। 10
बाव@@ 10
जानें 10
बाने@@ 10
बोलता 10
पियर 10
ऽऽ 10
आसरम 10
पघिल 10
रहन@@ 10
झाड़ी 10
पचोखर 10
रोगी 10
हवेली 10
बाबूजी, 10
हुनर 10
इनकम 10
इजत 10
वोही 10
सुरे@@ 10
(लि@@ 10
पुल, 10
जूट 10
फिरत 10
तिमाही 10
फलदार 10
निश्छल 10
कबीला 10
फेरत 10
चंचल 10
ल… 10
थोरिके 10
लिहलस, 10
बऽ। 10
चास 10
कलन 10
खड्@@ 10
रच्छक 10
सीय 10
छिप 10
१९६@@ 10
ंडी@@ 10
किस्म 10
रज@@ 10
उभर@@ 10
भाग्य@@ 10
रोमां@@ 10
डरना 10
‘नगीना’ 10
‘प्यार 10
शूटिंगो 10
नइखू 10
दूबे, 10
पलेटफारम 10
सेन@@ 10
आईं, 10
झों@@ 10
मुबारक 10
प्रूफ 10
‎@@ 10
कवी, 10
मोहन@@ 10
विंग 10
बहल 10
मुआविजा 10
फेडरल 10
ब्याज 10
भभुआ 10
फोन, 10
जब्त 10
सैन्य 10
ध्वजवाहक 10
बाबुजी, 10
बागपत 10
लायंस 10
गडकरी 10
लगवले। 10
इंफ्रास्ट्रक्चर 10
भुवनेश्वर 10
जहाजन 10
अहम@@ 10
टिकैत 10
वित्तीय 10
पवार 10
बीड 10
प्रत्या@@ 10
हिसार 10
बोलेरो 10
तस्कर 10
गाँजा 10
पृथ्वीराज 10
मेजबान 10
स्विस 10
हर्षवर्धन 10
शौचालय 10
णे 10
रूर 10
अंतरिम 10
दुकानदार 10
यौन 10
सिरसा 10
आवेदन 10
बंदूक 10
हिंदुत्व 10
थई 10
एव@@ 10
सीज 10
रामजी 10
197 10
सीमा@@ 10
क्रै@@ 10
सेंकल 10
खैबर 10
दानापुर 10
क्रासिंग 10
ओलम्पिक 10
ट्रैक 10
बरौनी 10
िंग 10
लैण्ड 10
सेक@@ 10
चूना 10
गुरू@@ 10
ब्राड@@ 10
पलटला 10
न्यूनतम 10
थ्री 10
रिपब्लि@@ 10
ब्यूरो 10
निशानेबाजी 10
युति 10
राउंड 10
माकपा 10
समेटे 10
गोधरा 10
बकाया 10
दुर्गा@@ 10
रेलगा@@ 10
रंगदारी 10
जार्@@ 10
महानिदेशक 10
इवेंट 10
सेना@@ 10
थमल 10
प्रबंधक 10
उपनगर 10
अपोलो 10
गोपा@@ 10
इंजीनिय@@ 10
देवदास 10
स्टी 10
मैजिक 10
बिद 10
एश@@ 10
सीध 10
कैपिटल 10
गोरे@@ 10
असफल 10
ओल्ड 10
केमिकल 10
ंडम 10
सौगात 10
जेशन 10
टूर 10
कन्याकुमारी 10
विधायकी 10
फोर्ट 10
डिमांड 10
कार्या@@ 10
विस्तृत 10
जेज 10
भट्ट@@ 10
सठ 10
टूल 10
सीसा 10
फेफ@@ 10
राहुल, 10
मंगेशकर 10
बालम 10
रिस्क 10
भिंडा 10
अंडर@@ 10
वण 10
शाहाबादी 10
बेलगाम 10
होगी। 10
ॉप 10
कंग@@ 10
79 10
राजनीतिज्ञन 10
बोरा 10
बदमास 10
२७ 10
बिदेसिया 10
पञ्च@@ 10
थोड़ा 10
ख्याल 10
मित्रों 10
ंप 10
मॉडलिंग 10
ख़री@@ 10
ग़ज़ल 10
शाम 10
लाँ। 10
खातिर) 10
ख़ा@@ 10
कराई@@ 10
रहू@@ 10
फूटी 10
रोहतक 10
प्रिंस 10
सेनापति 10
वालों 10
केल्@@ 10
चुनार 10
अधिकृत 10
डियर 10
रघुबर 10
यद्यपि 10
पीडीपी 10
आयुर्वेद 10
ब्लॉ@@ 10
सलीम 10
_B 10
पाने 10
रतन@@ 10
मेजबानी 10
तीसरे 10
मामले 10
समस्या@@ 10
शू 10
दीपा 10
प्रतापगढ़ 10
प्राप्ति 10
इस्लामाबाद 10
बोलने 10
जलाये 10
डैनी 10
लेसर 10
मेर 10
कम्युनिकेशन 10
ज्वालामंडी 10
कंपनियों 10
उत्पादों 10
मोहब्बतवाला 10
सकें 10
फ़ोन 10
नियंत्रित 10
आवाज़ 10
फ़ी@@ 10
प्रतिसाद 10
विनय@@ 10
वुड 10
स्पै@@ 10
श्रीलंकन 10
सरों 10
२९ 10
नकलचियन 10
प्रकाशोत्सव 10
पढ़वइयन 10
अबेरा 10
स्थापन 10
कोहरा 10
माहाठगिनि 10
कोइ 10
एजेंट 10
मर्स 10
वोकर 10
उड़ी@@ 10
कोयंबटूर 10
मैके@@ 10
हनु@@ 10
नर्सिंग 10
लॉजी 10
उदय@@ 10
कइयन 10
ओतहाँ 10
विस 10
सहमती 10
नर्स 10
विमान@@ 10
जगत@@ 10
तुम्हारी 10
ड्रिंक 10
सतुआन 10
प्रोटे@@ 10
२८ 10
शाक्य 10
भाटपार 10
सुल्तानपुर 10
मगंज 10
किशनगंज 10
जिस@@ 10
लेयर 10
चैती 10
ग्लो@@ 10
सुगौली 10
ग्राउंड 10
घोषणापत्र 10
कोलो@@ 10
हऽ. 10
T) 10
इहं@@ 10
"", 10
पाएंट 10
"हम 10
...@@ 10
मूसा 10
?"" 10
', 10
""का 10
बुधन 10
बाबूदी 10
ho@@ 10
ं: 10
महाद्वी@@ 10
इंडिया" 10
ईपू 10
होलीं। 10
दक्खिन-पच्छिम 10
बिंध्याचल 10
बिसुवत 10
"भारत 10
मनोबैज्ञानिक 10
सिल्@@ 10
1951 10
290 10
,000@@ 10
लिच्छवी 10
.03% 10
कैन 10
ब्रिटि@@ 10
1940 10
एवरे@@ 10
निर्माण, 10
नेपालका 10
विश्वविधालय@@ 10
कृषी 10
जिल्ला@@ 10
1919 10
11.@@ 10
min@@ 10
लक्@@ 10
जलजोड़ 10
किमी) 10
मूलनिवासी 10
मिशनरी 10
बढियाँ 10
1,7@@ 10
द्वारा, 10
य" 10
हेइजे 10
1963 10
क्यूलर 10
अनुमानित 10
"' 10
मटियाहूँ 10
देवकी 10
1926 10
1933 10
1986 10
रखाइल। 10
मानसूनी 10
भाबर 10
जचगी 10
उल-@@ 10
न", 10
ओडिया 10
होला: 10
स्पेशियल 10
कार्टोग्राफी 10
ge@@ 10
(भारत) 10
________________________________@@ 10
एडवेंचर 10
हेटौ@@ 10
सिमा 10
त्रियुगा 10
अंगरेजी: 10
वू 10
•@@ 10
ह्वेन 10
उपोष्ण 10
(रे@@ 10
त्सांग 10
कैलेण्डर 10
की @@ 10
जाला। @@ 10
01 10
Intern@@ 10
निक, 10
बाटें 10
भारतीय-@@ 10
चंपा 10
बाणभट्ट 10
F) 10
राजधा@@ 10
25% 10
ther@@ 10
सल्फर 10
ann@@ 10
46% 10
२०१५ 10
मा" 10
वाज 10
947 10
कोइली 10
काजू 10
अंडा@@ 10
भाबिस्य 10
सकेला: 10
लातीनी 10
बिस्फोट 10
ess@@ 10
बारहवाँ 10
O) 10
(25 10
टाइम्स" 10
ली" 10
96 10
ज़्@@ 10
सैमसंग 10
बाटें। 10
कइलेन, 10
किरात 10
ली), 10
"सु@@ 10
नामांकित 10
152 10
रक्खल 10
पतंजलि 10
हल्दिया 10
48% 10
22% 10
113@@ 10
ऑस्ट्र@@ 10
थेरवाद 10
मिलियन), 10
ंदपुर 10
330@@ 10
पांडिचेरी 10
912 10
(0@@ 10
e" 10
बुंदेलखण्ड 10
ोन 10
K 10
ion) 10
विजि@@ 10
आकाशगंगा 10
रिफ्ट 10
ational 10
आबिस्कार 10
on) 10
BC 10
बत्तख 10
yn@@ 10
उपप्रजाति 10
पीलक 10
बसन्ता 10
yp@@ 10
99% 10
"सै@@ 10
गलियारा 10
हिंदी-भाषा 10
e; 10
गुंबद 10
बिंबिसार 10
छतरपुर 10
बियाई 10
इकोलॉजिकल 10
पेंटिग 10
कार्डिफ 10
m) 10
बनजीव 10
टैक्सोनॉ@@ 10
905 10
आइलैंड 10
ईजाद 10
1,6@@ 10
क्राइ@@ 10
तितिली 10
सियांग 10
बै॰:"P@@ 10
मॉन्टीफ्रिंजिला 10
753 10
892 10
कोट्ट@@ 10
शिवपुरी 10
155@@ 10
ard@@ 10
ए) 10
स्टॉक 10
891 10
पठानकोट 10
"स्लमडॉग 10
पाम 10
एंजेलिस 10
वाड 10
0वाँ 10
ha@@ 10
ब्रॉड 10
वेस्टजेट 10
सम्वत 10
प्रोड्यूसर, 10
सुलेख 10
ट्रोजन 10
वात्स्यायन 10
हंबनटोटा 10
छिल्लर 10
गाउँपालिका 10
साहिर 10
रसमलाई 10
रुपाकोट 10
मझुवागढी 10
सभा, 9
भीमराव 9
उदय, 9
सदानंद 9
शैलेंद्र 9
कुबेर 9
होखिहें। 9
२०१@@ 9
हौसला 9
गोष्ठ@@ 9
नाटक@@ 9
मुल्@@ 9
दुलहा 9
जबर@@ 9
आश@@ 9
दिओ 9
नाम, 9
मन्दि@@ 9
बीतला 9
भूगोल@@ 9
भेंटाई। 9
रहसु 9
उसमें 9
रणनीतिकार 9
कुनबा 9
बेटी-@@ 9
घुसपैठियन 9
नाचल 9
पत्रकार, 9
मानन 9
चहुँपत 9
नहाइल 9
पिछल@@ 9
भल 9
हमनिओ 9
नवकी 9
प्ट 9
सवर्णन 9
चतुराई 9
झोरा 9
घोटाला, 9
पवलें 9
पंचे 9
रहिए 9
जबरा 9
यादो 9
दीं, 9
सुगम 9
काँप 9
पसारे 9
लबार 9
चुनिन्दा 9
जहाँ-जहाँ 9
राजस्थान, 9
पैनल 9
यादव। 9
संघचालक 9
टा। 9
फालतू 9
पचावे 9
डायरे@@ 9
पुरुलिया 9
आत्म 9
बढ़ले 9
जरुरे 9
करतब 9
लेलें। 9
बिआहल 9
लगवलसि 9
प्रमाण@@ 9
भ्रूण 9
बड़ाई 9
बरिसन 9
मेश 9
अनेकता 9
ऱ 9
न” 9
झूमे 9
धारणा 9
संयोजन 9
पाण्डे@@ 9
पदन 9
सृजन@@ 9
शॉ@@ 9
रविन्द्र 9
निभवले 9
नच@@ 9
अय्यर 9
जवनन 9
एहीजे 9
घुस@@ 9
मेहर@@ 9
हिचक 9
खुदा 9
विधायिका 9
अभिमन्यु 9
बेटा-@@ 9
प्रस्ता@@ 9
शिष्ट@@ 9
दूर-दूर 9
बतिय@@ 9
चमत्कार 9
आनंद, 9
रितेश 9
देबेला। 9
िया’ 9
जूझ@@ 9
बरखा, 9
उठाइ 9
चेत@@ 9
तूरि 9
सुभाविक 9
न्दन 9
हूँ-@@ 9
सिंचाई 9
बटु@@ 9
होइयो 9
काव्या@@ 9
श्रम@@ 9
कमि@@ 9
खाँटी 9
वाकिफ 9
बारा 9
विज्ञा@@ 9
निकललें 9
रहीलें। 9
उड़ी 9
जीओ 9
बनावेला 9
राशन 9
साँढ़ 9
सांसदो 9
इंगलैण्ड 9
हिन्दुत्ववादी 9
नीती@@ 9
प्ती 9
स्काई@@ 9
लैब 9
तस्@@ 9
होंगे 9
पटेल, 9
लऽ@@ 9
धरावल 9
टोन 9
आब 9
हन, 9
अगल-बगल 9
फगुनहट 9
त्यो@@ 9
भगवा 9
विवेकानन्द 9
नागर@@ 9
कबीरदास 9
वीरगंज 9
ंता 9
नेश 9
अश्विनी 9
राइल, 9
न्सी 9
गाँधी, 9
दबावल 9
बोलसु 9
देखले। 9
(बिहार) 9
उत्तरप्रदेश 9
संगठनन 9
सउँ@@ 9
दबावे 9
आँ 9
बॉडी 9
छिपा 9
दलित, 9
खबर@@ 9
भाजपो 9
वजी@@ 9
ओट 9
सरंजाम 9
भुग@@ 9
चटकार 9
न्यायमूर्ति 9
मूर्@@ 9
भाँड़ 9
जी’ 9
कल्प 9
निख@@ 9
तुलसी@@ 9
वहाँ 9
रहलीं, 9
चिन्हा 9
आधा-@@ 9
भोरहीं 9
तिका 9
गौरवान्वित 9
आमंत्रित 9
पेपर 9
उपकार 9
सत्याग्रह 9
तेयाग 9
भुख@@ 9
प्रण@@ 9
रहिते 9
नाँवें 9
बुनियाद 9
वाला) 9
पढे 9
पढ़ावे 9
संस्कृत, 9
पति, 9
कथित 9
भाषा-साहित्य 9
पाजि@@ 9
गुने 9
इलेक्ट्रॉनिक 9
मठाधी@@ 9
ग़ज़@@ 9
संग्रहीत 9
मुक्त@@ 9
लिखि 9
चली@@ 9
ई? 9
बेटी, 9
वरे 9
छूट@@ 9
छु 9
भितर 9
कारे@@ 9
करेले, 9
चिन्ह@@ 9
गुंजा 9
सोची@@ 9
लहल@@ 9
नान्@@ 9
बलम 9
कतहूँ 9
डार@@ 9
अकल 9
फ़रवरी 9
नेशिया 9
समागम 9
जुर्म 9
जुगा@@ 9
कारनामा 9
चाहल 9
देखी। 9
आर्कबिशप 9
अल्प@@ 9
दीदिया 9
सोमनाथ 9
खंडन 9
धिकार@@ 9
मानेले 9
जिम्@@ 9
नाए 9
नारियल 9
काया 9
सुनवइया 9
छात्र@@ 9
ग्गी 9
समुझावल 9
सलामी 9
बेंवतगर 9
मी-@@ 9
ण्डि@@ 9
रोहिंग्या 9
हथिया 9
भासाई 9
एक, 9
सकल, 9
िक, 9
तीसर 9
बिन्दू 9
स’ 9
बाड़े@@ 9
किसिम-किसिम 9
मागधी 9
देस-@@ 9
कहँ@@ 9
धर्मिता 9
लोचन 9
बिसे@@ 9
हास 9
झंडा@@ 9
छाँ@@ 9
फार्मूला 9
बले 9
मिलिए 9
हारत 9
कराह 9
मिलावत 9
फेंकत 9
गुरुजी 9
आसिफ 9
ड़, 9
सर-@@ 9
कइस@@ 9
जोख 9
लीस 9
अर्धा@@ 9
कराके 9
जनमते 9
जाई? 9
सच्चा 9
दिसाई 9
मोहनदास 9
रोह@@ 9
धन, 9
नो। 9
असकत 9
होत। 9
नुकसा@@ 9
लिखवा@@ 9
भाई-@@ 9
बजाव@@ 9
खाय 9
शर्म 9
जाता, 9
पीयल 9
प्रबल 9
तूहूँ 9
जुला 9
हरज 9
माटी, 9
कालेज, 9
लुत्@@ 9
त- 9
पीय@@ 9
पा। 9
चिन्हे 9
बनाईं। 9
बुझइबे 9
प्रभुत्व 9
मातरम 9
पसी@@ 9
डीएम@@ 9
थूक 9
फाँ@@ 9
लगाम 9
निभा 9
पंडि@@ 9
कहलें। 9
दीं@@ 9
‘हमरा 9
खदे@@ 9
पवलसि 9
यात्रियन 9
पियावे 9
खिय@@ 9
कोविन्द 9
विरा@@ 9
पेस 9
टिप्पण@@ 9
कत, 9
एकहक 9
किताब, 9
सादर 9
यरन 9
पाशा 9
आफि@@ 9
दलिते 9
चुनले 9
बुद्धिजीवियन 9
वक्तव्य 9
अभिनन्दन 9
फौज 9
मूसर 9
महबू@@ 9
दुख-@@ 9
निग@@ 9
मिथ@@ 9
बरदास 9
कुंडली 9
दिवंगत 9
आजतक 9
वादी, 9
प्रगति@@ 9
पहिलकी 9
उन्नति 9
स्वर@@ 9
प्रकट 9
मातृभाषाई 9
नजर@@ 9
खास@@ 9
जुटावल 9
राखेला। 9
),@@ 9
मतलबे 9
नैसर्गिक 9
मिसाल 9
हउवन, 9
उठता 9
खुरपी 9
चट्टी 9
जग 9
अधिकारन 9
ट्वीट 9
सेन, 9
ल्लाह 9
जातियन 9
डीएम 9
झाड़@@ 9
रोमांचक 9
डॉक्टरन 9
परिजन 9
अँउ@@ 9
गरियावत 9
पाद@@ 9
रैया 9
पं। 9
घं@@ 9
लवी 9
अंचरा 9
इजा@@ 9
नहा-@@ 9
रउओ 9
सुनाइल 9
तमा 9
चलीं, 9
ना…। 9
आइब। 9
मेहर 9
अच@@ 9
अवला 9
सुननी 9
घर-परिवार 9
चांद 9
मेहरुन्निसा 9
बड़ा@@ 9
रखि@@ 9
गुजरात, 9
घनश्याम 9
विपिन 9
गे, 9
देखनिहारन 9
छाँव 9
दिहीं 9
हृ@@ 9
लइका। 9
सदमा 9
लइला 9
एवाला 9
रीढ़ 9
बड़ले 9
स” 9
मेल@@ 9
कीओ 9
हेम@@ 9
व्यावहारिक 9
वाणिज्य 9
रहनीं। 9
मिश्रण 9
मिडिया 9
काके 9
हुकूमत 9
जनो 9
प्रसंग@@ 9
मिता 9
पकड़े 9
खींचत 9
अनका 9
केसरिया 9
गूँज 9
स्वतंत्र@@ 9
गना 9
यथार्थ 9
चटक 9
भोलानाथ 9
मोती@@ 9
जोरि 9
चकाचौंध 9
जुबली 9
प्रेमांशु 9
गील 9
घटना@@ 9
डी) 9
ला,@@ 9
रा’ 9
विधिवत 9
प्रतिनि@@ 9
ना’ 9
(194@@ 9
श्वे@@ 9
गोदा@@ 9
निकाला 9
ंगल@@ 9
दर्पण 9
अढ़ाई 9
कलि@@ 9
बिगड़@@ 9
आवता 9
होखते 9
पूरन 9
भसुर 9
आभारी 9
नामो 9
सिपाहियन 9
उपाध्‍यक्ष 9
सोचलसि 9
कागजात 9
मउसी 9
बहुमूल्य 9
धूमिल 9
बिना, 9
जनवादी 9
चक@@ 9
लगत 9
उलटे 9
अजब 9
आगे@@ 9
नारा@@ 9
शौर्य 9
रचित 9
व्याख्या@@ 9
समस्त 9
अन्या@@ 9
ेले। 9
षि@@ 9
फाटे 9
यंग 9
कॉन 9
फाई@@ 9
इयार 9
ब्रॉड@@ 9
टों 9
रील 9
देखलीं 9
उ, 9
हमरा@@ 9
‘वि@@ 9
शालि@@ 9
पर) 9
मनमौजी 9
काम। 9
उपरी 9
बेईमानी 9
करोड़@@ 9
घूरा 9
युव@@ 9
गरदा 9
दस-@@ 9
द्वितीय 9
सले@@ 9
वालो 9
फेंका 9
गाड़@@ 9
कने@@ 9
विजयनगर 9
बढ़ावत 9
रोकले 9
स्रो@@ 9
उत 9
कुटु@@ 9
प्रोफे@@ 9
पावे@@ 9
शेखर@@ 9
विदा 9
3-@@ 9
लागो। 9
कानूनन 9
इस्तेमालो 9
व्यापार@@ 9
बम्@@ 9
पलक 9
पूजा-@@ 9
चिल्ला@@ 9
अर्ध 9
काहे। 9
एंग्@@ 9
आधारभूत 9
रीढ़ 9
सकऽता। 9
खिया@@ 9
आंखी 9
साफ-@@ 9
छोड@@ 9
ऽतानी। 9
रोड@@ 9
कर्नल 9
सोभाव 9
s। 9
समर्थ@@ 9
हिरिस 9
साक्ष@@ 9
जर, 9
पसारल 9
तस्करी 9
महारत 9
हाउस@@ 9
दलदली 9
राजनीतिओ 9
सवाँ 9
बतकु@@ 9
अभिने@@ 9
बनइ@@ 9
सन्मार्ग 9
देखेला। 9
गद्दारी 9
असंभव 9
गावे@@ 9
अहजह 9
लपक 9
बोलीं 9
सूची@@ 9
रवैया 9
राजनितिक 9
30% 9
सफ@@ 9
खचाखच 9
ण्य 9
ऽत 9
चहुँपले। 9
भोगी 9
समूहन 9
जाल, 9
जंजाल 9
खिड़की 9
जादूगर 9
आदिशक्ति 9
खूँ@@ 9
परला 9
मेवाड़ 9
पूर्णा@@ 9
राखि@@ 9
रोध 9
जाता@@ 9
छुअ@@ 9
क्षर 9
ह्रस्व 9
लाव 9
खुद@@ 9
दिही। 9
पाल, 9
क्षित 9
16वीं 9
अरवि@@ 9
अंगू@@ 9
वेदना 9
थाकल 9
होय। 9
प्रोजे@@ 9
मुख्तार 9
सना@@ 9
निको 9
अंगव@@ 9
हीरोइनन 9
ऑफर 9
कुट 9
दिनभर 9
बानी? 9
मेहरी 9
कुसु@@ 9
सोझे 9
गॉव 9
ंती 9
कंपूटर 9
लेई 9
ौना 9
साहेब, 9
मोहरा 9
पहुंचा 9
डग@@ 9
सका 9
साहेब@@ 9
संतन 9
कोचिंग 9
समुदाय@@ 9
अस्पता@@ 9
अका@@ 9
फारम 9
मृत्यु@@ 9
बू। 9
झनझ@@ 9
बकत 9
ंकले 9
हूक 9
हकी@@ 9
समझावत 9
मदाबाद 9
आजमग@@ 9
निवा@@ 9
गोंड@@ 9
भीड़@@ 9
ड़े@@ 9
हीरो@@ 9
3, 9
टरे@@ 9
ह) 9
पाईं 9
िया) 9
लागु@@ 9
मनोरं@@ 9
पीढ़@@ 9
की) 9
पिछड़ा 9
पिछिला 9
गहि@@ 9
कथा, 9
साम्राज्य@@ 9
निर्मला 9
स्ना@@ 9
पूस 9
संव@@ 9
कुरी@@ 9
वीरेन्द्र 9
के! 9
विद्रो@@ 9
इहाँ, 9
मान। 9
न; 9
कहल। 9
भिन्नता 9
नियमन 9
ध्वनियन 9
अवै@@ 9
तल@@ 9
शब्दकोश 9
औ 9
श्रु@@ 9
निश्चय 9
दिल्ली-@@ 9
खड़ी 9
अध्यय@@ 9
वेल्@@ 9
व्यक्ति, 9
हिब्रु 9
बनवलस। 9
चिकित्@@ 9
थोड़@@ 9
सपू@@ 9
रबीस 9
विष्णुदेव 9
एगार@@ 9
छुपल 9
सर्वमान्य 9
निगेटिव 9
फ्ला@@ 9
ठेंगा 9
लाईन 9
वऽ। 9
स्वतन्त्र 9
सम्भावना 9
कौड़@@ 9
मइल 9
जोरा 9
पारबती 9
अच्छ@@ 9
निरं@@ 9
बतवलन। 9
योगेश 9
इंडिया’ 9
बोलियन 9
थो 9
इयाँ 9
तेली 9
धान, 9
ष्टा@@ 9
इम्तिहा@@ 9
म्हा 9
मुँहे 9
ंद, 9
वैश्वीकरण 9
विज्ञाप@@ 9
विवेका@@ 9
ट्स, 9
धा, 9
बहारल 9
कलु@@ 9
माॅ@@ 9
उद्देश@@ 9
मानवता@@ 9
सद्@@ 9
भर्@@ 9
सूचक 9
निहित 9
अन्ध@@ 9
माता@@ 9
सबही 9
गौरा@@ 9
पुरोहि@@ 9
त्म 9
तर्क@@ 9
भौतिक@@ 9
तोड़@@ 9
सभ्य@@ 9
वर्ष@@ 9
वेद, 9
मैक@@ 9
ज्योतिर्लिंग 9
बिधि@@ 9
नासिक 9
टूरिज्म 9
स्पा@@ 9
सूर्@@ 9
सुत@@ 9
टहल 9
बुझाइल। 9
पुण्य 9
सहूलियत 9
बाडी 9
जोड@@ 9
विश्वविद्याल@@ 9
आहार 9
महाकवि 9
सेवी 9
तुलनात्मक 9
फर्ज 9
रोशन 9
उहा@@ 9
सुधार@@ 9
छक्का 9
वाम@@ 9
अखाड़ा 9
ड़ियन 9
थाकि 9
दंड@@ 9
टीन 9
छितराइल 9
घंटन 9
ड़ु@@ 9
भुत 9
दउर@@ 9
टेम्प@@ 9
कामन 9
भौति@@ 9
ॅ 9
हरेन्द्र 9
वर्धन 9
उजर 9
बजरंगी 9
एमए 9
तकनीकि 9
डाॅटकाॅम 9
प्रतिज्ञा 9
शियन 9
मैनेज@@ 9
जइस@@ 9
पहुँचनी 9
पइसो 9
शूट 9
चेंज 9
त्तन 9
ग्लैमर 9
समझदारी 9
ईश्वर@@ 9
किल 9
नजदी@@ 9
पायलट 9
साईट 9
मेडी 9
लोकेश@@ 9
मुला@@ 9
उप्पर 9
”का 9
छिला 9
चक्का 9
छिटपुट 9
टाप 9
निर्देश@@ 9
बखत 9
लैं, 9
भुनभु@@ 9
पक्की 9
जायँ 9
थियो@@ 9
लिहा@@ 9
खर-@@ 9
ताप@@ 9
इर्द-गिर्द 9
थीम 9
जिम्मे@@ 9
सामजिक 9
अर्जु@@ 9
धर्मपति 9
स्था 9
आसा@@ 9
साटा 9
गलथेथरई 9
जड़ा@@ 9
सुनब 9
निगिचा 9
अतर@@ 9
न्हा 9
साफ्टवेयर 9
सोर्@@ 9
दाद 9
मृदुल 9
णा, 9
वाहवाही 9
बी॰एन॰ 9
उबिया 9
खरहरा 9
देखरेख 9
मैडम 9
सामंजस्य 9
गाछ@@ 9
अन्हड़ 9
असमान 9
बरस 9
रितु@@ 9
पांखि 9
आका@@ 9
रेख 9
ढ़ी 9
आदेस 9
सिकुमार 9
बेहोस 9
पियवा 9
चिक@@ 9
उमा 9
कें 9
क्क@@ 9
करेजवा 9
गय@@ 9
ताक 9
नहाये 9
सील 9
आयल 9
बिरि@@ 9
दादी 9
अनचिन्हार 9
जनतब 9
जईसे 9
कईला 9
अरा 9
लस्ट@@ 9
चिट्ठ@@ 9
आदमी, 9
प्रमाणित 9
राउ@@ 9
ईहाँ 9
ौता 9
तक। 9
ओल@@ 9
अभिनेत्र@@ 9
मंदी 9
दाहिना 9
जनवरी, 9
राष्ट्रीयता 9
बहुलता 9
महत्व@@ 9
बा?’ 9
अनार्य 9
छोड़ऽ 9
रहन-सहन 9
पाँचों 9
युवकन 9
झुकि 9
चितवन 9
फुर्ती 9
एके@@ 9
हंसे 9
पुछनी 9
रोवल 9
भुज@@ 9
युवती 9
बनइला 9
शीतल 9
घुसु@@ 9
तरन 9
हेइजा 9
भाभी 9
क्रूर 9
बृकोदर 9
सेनानायक 9
वनस्पति 9
सिकु@@ 9
रणवीर 9
सूर्पनखा 9
होरी 9
रसदार 9
चबूतरा 9
बेकाबू 9
आकार, 9
उफ@@ 9
मुड़ी 9
170 9
हरियाणा, 9
आयु@@ 9
‘लाडला’ 9
चंडी@@ 9
मांग’ 9
रहेली। 9
घरन 9
भयावह 9
झाड़ 9
पूर्वांचलियन 9
डहकल 9
अनिरुध 9
1935 9
चढ़े 9
असमय 9
कालजयी 9
अदला-बदली 9
बावन 9
मच्छ@@ 9
विश्विद्यालय 9
वरण 9
बाबु@@ 9
करऽता 9
खिसि@@ 9
राजपथ 9
जई@@ 9
रेन्द्र 9
नर्तक 9
तेंदुलकर 9
मल्टीमीडिया 9
ंची 9
फाइन@@ 9
आटो 9
कार्यरत 9
डीज 9
इगारह 9
आसनसोल 9
कैट@@ 9
ैया 9
चौथाई 9
एथ@@ 9
ऑस्कर 9
2जी 9
फय@@ 9
वल्लभ 9
उगाही 9
तस्करन 9
अधरतिया 9
रिहा 9
लाइटिस 9
नार्वे 9
कच्ची 9
द्दीन 9
निवेशकन 9
बीसबीसा 9
सराय@@ 9
पीपल 9
विद 9
सीआर@@ 9
क्वि@@ 9
दिग्गज 9
दिलचस्प 9
सर्वि@@ 9
बांग्लादेश, 9
ओमान 9
थिक 9
आरोपियन 9
ख्त 9
धना 9
वाक@@ 9
अंगिका 9
पाक@@ 9
दक्षिण-@@ 9
खदान 9
हयात 9
ौरा 9
सांच 9
सीसी@@ 9
रविदास 9
टेक@@ 9
भगवानपुर 9
फटला 9
चांदी 9
मम्मी 9
तालिका 9
राजकोषीय 9
प्रतिबंध 9
कंपाउंड 9
मल्टी@@ 9
स्ट्रो@@ 9
तीरंदाजी 9
अमरेली 9
चेकिंग 9
लिमिटे@@ 9
कोल 9
1964 9
मुंड@@ 9
सरा 9
700 9
टंडन 9
रूल 9
सांप्रदायिकता 9
बाड़ी@@ 9
13-@@ 9
विजुअल 9
चुंग 9
होला? 9
चहनी 9
बाइक 9
चोक 9
नाद 9
बनावल। 9
2020 9
राबाद 9
मुस्लि@@ 9
हत्याकांड 9
माओ@@ 9
रहाट 9
प्लांट 9
्त 9
P) 9
कड़न 9
रसायन 9
जीसी 9
एप्पल 9
रिका 9
बिजनौर 9
भूमध्यसागर 9
पालिटिकली 9
कानू 9
रिकॉर्ड 9
रसाय@@ 9
शिवम 9
संजना 9
वाला’ 9
कुन@@ 9
बईठ 9
मधे@@ 9
शबनम 9
मंत्रि@@ 9
एलि@@ 9
एज 9
सैटेलाइट 9
आरक्षित 9
बनववले 9
साल@@ 9
दिता 9
निर्देशकन 9
घुसा 9
984 9
शहा@@ 9
लाना 9
रीड 9
संजइया 9
जिन्नात 9
कोल@@ 9
सध 9
सुनली 9
औष@@ 9
संप्रग 9
सिर्@@ 9
गिरजाघर 9
धम्@@ 9
बौद्ध, 9
रखलस। 9
लेलस। 9
मिसरी 9
फेक 9
सेर 9
चभुला@@ 9
बनाए 9
चलचित्र 9
अगर@@ 9
खण्ड-काव्य 9
चाशनी 9
कारक 9
हउअन 9
यश@@ 9
गईलन 9
देवगन 9
बाज़ार 9
वीनस 9
एकाद@@ 9
ओपिनियन 9
ध्वस्त 9
वर्धा 9
नेपाली, 9
राजा। 9
आवेली 9
रफी 9
क्षणिक 9
लालन-पालन 9
कुशी@@ 9
चलता 9
बिहान 9
ड्राइंग 9
लहू 9
तीसरका 9
चारु 9
पैसे 9
बेड 9
रखैल 9
बहादुर@@ 9
मैथुन 9
खजुराहो 9
द्वारका 9
शाय@@ 9
बसंतपुर 9
लगती 9
तस्वी@@ 9
फायदेमंद 9
धरी 9
घायल 9
लाता 9
अदला@@ 9
आलम@@ 9
मिथुन 9
मंगलफेरा 9
१० 9
हिस्से 9
लम्बी 9
दिनकर 9
संभाल 9
महाशिवरात्रि 9
रोकने 9
महिला@@ 9
मनोरंजक 9
१८@@ 9
शुक्रवार 9
तपुर 9
रूपा 9
सुविधाओं 9
नीतियों 9
बाँसुरिया 9
हेतु 9
समझने 9
नतम 9
त्ति 9
पुरुषोत्तम 9
विधाता 9
जिसे 9
मालिकाना 9
उर्वशी 9
कईलस 9
कंप्यू@@ 9
वेंट 9
आजमगढ़ 9
रखकर 9
॰पी॰ 9
बहन 9
अलायंस 9
यी@@ 9
च्र 9
कौशाम्बी 9
डाउन 9
कार्यकुशलता 9
अपर 9
तलहीं 9
बोलनी 9
५० 9
भरूच 9
बढ़ोतरी 9
काटजू 9
वाडा 9
वहां 9
लाते 9
हनुमान@@ 9
हस्@@ 9
फास्ट 9
भावनगर 9
बेचि 9
शीर्ष 9
ब्य 9
मसीह 9
विल 9
उपत्यका 9
धनुषा 9
नेपालको 9
कजाकिस्तान 9
प्रजापति 9
फेज 9
पश्चात 9
तुम्हारे 9
गंगानगर 9
इंटी@@ 9
मिलीमीटर 9
आर्किटेक्ट 9
सापेक्ष 9
शासनकाल 9
हरदोई 9
बेगूसराय 9
ट्रांसपोर्ट 9
पर्यावरण@@ 9
खैरा 9
नल@@ 9
ग्रं@@ 9
वरु@@ 9
बायें 9
गाम 9
आर्मी 9
एकेडे@@ 9
मेंटल 9
थर्@@ 9
सत्र@@ 9
उर्मिला 9
अज्ञेय 9
सिंहपुर 9
रुद्दीन 9
ललित@@ 9
एप्@@ 9
'। 9
(जवना 9
.) 9
तपेसरा 9
खोआ 9
कटनी 9
सतरोहन 9
अंड@@ 9
सोकना 9
फर्रूखाबाद 9
डाउन@@ 9
हमिता 9
वृत्@@ 9
रामदेयाल 9
माजी 9
30,000 9
इंडो-आर्यन 9
गोंडवाना 9
मिनल 9
बेकती 9
चर, 9
लड़िकिन 9
रिपोट 9
फीफा 9
गोबिंद 9
85% 9
आरम्भ 9
[[File:@@ 9
ograph@@ 9
ass@@ 9
उपोष्णकटिबंधीय 9
हिमाल 9
शीतोष्ण 9
ल: 9
right@@ 9
कैल@@ 9
स्थापीत 9
लुम्बिनी 9
जालीं, 9
yl@@ 9
Mar@@ 9
जियाजंतु 9
80% 9
कोलंबस 9
कॉम्@@ 9
प) 9
मिसौरी 9
छठईं 9
बारल 9
मुर्दा 9
वी) 9
उत्तरी-पच्छिमी 9
वैलें@@ 9
डिक 9
आइसोटोप 9
सियम 9
मियम 9
मॉलि@@ 9
होल्@@ 9
19.@@ 9
ंड) 9
c. 9
एकदम्मे 9
टाउन@@ 9
908 9
406 9
फ़ार@@ 9
अँचार 9
(जेह 9
इस्टाइल 9
ial 9
साओ 9
एनालि@@ 9
जीव-जंतु 9
एनालिसिस 9
सुनसरी 9
कनिंघम 9
बाड़ीसन 9
किलोमिटर 9
II@@ 9
ओहायो 9
स्तनधारी 9
वा" 9
मैमल 9
निक्स 9
पेरी@@ 9
"ले@@ 9
साल्@@ 9
(अंग्रेज़ी: 9
अंग्रेज़ी@@ 9
इस्थीपा 9
08 9
डाकुमेंट 9
जीवबिबिधता 9
संथाल 9
ब्लॉक) 9
क @@ 9
(g@@ 9
her@@ 9
orn@@ 9
pl@@ 9
जलपाईगुड़ी 9
276 9
पाश्चात्य 9
ओलि@@ 9
(8@@ 9
इस्पेशल 9
बिरोधी 9
"-@@ 9
क्यूबा 9
भूमध्यसागरीय 9
ss@@ 9
चेन्नई, 9
(नेपा@@ 9
ia) 9
णु 9
ती) 9
"लि@@ 9
सहस्राब्दी 9
वासु@@ 9
"P@@ 9
rist@@ 9
2018) 9
क़ 9
एंथम 9
डेनमार्क 9
ill@@ 9
ज्यू@@ 9
नेल्लोर 9
हुनकर 9
9), 9
मांसा@@ 9
इंच) 9
39% 9
14.@@ 9
हिंदी: 9
भिरगू 9
छत्र@@ 9
महायान 9
कपिलवस्तु 9
मन्त्र 9
955 9
223@@ 9
ल्स" 9
हाई-@@ 9
(रि@@ 9
(4@@ 9
,28@@ 9
902 9
(हिंदी@@ 9
:"@@ 9
गा.वि.स. 9
चैट 9
फ़्रां@@ 9
our@@ 9
भारत-पाकिस्तान 9
158 9
अभिलेख 9
जीवधारिन 9
इड्स 9
हीलियम 9
फ" 9
or 9
228@@ 9
o) 9
स्को@@ 9
बर्ट 9
An@@ 9
अफिर@@ 9
विक्टोरिया 9
geograph@@ 9
(अंग्रेजी: 9
तीतर-बटेर 9
Ind@@ 9
सड़मे@@ 9
स्टर्@@ 9
(O@@ 9
मुनियाँ 9
किरौना 9
रिसीव 9
डेटाबेस 9
गयाना 9
इटैलियन 9
पहाड़ी, 9
विया 9
वर्डे 9
227@@ 9
धनकुटा 9
ऑकलैंड 9
213@@ 9
59.@@ 9
220@@ 9
विसं 9
लंडन 9
बिस्तृत 9
अबू 9
 किमी² 9
सिपी 9
Riv@@ 9
फ्लो 9
टु 9
डीप 9
क्लाइ@@ 9
अंकगणित 9
तिउहार 9
कुचिपुड़ी 9
Or@@ 9
सप्तकोसी 9
आइएसबीएन 9
हॉकिंग 9
बिहिरी 9
कंबोडिया 9
ईराक 9
पम्फलेट 9
992 9
ठोर 9
चित्तूर 9
कर्नूल 9
शिलालेखन 9
वास्तुकला 9
383 9
स्टॉर्क 9
हाबाद 9
ोली 9
ऍस@@ 9
स्टैच्यू 9
737-@@ 9
मुंडी 9
खम्मम 9
महबूबनगर 9
eb@@ 9
कैथेड्रल 9
5:@@ 9
पलास्टिक 9
डिज़ाइन 9
आतिशबाजी 9
स्प्रि@@ 9
फूलदार 9
डोनाल्ड 9
सुपरमून 9
36% 9
टैंगानिका 9
SAS 9
करिश्मा 9
(2017) 9
राफ्टिंग 9
किरिबाती 9
लैगून 9
इस्लामपुर 9
A3@@ 9
स्केटबोर्ड 9
प्रहलाद 9
एस्सेल 9
डोमि@@ 9
ऑक्साइड 9
केज 9
हैम्बर्ग 9
नवराजपुर 9
औरही 9
मिर्चैया 9
स्ट्रीमिंग 9
मार्कल 9
कुल्फी 9
माक3 9
जरीब 9
ंजन 8
सपरिवार 8
कहानी@@ 8
रचनाशीलता 8
प्रमाणपत्र 8
मेंं 8
विद्यार्थ@@ 8
सम्मले@@ 8
रजि@@ 8
काज@@ 8
रिपोर्टर 8
घल 8
फलाना 8
बिआहे 8
ओरा@@ 8
काहे, 8
बिछु@@ 8
फर्म 8
ढ़-@@ 8
देखतानी 8
हार्ड 8
जीयल 8
कार्यकर्तन 8
जोन्@@ 8
होखीत 8
विज्ञान, 8
दिआला। 8
छिरिक 8
अविश्वास 8
कांग्रेसो 8
का-का 8
अगिलो 8
ग्गा 8
घुसत 8
हटावत 8
बेइ@@ 8
नेशन@@ 8
पतियन 8
बाप-बेटा 8
गोडा 8
कपूत 8
कबीरा 8
इलो 8
गुड़ 8
मटेरियल 8
ट्रॉ@@ 8
खेमा 8
हेराल्ड 8
बिगा@@ 8
भाज@@ 8
मारबो 8
गौर@@ 8
नागा@@ 8
घुघु@@ 8
धन्@@ 8
खइलसि 8
हेला 8
पवला 8
मलिकान 8
अब्दुल्ला 8
दहि@@ 8
दीहलन 8
ठेहु@@ 8
कहाउतो 8
बताई। 8
ताम@@ 8
सद्भाव 8
ठकु@@ 8
विप्र 8
छँ@@ 8
पाई, 8
बिदा 8
उदाहरन 8
बिसर@@ 8
ले- 8
रपुर 8
ओझा, 8
बलिया, 8
अचंभित 8
गहमरी, 8
एगा 8
करेगा 8
जमूरा 8
सियाही 8
फोड़@@ 8
सोझा। 8
दोहरे 8
गम्भी@@ 8
हर्ता 8
इत्@@ 8
चिन्तन 8
शाश्वत 8
डिग 8
बाकिओ 8
उधर 8
बान्हत 8
रिश्तेदारन 8
गोलो 8
बइठलें। 8
कइलसि, 8
मन। 8
ञ@@ 8
निरहु@@ 8
शा, 8
रकत 8
भेंटाव। 8
भेजे@@ 8
सरे@@ 8
हँसुआ 8
कृषि@@ 8
च’ 8
स्र@@ 8
मलिकार 8
अरथवान 8
पृ@@ 8
चित्रन 8
ढें@@ 8
जनी@@ 8
अलग। 8
रचना-@@ 8
करुण 8
हृदय@@ 8
ियार@@ 8
समस्या, 8
एने@@ 8
बलात्@@ 8
कुकुरहट 8
साथे। 8
चलले 8
ठू@@ 8
उठी 8
जन। 8
तन्त्र 8
केला। 8
उलुटे 8
एससी 8
ठेठा@@ 8
कबले 8
साँसत 8
देशे 8
भुगते 8
खूबसूरती 8
गलत। 8
हत्यारा 8
औप@@ 8
दियात 8
फूलपुर 8
हारा@@ 8
शत्रु 8
चहली 8
चहले 8
दक्खि@@ 8
सन्यास 8
तुआ 8
भाजपा। 8
सहजे 8
सिपा@@ 8
अवा 8
सकऽ 8
ममहर 8
चौक@@ 8
प्रतिद्वन्दी 8
रूक 8
अथाह 8
शिलांग 8
संस्कार, 8
परब-@@ 8
कमें@@ 8
आनन 8
शार्ट 8
छेड़@@ 8
बुलंद 8
गीत। 8
जु 8
हाल@@ 8
अभिय@@ 8
सज@@ 8
अध्यक्ष@@ 8
सय 8
कावट 8
विडंबना 8
सरस 8
देवास 8
राष्ट्रीय@@ 8
नामन 8
टूटी 8
अधिकारी, 8
चोरन 8
चेत 8
अंजलि 8
होड़ 8
दिल्@@ 8
कत्ल 8
बैक 8
ठसक 8
जिग्नेश 8
बूट 8
बोली, 8
तोहनी 8
पढ़ा 8
मरदा 8
दिमागे 8
डेरात 8
मामिलन 8
इत। 8
समेट 8
रहा, 8
चलेले 8
उत्ते@@ 8
लिखेवाला 8
ज्ञानपीठ 8
जनता, 8
बोलेवाला 8
चौरी 8
व्याख्यान 8
सचमुच 8
बूढ़@@ 8
नो-@@ 8
नीमन-@@ 8
पलेट 8
बैलेंस 8
वेटिंग 8
सुजोग 8
ंवा 8
केरा@@ 8
पीढ़@@ 8
बीनल 8
सबू@@ 8
लिखवावल 8
दिमा 8
मजबूरन 8
एसो@@ 8
मालगुजारी 8
ढे 8
जबर्दस्त 8
उदबे@@ 8
1929 8
स्व 8
सरयू 8
हिन्दी, 8
रहलो 8
तुल@@ 8
बिजु@@ 8
फेसबु@@ 8
……। 8
भाषा-संस्कृति 8
क्षता 8
दरार 8
आयोजक 8
शुरुआ@@ 8
शख्@@ 8
चे-@@ 8
रउवाँ 8
घुँ@@ 8
‘ए 8
बा-@@ 8
लाजी 8
सज्@@ 8
नवे 8
सुनि@@ 8
जनि@@ 8
खाके 8
परब@@ 8
उमिरिया 8
हेराइल 8
बे-@@ 8
भय@@ 8
रत्ती 8
दमक 8
फूले 8
बढ़ला 8
ओपर 8
ऽता@@ 8
द्रो@@ 8
अतनो 8
कवले 8
2015, 8
रखाइल 8
काण्ड 8
बेटो 8
देखवलें। 8
बिटोरे 8
ईमान 8
काल्हुए 8
मणिसंकर 8
किनी 8
दानो 8
लूटत 8
अचर@@ 8
बालि@@ 8
रिली@@ 8
न्ड 8
रंगे 8
धिकारी 8
वेटिकन 8
सड़क, 8
हिकारत 8
ड़ा। 8
मधुमाखियन 8
पसार@@ 8
पल, 8
्रू@@ 8
गदाधर 8
पाहि@@ 8
रोबोट 8
जिम्मे 8
लुकावे 8
ीत 8
महामहिम 8
पल्ला 8
सुरीनाम 8
भरो@@ 8
देले, 8
गत, 8
बड़ु@@ 8
सोरि 8
मुनी 8
सरूप 8
हिंदी-@@ 8
लिखात 8
लम्मा 8
कहे, 8
आंचलिक 8
बिगाड़ 8
मिटा 8
अहं@@ 8
सस 8
नेहरू, 8
अम्बेदकर 8
दीहले। 8
हइए 8
प्रेत 8
योनी 8
घुमा@@ 8
भरकम 8
छात्रा@@ 8
मेहन@@ 8
शील@@ 8
दबदबा 8
तेया@@ 8
जन-जन 8
खोह 8
आंबेडकर 8
महतारी-बाप 8
छुए 8
धुर 8
बात-व्यवहार 8
ईमान@@ 8
दबंगई 8
आड@@ 8
म्बर, 8
आठवी 8
जा? 8
दियावे 8
वि 8
आजु-@@ 8
सेकुल@@ 8
पैरवी 8
नमकहराम 8
ठाँ@@ 8
पसरे 8
बेटियन 8
सरेंडर 8
बदलले 8
तारऽ 8
पिता@@ 8
कौर@@ 8
तब्बे 8
चढ़े 8
भावन 8
बोली-@@ 8
तिया, 8
अंगरेजी, 8
रामचरित 8
पूर 8
बादो, 8
सबल 8
ड़ा, 8
साय 8
सँवार@@ 8
बत्@@ 8
बिछावे 8
कइले, 8
भागी@@ 8
मुखौटा 8
चुतिया 8
सतरहवीं 8
दीहलें 8
काम-@@ 8
जायदाद 8
पटी@@ 8
बिदाई 8
संस्कारन 8
जीब 8
इज@@ 8
जन्माष्टमी 8
रिज्म 8
बारीकी 8
तड़@@ 8
वन्@@ 8
खाँ 8
महागठबन्हन 8
चिटफंड 8
(एम@@ 8
एसए@@ 8
रंगकर्म 8
तहनी 8
देखीं@@ 8
लाचार 8
भेस 8
कलस 8
धमक@@ 8
थम्@@ 8
बुढ़िया 8
बेटवा 8
रिन 8
बोललें 8
बड़ले 8
मोक्ष@@ 8
सलीका 8
अन्दा@@ 8
अमरनाथ 8
पूछला 8
रिओ 8
सलामत 8
आगहूं 8
धमकावे 8
विराजमान 8
बोथाइल 8
कारने 8
केन 8
छप्पन 8
नबाब 8
गद्@@ 8
निरंजन 8
मछ@@ 8
सिकता 8
ियर@@ 8
रहेलन 8
टीबी 8
दू-तीन 8
जागरूकता 8
पास@@ 8
तृष्@@ 8
विपरीत 8
ण्ट@@ 8
मोना@@ 8
सवारथ 8
सतावेला 8
कहेला, 8
भइल? 8
मराठी, 8
कृतिक 8
पनपे 8
ना), 8
कम्यू@@ 8
मूठ 8
किसानी 8
था, 8
आधे 8
वोटन 8
53@@ 8
पहला 8
जाकिर 8
वेंक@@ 8
भौं 8
फणी@@ 8
ग्राफर 8
चहुँपावल 8
नायाब 8
ड्यूटी 8
तग@@ 8
अटकल 8
भेंटाई 8
सेफ 8
आंदो@@ 8
कबहूँ 8
अन्तर@@ 8
जा-@@ 8
अँग@@ 8
!… 8
वलऽ 8
दऽ। 8
भोले 8
भंडार@@ 8
गुन-@@ 8
थोरि@@ 8
लेहले 8
टाल 8
निहारे 8
दोहर@@ 8
‘जब 8
तइला 8
पड़लन 8
द्वे@@ 8
…।’ 8
बर-@@ 8
लेहाज 8
बैलगा@@ 8
रहरी 8
झटके 8
रंगी 8
साज-@@ 8
हरमेसा 8
राखब। 8
ढर 8
नूर 8
इनकरा 8
हिचकी 8
डर्स 8
ेज 8
उम्दा 8
झंझट 8
ऐह 8
नकारत 8
तुम्@@ 8
भौजी 8
प्रोग्रा@@ 8
सकब। 8
रमे@@ 8
मौर्@@ 8
बइठत 8
लरि 8
ग्रु@@ 8
उंट 8
पिपरा 8
स्त-@@ 8
सुखा 8
जमे 8
व्यस्तता 8
आङ@@ 8
गंभी@@ 8
हमरा। 8
समसामयिक 8
विगत 8
पांडे@@ 8
रश्मि 8
बब्@@ 8
पिंकिया 8
छितरा@@ 8
यक्ष 8
बहुचर्चित 8
इग्@@ 8
साकार 8
गबरघि@@ 8
05 8
खण्डकाव्य 8
हिमकर 8
गायक-@@ 8
ब्रज@@ 8
आर्क@@ 8
पार्टनर 8
सुसुकत 8
कायल 8
“हमरा 8
सेन्ट्रल 8
उद्धार 8
ून 8
कार) 8
टुटही 8
मिश्रजी 8
गुनगुना@@ 8
सूल 8
करेवालन 8
बडका 8
ड्रा@@ 8
प्रखर 8
ार्थ@@ 8
राग-@@ 8
बहुरा 8
झगरा 8
दुनिया@@ 8
कटे 8
छार 8
सोच-@@ 8
अनुभव-@@ 8
संसार@@ 8
सुन्दर@@ 8
मजूरन 8
णिक 8
घटा@@ 8
गर्भ 8
सँवारे 8
साजन 8
िह 8
जर्स 8
बढ़ावत 8
उपन्यास, 8
1923 8
करिय@@ 8
सुध@@ 8
मनबोध 8
पटना) 8
यूपी, 8
छोड़ले 8
डार 8
नामा@@ 8
साध्य 8
श्रो@@ 8
प्रसिद्धि 8
इहँवे 8
मुना@@ 8
जादू@@ 8
लेखी 8
ब’ 8
स्टाफ 8
फिट@@ 8
फाट 8
बैग 8
छूटि 8
कबो। 8
काल्हु@@ 8
होखेके 8
पुरातन 8
अध्‍यक्ष 8
वेश 8
चलेवाला 8
तारे। 8
अयो@@ 8
भरत@@ 8
सत् 8
आलो@@ 8
बुझे 8
लपेट 8
परिवर्तित 8
उत्पी@@ 8
तवा@@ 8
झाँके 8
उपलब्@@ 8
हरमेशा 8
साहिल 8
प्रमोद 8
ट्वीटर 8
समझला 8
आई, 8
धारन 8
नट@@ 8
ग्राह@@ 8
पशु-@@ 8
लर, 8
वेभ 8
देवन 8
राघ@@ 8
घरवा 8
वसन्त 8
ढ़, 8
एजेन्डा 8
जागरुकता 8
हीले 8
तबही 8
बतिये 8
भौकाल 8
प्रशां@@ 8
जेब 8
निरद@@ 8
फूट@@ 8
रसियाव 8
दूध@@ 8
दुखद 8
आवेवाला 8
चित्@@ 8
टीपू 8
महतारी@@ 8
बढ़ला 8
दोष@@ 8
मइला 8
चबा 8
पेड़-@@ 8
महता 8
ठं@@ 8
दांव 8
अंगना 8
जिन्दगी 8
गम्भीर 8
नु। 8
बीच-बीच 8
चा। 8
नोट@@ 8
करावल। 8
मलाई 8
चालाक 8
डकैती 8
मुसलमान, 8
चोरउका 8
एटी@@ 8
चाम 8
आशिक 8
टूअर 8
हजारो 8
चोली 8
व्र@@ 8
कहीं@@ 8
भषन 8
उँ 8
देईं 8
बताईं। 8
सकरले 8
उमिरि 8
पतोहि 8
गोड 8
काव@@ 8
बाबू। 8
भट्ठा 8
रहलि 8
एसा 8
सेयान 8
समझा 8
चियन 8
s, 8
मियन 8
राछस 8
हिर 8
प्रतिष्ठा@@ 8
टोटका 8
सुजान@@ 8
कम्मे 8
पृथ@@ 8
अँखिया 8
रहे) 8
नबीन 8
चन्@@ 8
सिम 8
संभावित 8
टेर@@ 8
परोसे@@ 8
देशहित 8
उके 8
अगव@@ 8
टंच 8
पड़ा 8
चका 8
खोजला 8
मिलेले 8
उपयो@@ 8
थमा 8
अवगत 8
दीर्@@ 8
चौधरी, 8
सामग्रियन 8
रहिके 8
सतपु@@ 8
चतुर्द@@ 8
हारि 8
युधिष्ठिर 8
भुक्@@ 8
te@@ 8
शिवलिंग 8
रहे,@@ 8
ak@@ 8
कैथल 8
शिशु@@ 8
रक्ष@@ 8
रेशम 8
बन्हा@@ 8
फ़िल्म 8
भद्रा 8
भींजल 8
“ए 8
जानी। 8
ऐ, 8
खुल्@@ 8
खुल्ला 8
राजस्‍थानी 8
पदाधिकार@@ 8
ईन 8
लेला, 8
टैक्सी 8
चकोह 8
बईठ@@ 8
होए 8
नेताओं 8
डा.@@ 8
लिखलन 8
चलल, 8
सचहू 8
भन@@ 8
वाप@@ 8
सीओ 8
महागठबंधन 8
फैक्ट्री 8
ग़@@ 8
जयशंकर 8
घंटे 8
बनाईं 8
गुजरे@@ 8
सीरी@@ 8
मेहनताना 8
मैसेज 8
गेट@@ 8
सकुचा@@ 8
मुस्कियात 8
हथेली 8
पलटत 8
महँ@@ 8
अगोरत 8
खाई। 8
लछ@@ 8
आवेले। 8
बिक@@ 8
छूटत 8
करकट 8
मेहरा@@ 8
काशीनाथ 8
हिरऊ 8
वीं। 8
खिंचाव 8
तेला 8
पौधा, 8
भावभूमि 8
अगिली 8
बित@@ 8
लोक, 8
ड्रे@@ 8
कोण@@ 8
ार्क 8
गमन 8
बालक 8
कलाकृति 8
लोहार 8
कबीर@@ 8
घटावल 8
मसूद 8
ल्य 8
ईला@@ 8
हमी 8
1. 8
ers 8
ग्नि@@ 8
मूवमेंट 8
सीता@@ 8
अकादमी, 8
नार्थ 8
सौरभ 8
इक@@ 8
लही 8
भतार 8
पद्मभूषण 8
अंबानी 8
देश-विदेश 8
सूरीनाम, 8
1944 8
कमाये 8
हरियाली 8
इकट्ठा 8
बाडे@@ 8
उनहूँ 8
जड़@@ 8
खनक 8
कुतुब@@ 8
कटान 8
बीएचयू 8
लगवलन 8
कंच@@ 8
विकाश 8
निष्ठावान 8
संरक्ष@@ 8
कोरम 8
io@@ 8
हनीके 8
is) 8
ology) 8
igh@@ 8
ter 8
पुस्तकन 8
प्राकृत 8
शिक्षा-@@ 8
बिआ। 8
मातृभूमि 8
उल्टे 8
स्का@@ 8
मास्को 8
मानल। 8
आजीवन 8
स्लो@@ 8
बलदेव 8
सेंक 8
तुषारकान्त 8
ेश 8
(को@@ 8
ब्राह्मी 8
15वीं 8
फल, 8
सोलहवीं 8
होखेवाली 8
बिपक्षी 8
सूँ@@ 8
पुरस्कृत 8
दर, 8
रूख 8
वाइ 8
मूत 8
गोइंठा 8
गनेस 8
छोड 8
तत्पर 8
देशीय 8
लड़ा@@ 8
सेज 8
बुद्ध, 8
वस। 8
हथियारन 8
संचार@@ 8
उपभो@@ 8
पोषक 8
ुक 8
प्राय 8
सामाजिक-आर्थिक 8
सवर्ण@@ 8
झी 8
‘हमार 8
सामंती 8
गड़हा 8
प्रतिस्पर्धा 8
पुरुषन 8
तबहिये 8
ुआइल 8
आर्यावर्त 8
गतिमान 8
अल्बर्ट 8
११ 8
शेष@@ 8
आंशिक 8
स्वाधीनता 8
कारियन 8
पहाड़, 8
बूनी 8
दुर्गम 8
कोने 8
डहर 8
चरी 8
केरा 8
दुप@@ 8
मानदंड 8
सित@@ 8
विक@@ 8
राजवंश 8
बिबे@@ 8
लौट 8
पकड़ले 8
अंतरंग 8
नाल 8
क्षु@@ 8
फिजी, 8
गुआ@@ 8
दल, 8
लपटाइल 8
संपदा 8
बढ़ल। 8
नायकन 8
ढांचा 8
ियन, 8
वारिस 8
सीआई@@ 8
सलटावे 8
थी, 8
बेबात 8
गोदाम 8
फिरी 8
वासा 8
ढके@@ 8
अनसोहाते 8
सरबो 8
जोरे 8
र्न 8
रोपे 8
रोपनी 8
लूम 8
प्रदर्शनी 8
लीं; 8
हौ, 8
स्वभाव 8
रास्ते 8
तरण 8
(ई 8
शुक्ला, 8
दुसर 8
काॅ@@ 8
मसहूर 8
दें। 8
बोलेवालन 8
मानऽ 8
गो। 8
बिगाड़े 8
लहा@@ 8
चिला@@ 8
गें@@ 8
पहिन 8
ण। 8
उनइस 8
लोककवि 8
1931 8
तिरुचिरापल्ली 8
ढ़ि 8
बबुनी 8
ंआ 8
देहिं 8
“अरे 8
मऊ@@ 8
चटाई 8
घबरा 8
सहाय 8
एकद@@ 8
पुछलस। 8
ठठ@@ 8
प्रकाशकन 8
बेवकूफी 8
गज@@ 8
दोना 8
जनेव 8
जायँ। 8
हाली-हाली 8
गड़हा 8
दब 8
हऊ@@ 8
यण 8
रहै। 8
तिवार@@ 8
जीतू 8
प्रोग्रामिंग 8
क्राइम 8
पावरफुल 8
सांसद@@ 8
डिजि@@ 8
ईकाई 8
संगोष्ठी 8
बेमार@@ 8
हानि 8
जीतना 8
तिलांजलि 8
पट्ठा 8
ंगुर 8
कउड़ी 8
कहलसि। 8
मास्टर@@ 8
बरह@@ 8
सरधांजलि 8
दुष्ट 8
पूछले, 8
लहरा@@ 8
लुक@@ 8
डक 8
फलता 8
हर। 8
जबाना 8
अच्छा, 8
मूरत 8
चलित 8
बाड़ें, 8
परेसान 8
भाव। 8
करेला@@ 8
उजबु@@ 8
भगजोगनी 8
ताड़ें। 8
करील 8
गइल… 8
उगावल 8
परछाहीं 8
धोवल 8
उभरि 8
थोड़ी 8
क् 8
मुकी 8
गोहरावत 8
तूँ@@ 8
माहुर 8
झप@@ 8
छानल 8
रच्छा 8
वें। 8
पहुँचते 8
पालकी 8
धरो@@ 8
परिचिताह 8
बाड़ऽ। 8
व्य 8
इनर 8
गईनी 8
बड़-बड़ 8
आशि@@ 8
सी. 8
धार्थी 8
खै@@ 8
दहा 8
किन्@@ 8
डुबा 8
हत्या, 8
फ्रै@@ 8
र्ष@@ 8
कष्ट@@ 8
पलिवार 8
गुप्तचर 8
हार-@@ 8
‘जी 8
धोइ 8
दूना 8
निरी@@ 8
तृ@@ 8
जिम्मेदार@@ 8
अगि@@ 8
अइनी। 8
खुबे 8
बकवास 8
केहु@@ 8
बनक्षेत्र 8
इत@@ 8
डौ@@ 8
मरू@@ 8
बाल्@@ 8
ठेहुना 8
सघन 8
कुक्@@ 8
बढ़ते 8
फुस@@ 8
बोलली। 8
पूर्बी 8
१८ 8
आंगन 8
श्रमिक 8
कोयल 8
इटा@@ 8
लोनी 8
लपट 8
निर्जन 8
च्चा 8
उग्र@@ 8
निश्चिते 8
फेंड़न 8
काठी 8
चुपे 8
गरमा 8
टेरि@@ 8
चरणों 8
राउडी 8
क्या@@ 8
छुटे 8
मल्टी 8
पुनम 8
लिखल, 8
खरि@@ 8
एकर@@ 8
मलिन 8
उत्तरी-@@ 8
उम्मीदवारी 8
मिरर 8
गरा 8
प्रशस्ति 8
बलु@@ 8
बेंत 8
चोख 8
सुनाये 8
सजावटी 8
तरीको 8
लड़ाका 8
जमाने 8
नगीना 8
ऽतारे। 8
पांड़े 8
ऽतारे 8
कदर 8
श्रद्धा@@ 8
एटलस 8
ड्डा 8
एकादशी 8
कतही 8
तारू 8
रामचेला, 8
भवानी 8
अर्घ 8
निफ्टी 8
169@@ 8
झुंझु@@ 8
अमरी@@ 8
लिवाली 8
स्क्@@ 8
मका@@ 8
128 8
पूछलसि 8
राना 8
लालगंज 8
मॉड@@ 8
पेन@@ 8
लगो@@ 8
हेडक्वार्टर 8
अधिवक्ता 8
करंट 8
मठिया 8
मानिया 8
लिहीं 8
कान्फ्रेंस 8
मरीजन 8
नगंज 8
मंत्री। 8
बीडीओ 8
भिख@@ 8
युनि@@ 8
सियाचिन 8
इरा@@ 8
एकदिना 8
कोहली 8
करनाल 8
ंटन 8
बेरोजगार 8
कियन 8
सलिल 8
सेवानि@@ 8
हुड्डा 8
लोद 8
ंद्रे 8
बेंग@@ 8
बीएसएफ 8
इजाफा 8
आईए@@ 8
सीधी 8
सीमांकन 8
मैनु@@ 8
नाई@@ 8
डेवलपमेंट 8
2,000 8
तुगलक 8
3-0 8
धीमा 8
चिंतक 8
चोंच 8
लोकनायक 8
कैप्टन 8
लडाई 8
चपेटा 8
18वीं 8
स्वीडन 8
वारंट 8
नवीनीकरण 8
मैग@@ 8
एजुकेशन 8
लखी@@ 8
शाद 8
किंग्स 8
सोसायटी 8
मुक्केबाज 8
पोखरी 8
145 8
जेहाद 8
मांड 8
मैरी@@ 8
rad@@ 8
सुपरफास्ट 8
शेल 8
क्लिंटन 8
हरित 8
पर्यावर@@ 8
गार्डन 8
सेल्वम 8
राम। 8
खेती@@ 8
चों 8
मगर@@ 8
नगा@@ 8
आप्ट@@ 8
राइफल 8
अल्पमत 8
सर्कि@@ 8
अबहीं@@ 8
करीले 8
वेंशन 8
आसमा@@ 8
अता@@ 8
पन्द्र@@ 8
जूही 8
पल्ली 8
अवैद्यनाथ 8
बांद्रा 8
मीनाक्षी 8
माल्@@ 8
उत्पादक 8
नेत@@ 8
पोरेट 8
8-@@ 8
पीड़ित 8
ब्यूटी 8
चटकलिया 8
शामली 8
प्रैक्टिस 8
मैनपुरी 8
लिहि@@ 8
जुन 8
खाना@@ 8
पूर्ति 8
विज्ञप्ति 8
खोदे 8
शैलेश 8
अकबर@@ 8
नसी@@ 8
सत्यमेव 8
एंटो@@ 8
सपेरा 8
विश्वयुद्ध 8
चउथाई 8
बंधित 8
सिप्पी 8
बख्@@ 8
भाटिया 8
इम्तिया@@ 8
सिंघा@@ 8
‘छोरा 8
रसो@@ 8
क्रिएटीव 8
तरंग 8
बंस@@ 8
परुआ 8
मार, 8
पोलि@@ 8
सूर्या 8
पन्त 8
धमा@@ 8
ताम्@@ 8
संप्र@@ 8
इलेक्ट्र@@ 8
एडी@@ 8
साधू 8
पुछल 8
काश्मीरी 8
मरी, 8
बोनी 8
लउकीहें। 8
सहरसा 8
सोमारी 8
तिथि, 8
गाड़ 8
उस@@ 8
उमरिया 8
वेव 8
तोहफा 8
मेहरारूअन 8
चिंग 8
केक 8
विदाई 8
स्वे@@ 8
्म 8
म्यूजि@@ 8
ड्डी 8
तुफान 8
सुगं@@ 8
मीन 8
वती, 8
धर्मनिरपेक्षता 8
सईंया 8
कपडा 8
लगांव 8
ब्यास 8
20) 8
पतझ@@ 8
सं। 8
जहा 8
कादो 8
इके 8
रोग@@ 8
कूछ 8
फ्लैट 8
सबेरा 8
शीतलहरी 8
मानते 8
बीपी 8
1966 8
अलगाव 8
चापलूसी 8
बकतूत 8
नरिया 8
सोशलिस्ट 8
जसही 8
लगावेला 8
तालाब, 8
स्थिति, 8
गईले 8
बोरो 8
आयन 8
दक्षि@@ 8
अस्थायी 8
त्रासदी 8
जेनरिक 8
स्पोर्ट्स 8
बइठी 8
कुभा@@ 8
शहजादा 8
रजनीकांत 8
अनौपचारिक 8
पूड़ी 8
सूजी 8
रीति-रिवाज 8
मीडियम 8
चिठी 8
कैंप 8
हैंड 8
श्वा@@ 8
महत्त्वपूर्ण 8
मिलेले। 8
मारिया 8
फ्लोर 8
डिया, 8
बस्ती, 8
हमको 8
शित 8
घबड़ा 8
अनाथ 8
गोलकी 8
शीशा 8
सट्टा 8
बाएँ 8
बीनू 8
“काहें 8
चुह 8
फफके 8
पूरा@@ 8
लीहीं 8
स्टॉ@@ 8
वास्तु 8
हमले 8
हमलावरों 8
बनता 8
दिपक 8
परदेशी 8
टिस 8
घरों 8
एसडीएम 8
पार्ट 8
भोरही 8
कलां 8
बातें 8
प्रशा@@ 8
ज़मीन 8
मारने 8
ट्रांसफार्@@ 8
एमपी 8
संक्रान्ति 8
लिखावे 8
म्बा 8
बांग्ला@@ 8
कोइराला 8
ख्या@@ 8
ज्योतिषी 8
मधेपुरा 8
अईला 8
आंध्रप्रदेश 8
्ठा 8
पैगंबर 8
कुलकर्णी 8
संस्थानों 8
ज़र 8
शैक्षणिक 8
नवरात्रि 8
सपुर 8
पत्ती 8
तूल 8
फोर्निया 8
लगाने 8
सर्किल 8
फ़ोटो 8
मराठी@@ 8
दिखाने 8
सूचित 8
उपयोग@@ 8
जानने 8
विज्ञापनदाता 8
शर्तें 8
नासिर 8
स्थानांतरित 8
जिन्हें 8
प्लेक्स 8
स्क 8
मिंक 8
सुरों 8
फ़ाइल 8
टेकनीक 8
कितनी 8
_SYM 8
सुरक्षाबल 8
घटक 8
ज़बरदस्त 8
दिखी 8
नीरा 8
सरफराज 8
किदांबी 8
डीसी 8
भूसा 8
मौलाना 8
पुस्त@@ 8
स्थिरता 8
राबड़ी 8
ग्रीनहाउस 8
कॉम्प्लेक्स 8
फ़ा 8
मुनिया 8
बंटल 8
करिके 8
उद्योगपति 8
ओवर@@ 8
झाड़ी 8
संब@@ 8
मित्रा 8
खेत@@ 8
रीवा 8
मढ़@@ 8
गये। 8
ईहा 8
कुता 8
ङ्ग 8
ब्रता@@ 8
ग्रन्थी 8
क्रा 8
स् 8
पॉली@@ 8
ओडि@@ 8
प्रीमियम 8
नाट्य@@ 8
उ० 8
प्रह्लाद 8
युनिवर्सिटी 8
इन्द्रप्रस्थ 8
अवतरण 8
रायशुमारी 8
यूट्यूब 8
कोरा@@ 8
सीबीएसई 8
क्लाउड 8
सचान 8
१९ 8
इटावा 8
तेनी@@ 8
गोपाल@@ 8
सीतापुर 8
कैंट 8
कॉमिक्स 8
जिल 8
मजदुर 8
चाई@@ 8
ियन@@ 8
डिप्टी 8
मेंहदार 8
नवादा 8
नीला@@ 8
हमीरपुर 8
बिजने@@ 8
वाड़ा 8
विरुद्ध 8
सीटें 8
धुले 8
टिकरी 8
टैक्@@ 8
चुरा@@ 8
सुखल 8
हवन। 8
सकेत 8
उहंवे 8
सुसुकि 8
उहं@@ 8
"ई 8
""ऊ 8
........@@ 8
हरू 8
..@@ 8
झुलुआ 8
सतुआ 8
….@@ 8
रहलन@@ 8
कॉल 8
लघुकथा-@@ 8
निस्तान, 8
इंडो@@ 8
साम्राज्य, 8
काश्मीर, 8
ठिक 8
प्रायदीपी 8
129 8
ज्यामि@@ 8
(15@@ 8
दिपावली, 8
मर्दाना 8
संगमरमर 8
गोल्@@ 8
मत्@@ 8
जायेला, 8
रुद्ध 8
देशान्तर 8
भक्तपुर 8
काठमाण्डौ 8
2500 8
879 8
मेची 8
px@@ 8
किमी² 8
ल्हो@@ 8
धौलागि@@ 8
पर्वतीय 8
ic) 8
ar 8
.5% 8
.4% 8
18% 8
तिब्बत@@ 8
ङ, 8
आधुनीक 8
क्याम्प@@ 8
माञ्चल 8
पूर्व) 8
83° 8
1939 8
इलि@@ 8
(13@@ 8
जाला।@@ 8
जेन्@@ 8
उपधिया 8
इंडो-यूरोपियन 8
यू) 8
Car@@ 8
टेट्रा@@ 8
PA@@ 8
यजुर्वेद 8
105@@ 8
1902 8
1906 8
1925 8
प्रोविंस 8
भइल; 8
(5@@ 8
नार्थ@@ 8
इत्या@@ 8
मिमी 8
उत्तरी-पूरबी 8
भूगोली 8
26% 8
केटर 8
बिजय@@ 8
कलेक्टर 8
″ 8
Cw@@ 8
डाकुमेंटरी 8
ath@@ 8
ρ@@ 8
194 8
"G@@ 8
आइएस@@ 8
पदार्थ@@ 8
147@@ 8
खस 8
वि.@@ 8
गण्डकी 8
मोरंग 8
तुवा@@ 8
106 8
नाड 8
चर्च, 8
बीजिंग 8
2.5 8
फोर्ड@@ 8
अजातशत्रु 8
लूहि 8
फ़ायदा 8
78% 8
गाँड़ 8
(जन्म 8
सिटी) 8
मैक्रो@@ 8
et) 8
प्लो@@ 8
पींस 8
परबत@@ 8
कुल। 8
बरवा 8
नैपाल 8
बिबादित 8
अवसादी 8
महादीपन 8
आस्ट्रेलियाई 8
हिमनद 8
भारत-चीन 8
हल।@@ 8
ईटानगर 8
गणे@@ 8
ण" 8
32,@@ 8
जन) 8
<br> 8
हंव 8
टी" 8
बाह्य 8
चांग@@ 8
for@@ 8
ens@@ 8
ive 8
orld 8
.9% 8
,2@@ 8
ae) 8
61.@@ 8
ical 8
पालिका]] 8
ent 8
मोन 8
ale 8
s") 8
पैदावार 8
लमछर 8
मोटाई 8
"बिहार 8
ay) 8
चुंब@@ 8
ra") 8
जी" 8
सुपरमहादीप 8
पघिलाव 8
जीवीय 8
असातत्य 8
cont@@ 8
हिस्सा) 8
जीवा@@ 8
77% 8
घूर्णन 8
96.@@ 8
i) 8
ian 8
(l@@ 8
टर" 8
एक्सी@@ 8
दक्खिन-पुरुब 8
उपराजल 8
रायपुर 8
King@@ 8
लगढ़ 8
रिनाक 8
तेह्र@@ 8
फिकल 8
बिफल 8
टर) 8
विदिशा 8
सतारा 8
जर्नल 8
1), 8
अहमदनगर 8
फेलो 8
प्रोफ़ेसर 8
मेमोरियल 8
बोधिसत्व 8
पाँचवी 8
जिन्हन 8
में: 8
सूफी 8
हाटी 8
पडरौना 8
23% 8
सफ़@@ 8
रुद्र@@ 8
53% 8
925 8
म्बि@@ 8
बाल्टिक 8
इंग्लैण्ड 8
खीरी 8
राजेसुल्तानपुर 8
अस्नान 8
महादीपीय 8
मेहसाणा 8
62@@ 8
750 8
भूपर्पटी 8
खगोलशास्त्री 8
मुड़े 8
त्सां 8
28% 8
सिकंदरपुर 8
894 8
टाइम@@ 8
सीजनल 8
कुरुक्षेत्र 8
("A@@ 8
माझिल 8
क्टो@@ 8
बार, 8
कूपर 8
"पा@@ 8
> 8
Al@@ 8
75% 8
चमोली 8
इस्थिति 8
मंदसौर 8
in) 8
मेंट) 8
दूरबी@@ 8
con@@ 8
जहाजी 8
व्लादीमिर 8
मीर 8
कोणीय 8
(V@@ 8
65% 8
gre@@ 8
odic@@ 8
पनिहा 8
बैज्ञा@@ 8
olin@@ 8
गाद 8
लउआ 8
atic@@ 8
allus 8
नक़@@ 8
मूंडी 8
le) 8
बया 8
खतोना 8
भूअर 8
उरुआ 8
वॉन 8
77.@@ 8
गया@@ 8
मेट्रोपॉलिटन 8
े) 8
जॉर्जिया 8
(उच्चारण: 8
पर्सनल 8
कंप्यूटिंग 8
S) 8
.कॉम 8
पेरू 8
प्लेन 8
सूडान 8
बोरियम 8
ज्यामितीय 8
स्क्रीनप्ले 8
ind@@ 8
"नो@@ 8
हप्तावार 8
मेलबोर्न 8
देवघर 8
स' 8
वलसा@@ 8
थुम 8
किराँत 8
तीनगो 8
विला 8
स्टेडियम, 8
लिवरपूल 8
 से 8
 km@@ 8
बाड़े: 8
केंद्रक 8
η@@ 8
Mon@@ 8
सेर्@@ 8
जोहान 8
मेंट" 8
कैरे@@ 8
॰सी॰एन॰ 8
(अंगरेजी:"@@ 8
अंतरिक्ष@@ 8
X 8
बाहन 8
झिल्@@ 8
दसिमी 8
शाक्त 8
फूँक 8
man@@ 8
टेक्सानौमिक 8
वेरायटी 8
महानंदा 8
.91% 8
भीलवाड़ा 8
सीनाई 8
क्वांटम 8
लीमा 8
ज़ु@@ 8
गुंटूर 8
ंगलांग 8
1,00@@ 8
दुर्ग 8
बै॰:"An@@ 8
पनकउआ 8
खड़िच्ची 8
एइथोपाइगा 8
ud@@ 8
सोनीपत 8
अनंतनाग 8
गुलबर्गा 8
रायचूर 8
दमोह 8
991 8
कोल्हापुर 8
317@@ 8
दीमापुर 8
इंपल्स 8
तुंगभद्रा 8
धर्म, @@ 8
 किलोमीटर 8
बिजनस 8
होटल्स 8
कोक 8
दिह 8
डिंडीगुल 8
पुदु@@ 8
चीन्हा@@ 8
टिंग, 8
(3 8
लीप 8
बोइंग 8
दुनुं 8
बाग्मती 8
मुस्तांग 8
(पूरा 8
पिंटो, 8
नाओमी 8
लउकली। 8
पेमेंट 8
रॉबिन्सन 8
न @@ 8
1,5@@ 8
अक्किनेनी 8
डगलस 8
डिस्प्ले 8
हिल्@@ 8
परदूषण 8
लेनोवो 8
मानविकी 8
सैमुएल 8
ब्रायलर 8
मार्वल 8
वेंजर्स: 8
लिम्बुवान 8
परसारित 8
क्रूज 8
लामिडाँडा 8
सिद्धलेक 8
ल्यूकोरिया 8
निपाह 8
जिलेट 8
रेजर 8
पीसा 8
ट्रोल 8
साकेला 8
सम्मेलन, 7
साहित्य’ 7
परोसले 7
हीरा, 7
उपलक्ष्य 7
ीहें। 7
नामचीन 7
पांचवा 7
प्रमुख@@ 7
इन्टरव्यू 7
बेहूदा 7
यज्ञ@@ 7
सुनवले 7
थाक 7
लीहल। 7
पैंतीस 7
चिच@@ 7
अगस्त, 7
मध्यप्रदेश, 7
कोलकाता, 7
भाषा-भाषी 7
माह@@ 7
चौकड़ी 7
बूड़ल 7
चलती 7
ठठा@@ 7
कील 7
करीत 7
दुर्गति 7
छोड़ले 7
अंगुल 7
उकसा@@ 7
भल@@ 7
सरहले 7
सुसु@@ 7
थरुर 7
क्कर 7
पँहु@@ 7
लुकावल 7
गाड़ल 7
वपूर्ण 7
फुलात 7
कायर 7
सोचिए 7
उठेला 7
जबरिया 7
सईद 7
मरान 7
दियन 7
आतंक@@ 7
साफगोई 7
उलुटा 7
भइनी 7
पहिचा@@ 7
चालबाजी 7
ईसाई@@ 7
पंडित, 7
साम्प्रदायिक 7
प्रसा@@ 7
खरच@@ 7
सेवकन 7
संध 7
आक्रमणकारी 7
भारतीयता 7
सोचऽ 7
चुटकुला 7
दिनो 7
गरियावे 7
निभावल 7
प्रत्य@@ 7
देखे-@@ 7
कइसे। 7
बटन 7
पुतरी 7
बन्न 7
किरिपा 7
कहबि 7
हुँआ 7
तारन 7
दयनीय 7
त्र-@@ 7
हनन 7
विसर्जन 7
नवाजे 7
भोजपुरिया@@ 7
बटोर@@ 7
प्रज्@@ 7
विपुल 7
सृजना@@ 7
पाठन 7
रि-@@ 7
रसराज 7
निहु@@ 7
चोरावल 7
हमत 7
मीडिया, 7
वोटरन 7
ताकते 7
पीए@@ 7
महाभियोग 7
थोक 7
विचारक 7
हन-@@ 7
उवल 7
मीनान 7
सप@@ 7
कद@@ 7
दसियन 7
घेरे 7
संग्रा@@ 7
इहाँका 7
उहाँसे 7
याम 7
बनावे, 7
लगाइत 7
पड़ेला, 7
निरन्तर 7
ओघरी 7
हा-@@ 7
परिक 7
समय-@@ 7
खरिहान 7
भाव-भंगिमा 7
क्रियाशील 7
परता 7
शहरी@@ 7
घर-घर 7
साझा@@ 7
ताना-बाना 7
एम्में 7
स्मृ@@ 7
भावा@@ 7
पुरान, 7
पता@@ 7
परोस@@ 7
सिद्ध@@ 7
उकेरे 7
सीधा-@@ 7
भाव-भूमि 7
बुड़ब@@ 7
ईओ 7
उपासे 7
रिले 7
कच 7
पैंतालीस 7
बानि 7
फिकिरे 7
कईएक 7
तजिया 7
लार 7
सिधवा 7
कुकुरो 7
जीतत 7
वतो 7
चारिकता 7
छटपटा@@ 7
ळ 7
बनी@@ 7
जय’ 7
ारिटी 7
पवलीं 7
बेइज्जति 7
नतिया 7
ननिअउ@@ 7
लुआ 7
हुल 7
चमकि 7
पियो 7
बिलात 7
ंदो@@ 7
जालीदार 7
मुसलमानी 7
फटा@@ 7
भगले 7
मौज 7
मुहुर्त 7
धी। 7
त्रा, 7
अख्@@ 7
चौबे, 7
आंदोल@@ 7
मुकुल 7
बेयार 7
गाइल 7
विनम्र 7
रिटा@@ 7
कांग्रे@@ 7
अल्ला@@ 7
शां@@ 7
मंत्रीओ 7
सिए@@ 7
चाली 7
मराव 7
अंकित 7
गोक@@ 7
तिजोरी 7
लुटावे 7
डील 7
चूस 7
झाड़ 7
ओनिये 7
लूटे@@ 7
चोरावे 7
भाजपाई 7
जाहीं 7
शान्@@ 7
पैन@@ 7
कौम 7
कर्नाटक, 7
दीहला 7
बखेड़ा 7
अभिमान 7
खबरदार 7
परो 7
अमान 7
फूटे 7
खालिद 7
ियने 7
बनावे। 7
हनो 7
ारे@@ 7
पइसल 7
इसलिए 7
संवेदनशीलता 7
जाएवाला 7
भेंटाइल। 7
तृप्त 7
अनपढ़@@ 7
नियामक 7
पावसु। 7
ओगै@@ 7
फे 7
पिन@@ 7
करिहन 7
चढ़त 7
कसमसा 7
लउकली 7
पहरा’ 7
तन-@@ 7
मनन 7
खँ@@ 7
दु-@@ 7
ढाँ@@ 7
चम्पारन 7
रबर 7
फइला 7
बेहाल 7
नर, 7
कट्ठा 7
तीन@@ 7
अगुवा 7
चुटकी 7
लिखे-@@ 7
लिहाज 7
चपेट 7
निकलल, 7
पुरन@@ 7
पर्दा 7
गतिवि@@ 7
जादातर 7
रचत 7
अभूतपूर्व 7
अचम्भा 7
छन्द 7
सेरा 7
लगाव@@ 7
झूला 7
हँसी-@@ 7
टेला। 7
कहाँ@@ 7
कवन-कवन 7
बटले 7
फेंकि 7
पंचों 7
बिसरल 7
मुनरी 7
चले, 7
बचल-खुचल 7
फूल-@@ 7
टई 7
हियन 7
पीर@@ 7
बीस@@ 7
छेड़ 7
पिच 7
इलें। 7
सकीं, 7
द् 7
धारदार 7
रोकत 7
सिब्बल 7
लपकि 7
निलम्बित 7
रखलसि 7
तरस 7
सहवास 7
करेलन। 7
द्रोही 7
कोढ़ 7
एण्ड 7
बदतर 7
सकीहें। 7
सेक्सी 7
झि 7
होखबो 7
जनमावे 7
घरहीं 7
तेजपत्ता 7
अउर। 7
विडम्बना 7
नीति, 7
बल-बेंवत 7
साहि@@ 7
अमानवी 7
संग्र@@ 7
म्भ 7
संचा@@ 7
तित्व 7
ंद्रनाथ 7
आदरणीय 7
चौकन्ना 7
खुदही 7
पिद्दी 7
चढ़इ@@ 7
अरघा 7
अकिल 7
हला 7
कुछु@@ 7
सम्हारत 7
बाप-@@ 7
छोड़त 7
पैंसठ 7
कहाले। 7
निठाह 7
समाज-@@ 7
पर्यायवाची 7
अवहट्ट 7
तबके 7
अपनावत 7
बौद्ध@@ 7
रहस्य@@ 7
भासा-@@ 7
गढ़े 7
भोगत 7
गती 7
पुरोधा 7
दुरुस्त 7
मत-@@ 7
ार्किक 7
पद्य 7
द्धी 7
चारि@@ 7
ियोल 7
धाक 7
ीक 7
क्रान्ति 7
बला 7
देखावे। 7
कजा@@ 7
सलिंग 7
शुरूए 7
नू, 7
बिगुल 7
देसवा 7
दय@@ 7
सबीर 7
जकड़@@ 7
त्रासद 7
बेजान 7
चउका 7
कवार 7
विध@@ 7
रोजी-@@ 7
नगर-@@ 7
कबो@@ 7
हता 7
नाच-@@ 7
खूँटा 7
ल्या@@ 7
ड़। 7
सशक्तीकरण 7
लउकते 7
दउलत 7
जोहे 7
विजयदशमी 7
ईंट 7
कवला 7
रामविलास 7
अघा@@ 7
पढ़ावत 7
गढ़ी 7
बुंदे@@ 7
कुमा@@ 7
मलया@@ 7
-साथ 7
सगरे 7
थाहे 7
अपभ्र@@ 7
बुझाय 7
‘भोजपुरी’ 7
न्डा 7
िला 7
कल्यान 7
हेठी 7
कड़ेर 7
तांत्रिक 7
प्राथ@@ 7
या-@@ 7
बहिनी 7
बिश्वास 7
लंकेश 7
शब्दो 7
लठ@@ 7
कर्तव्य@@ 7
देखवलन। 7
कुकरम 7
खास्त 7
लगाईं 7
लागेलें। 7
संक्षेप 7
बाहरे 7
फतह 7
घरे। 7
सहेजल 7
सस्पे@@ 7
बनिए 7
हामिद 7
टीवी@@ 7
लाउड@@ 7
गतर 7
तमिलनाडु@@ 7
डेरावे 7
चेयरमै@@ 7
आकासी 7
जल्दी-जल्दी 7
तें@@ 7
भक्तन 7
डुबकी 7
दिक्@@ 7
खियावे 7
मालिकन 7
सुशासन 7
समीकरण 7
मतो 7
अन्दाजा 7
चुना 7
कलावती 7
झरोखा 7
बाइस 7
हाइकु 7
अल्पसंख्यकन 7
भँड़ुआ 7
होखीं। 7
गोरक्ष@@ 7
बघ@@ 7
संभा@@ 7
तूही 7
फ़रवरी 7
पूर्वांचली 7
जावे 7
कामुकता 7
मीडियावालन 7
कहाव 7
छवले 7
10-@@ 7
मृग@@ 7
अमि@@ 7
स्वच्छ@@ 7
दुर्भाग्य@@ 7
प्रयो@@ 7
ज्म, 7
छाया@@ 7
झकझोर 7
भारते@@ 7
कुछ-कुछ 7
मतिन 7
शस्त्र 7
होखस 7
वकील, 7
बंगाली, 7
नौकर@@ 7
चँ@@ 7
कोलका@@ 7
छोड़त। 7
तोष 7
मिले, 7
जानो 7
होखल, 7
ंग। 7
पीओ 7
लालकृष्ण 7
इंगलैंड 7
घोड़ा, 7
खाईं 7
पेटा 7
नारायणन 7
मख@@ 7
ौल 7
जबर 7
वासि@@ 7
सस्पेंशन 7
पाकिस्तानियन 7
पाकिस्तानो 7
फ़िलिम 7
दराज 7
राव, 7
सीए 7
तोहर 7
अखबा@@ 7
परवान 7
नलि@@ 7
नेक@@ 7
अगले 7
मुजफ्फर@@ 7
सुनवलन। 7
मुरु@@ 7
रेघारी 7
ल- 7
साव 7
पटाइल 7
हाल-@@ 7
हवऽ 7
हव@@ 7
पहुँचल, 7
जी? 7
के…। 7
पक्@@ 7
क्कड़ 7
सूझ@@ 7
एने-ओने 7
नाड़ी 7
महाराज@@ 7
दियरी 7
‘अइसन 7
जी! 7
जइबे 7
करीलें। 7
आशंका 7
भइया, 7
मल, 7
हिम्@@ 7
हमार@@ 7
अधिया 7
मलिका@@ 7
छछात 7
कइये 7
आगहूँ 7
रहलू 7
सेनु@@ 7
सेनुर 7
छलांग 7
सोश@@ 7
खोबसन 7
खटा@@ 7
ोज, 7
क्षा, 7
चहेता 7
नेटवर्@@ 7
नेट, 7
लागलि। 7
मदमस्त 7
स्वामी@@ 7
पूरल 7
निके 7
गवा@@ 7
रोजमर्रा 7
वाहट 7
बधा@@ 7
स्वास्थ@@ 7
“लोक 7
फुसफुसा 7
प्रश्@@ 7
बच्चों 7
प्रकाशि@@ 7
संस्मर@@ 7
हिय। 7
कसत 7
सिरजन@@ 7
भू-भाग 7
सांकृत्यायन 7
पारि@@ 7
शब्दा@@ 7
प्रो 7
र्ष 7
प्रो. 7
जननी 7
हमनियों 7
श्य 7
ंगि@@ 7
घाटन 7
पड़ोसी 7
गीत-संगीत 7
पनिया 7
असाधारण 7
गोपी@@ 7
भिखार@@ 7
रुआ@@ 7
चाकरी 7
छापे@@ 7
छापा@@ 7
लइक@@ 7
अपूर्व 7
ण” 7
0, 7
ताटे 7
देखात 7
अलौकिक 7
विषयन 7
जक 7
मस्तिष्क 7
बिशाल 7
खेद 7
सुदर्शन 7
र्त 7
महिमामंड@@ 7
लेफ्टिनेंट 7
ज्जा 7
पढ़नी 7
ल्ड, 7
मिलित 7
कब्रिस्तान 7
कयामत 7
फार्@@ 7
विधा@@ 7
बिनावट 7
साँचा 7
व्यंजना 7
अनगढ़ 7
सपना, 7
र्थ 7
उपजावे 7
कमोबेस 7
लय-@@ 7
भइलो 7
स्थी, 7
वहन 7
रात, 7
राग@@ 7
अपनापन 7
अटूट 7
जनजीवन 7
विसंगति 7
चउँ@@ 7
हरिवंश 7
विचार-@@ 7
जानल-@@ 7
सिह 7
वैभव 7
अरबो 7
गाहकन 7
विष 7
वन्दे 7
खेती-किसानी 7
जीवट 7
झंझा@@ 7
कूस 7
फुला@@ 7
गुलाब@@ 7
त्री@@ 7
आमजन 7
ारन 7
पटी 7
चिट्ठी@@ 7
बाद) 7
नागा 7
संवाद@@ 7
शुक्ल@@ 7
पचहत्तर 7
समर 7
टी’ 7
गिरामी 7
ती’ 7
लजा 7
कलात्मकता 7
बंसी 7
मक 7
कि-@@ 7
कृति@@ 7
मउवत 7
गमग@@ 7
मावे 7
सेंगर 7
बेंगलुरु 7
टॉयलेट 7
इ, 7
अबी@@ 7
जानता 7
ग्यान 7
लइका-@@ 7
ठें@@ 7
परम्प@@ 7
चलते। 7
कोच्चि 7
शुक्र@@ 7
अध्@@ 7
भर। 7
नेतो 7
गिरे@@ 7
गरु@@ 7
कुइयाँ 7
सुचित्रा 7
स्पर्श 7
दोहरावे 7
कठो@@ 7
संकुचित 7
नशील 7
वादी@@ 7
आदिकाल 7
गुट@@ 7
दलन 7
हिये 7
जड़@@ 7
रचले 7
क्षत्रिय 7
ओइ@@ 7
अंगूरी 7
खेलवाड़ 7
करुना 7
स्त्री@@ 7
ना’। 7
अमूमन 7
इचि@@ 7
हेलीकॉप्टर 7
लगाकर 7
इयर@@ 7
सनाइल 7
मंचित 7
कास्ट 7
जिहाद 7
खासा 7
पिरितिया 7
सत्यनारायण 7
भाषा) 7
कॉलम 7
नीलू 7
ण्डर 7
त्न 7
आवसु 7
राजभवन 7
भत्ता 7
जिम्मेवार 7
ंले 7
थर्मल 7
लगि@@ 7
छ। 7
देवा 7
लगबे 7
ति’ 7
भींज 7
ठेला 7
राखेवाला 7
नारद 7
#@@ 7
देशज 7
मलिकाई 7
शेखर, 7
ठेकाना 7
सातो 7
पीछे@@ 7
चाचा, 7
दशरथ 7
पिसा@@ 7
करवलसि। 7
ओरा 7
बहके 7
किच 7
गह 7
लटकवले 7
लवना 7
वर्गीय 7
अबूझ 7
पतोहिया 7
ड्रेस 7
लगायत 7
जइबऽ। 7
हीक 7
उठवला 7
बिलाइल 7
आधुनिक@@ 7
्राष्ट@@ 7
अभिवादन 7
सरोवर 7
रहे… 7
दुलहिनि 7
हवलदार 7
फेरि 7
आं 7
ह…। 7
सियार 7
झड़@@ 7
चल-@@ 7
डर, 7
साक्षर 7
राक्ष@@ 7
देई। 7
‘, 7
अनन्त 7
कुटिल 7
वज@@ 7
चढ़ावल 7
टेंट 7
खरीददार 7
पण्डित 7
भागल। 7
इंजि@@ 7
ंचल 7
नालायक 7
एक्टिवि@@ 7
ेय 7
सकि@@ 7
ग्रंथ, 7
208 7
निरपेक्ष 7
परस्त 7
सपना। 7
छनछ@@ 7
सिंहा 7
चिल@@ 7
ठा। 7
डाढ़ी 7
कर्मियन 7
बतिआ 7
भारतीय, 7
गइलऽ। 7
उजा@@ 7
भोजपुरी। 7
ग्रंथि 7
(डि@@ 7
समय-समय 7
चिरंजीवी 7
पारन 7
फूल@@ 7
कुश@@ 7
पवित्रता 7
ish@@ 7
धर्मराज 7
खिलजी 7
हिन@@ 7
सझु@@ 7
सझुरावे 7
स्म 7
बूजा 7
हरितालिका 7
नित्य 7
खे-@@ 7
आकुल 7
पुरनवासी 7
hi@@ 7
रक्षा-@@ 7
दानव 7
व्यर्थ 7
भइलन। 7
बनवलन। 7
सिद्धि 7
ड्डी, 7
फुहार 7
गरि@@ 7
बच्चे 7
चमड़ा 7
बेसवा 7
्रा, 7
ह्रस्व@@ 7
इस्ला@@ 7
करो, 7
उम्‍मी@@ 7
कलश 7
फिरे 7
अलंकार 7
ड़ि 7
उदार 7
सियासी 7
​@@ 7
बताके 7
एमएल@@ 7
नाखुश 7
रिकार्@@ 7
पाली@@ 7
मजिस्ट्रेट 7
प्य@@ 7
प्रख्यात 7
इलेक्ट्रा@@ 7
चिह्@@ 7
तुल 7
सम्रा@@ 7
पदा@@ 7
आरं@@ 7
शाहिद 7
स्टारर 7
बू? 7
दव@@ 7
पोल्@@ 7
देबि 7
भित्तर 7
सुसुके 7
अगला 7
उर्दी 7
लउकि 7
सुति 7
हॅ@@ 7
पुस्तकालय, 7
कीच 7
पहुंचल 7
छत्तीसगढ़ 7
लाचारी 7
बिछावन 7
तरित 7
जवाबदेही 7
अखबार, 7
मुक्ति@@ 7
केत@@ 7
‘कसम 7
सुब्बा 7
मल्हो@@ 7
ईस@@ 7
मोहन, 7
संबन्@@ 7
गाढ़ 7
लोककथा 7
दउर 7
पसं@@ 7
गवाये 7
ई’ 7
संबेद@@ 7
यें 7
आजी 7
मंदिर@@ 7
मगढ़ 7
विश्वामित्र 7
श्रद्धालु 7
वीय 7
कारणन 7
भाड़ 7
समुचित 7
मिक, 7
बेमानी 7
पूरक 7
करही 7
फारल 7
खोवा 7
तरफ। 7
जापान, 7
जबकी 7
2. 7
3. 7
कमतर 7
पंजाबी, 7
भारतीयन 7
संघ, 7
बी.@@ 7
सs। 7
कोंक@@ 7
दर्न 7
खलि@@ 7
श्री, 7
ब्रजभाषा 7
.पी. 7
उत्त@@ 7
बुढ़ापा 7
हिय@@ 7
,”@@ 7
ोजी 7
विश्वनाथन 7
सानिया 7
नागे@@ 7
उज्ज@@ 7
कैसे@@ 7
भवा@@ 7
होटल, 7
बज्जिका 7
डंडी 7
पकड़ल 7
अर्जित 7
ह’ 7
(रू@@ 7
पूंजीवादी 7
आवेवाली 7
कहेवाला 7
जसो@@ 7
साधार@@ 7
समझले 7
मेडी@@ 7
अनिरुद्ध 7
पान्डेय 7
आपदा 7
लीवुड 7
हाॅ@@ 7
हाॅल 7
एकरूपता 7
अक्षरन 7
पोशाक 7
नागरी 7
(जइसे-@@ 7
मूलतः 7
sh@@ 7
(b@@ 7
द्ध-@@ 7
पडे@@ 7
़। 7
रटे 7
oo@@ 7
सार्@@ 7
चरित 7
छोड़के 7
टान 7
सरकारी, 7
मातृभाषा, 7
रक्त@@ 7
सुरो 7
लैटि@@ 7
चय 7
जानलेवा 7
उहँवा 7
उपहास 7
मानचित्र 7
पढ़के 7
बिचार, 7
झलकेला। 7
तिनी 7
नय 7
गोआ 7
संथाली 7
बोडो 7
बतावल। 7
‘आ@@ 7
हरिश्@@ 7
पारदर्शी 7
सूअर 7
फेंड़ 7
पस्त 7
मंशा 7
जोड़ा 7
जइसन। 7
उनकरे 7
आकांक्षा 7
वी। 7
टकल 7
हथियार@@ 7
प्रासंगिकता 7
गने@@ 7
दंड 7
अजुओ 7
चाली@@ 7
चिर 7
प्रां@@ 7
लगिहें 7
ंडा, 7
कर्मठ 7
से- 7
वत@@ 7
‘घर 7
विकासशील 7
लेश 7
तरैया 7
बुदबु@@ 7
बुरबक 7
रबी@@ 7
तेरस 7
संत@@ 7
पूरु@@ 7
भृ@@ 7
धारक 7
मारी@@ 7
तुच्छ 7
सुख, 7
सुविधा, 7
अमू@@ 7
वेलें 7
भीत 7
12,000 7
बांका 7
ग्रांट 7
41,@@ 7
केमि@@ 7
श्रेष्ठ@@ 7
घालमेल 7
विचारकन 7
पैं@@ 7
‘प्रेम@@ 7
घटनन 7
मराइल 7
185 7
दुध@@ 7
कट्टर 7
ताला@@ 7
अस्त 7
आइडियो@@ 7
सकर@@ 7
वरसिटी 7
जातिवादी 7
गांधी, 7
प्रतिभा@@ 7
गामी 7
विक्र@@ 7
हाय@@ 7
शांति, 7
फोड़ 7
अशिक्षित 7
वाण@@ 7
इल्@@ 7
गँवार@@ 7
फइलावल 7
न/@@ 7
स्मिथ 7
बिक 7
02 7
ओंकारेश्वर 7
चिकना@@ 7
बोट 7
कलो 7
गाड़ियन 7
दले 7
सूरदास, 7
ड़ाव 7
वै 7
जी) 7
जहँवा 7
खांटी 7
गुत 7
दलीय 7
हिरदय 7
बतवलस 7
मनमानी 7
करऽता। 7
चैनल, 7
खिच@@ 7
अराज@@ 7
जब-@@ 7
फुला 7
करोड़न 7
तमिल, 7
पुरखन 7
कूप 7
सली 7
चन्द्रगुप्त 7
अशोक@@ 7
फते@@ 7
मापदंड 7
काना 7
भड़क 7
असमानता 7
बुद्ध@@ 7
महत्वाकांक्षा 7
नहाइ@@ 7
परन 7
देशवा@@ 7
किल्@@ 7
निपटल 7
अखंडता 7
ताकत, 7
धन्य@@ 7
कृति, 7
चमकल 7
मन्ना 7
टोटरम 7
बिज@@ 7
हां@@ 7
डली 7
निगलत 7
पड़ा@@ 7
गुरुकुल 7
अक्षम 7
स? 7
मानवाधिकार 7
निष्ठ 7
परबत, 7
व्याप्त 7
सुन्दरता 7
बाड़ि@@ 7
135 7
दोस्तन 7
रणजीत 7
जिगरवाला 7
सचहु 7
सोचेला 7
बनवा@@ 7
पुछला 7
नास्तिक 7
बतंगड़ 7
चल्हाँ@@ 7
मचावत 7
खेती-@@ 7
कुरू@@ 7
जिओ 7
रुखी 7
आलसी 7
लेशन 7
अन्तरिक्ष 7
बुरी 7
सम्मेलनो 7
भाषन 7
बटोरल 7
बतकुच्@@ 7
झोंका 7
बाढ़ि 7
खींचि 7
ऽतारऽ 7
ताड़ी 7
कलह 7
रघाट 7
पड़ल, 7
छोड़ा@@ 7
खार@@ 7
ल! 7
जुला@@ 7
बा!“ 7
हाथी, 7
फाँफर 7
रोअत 7
कहू@@ 7
रोअ@@ 7
महीनन 7
तै 7
सामान, 7
महराज@@ 7
पगहा 7
लगाय 7
ें@@ 7
परिदृश्य 7
बद 7
घूम-@@ 7
मंत 7
ज़ल 7
हेल्@@ 7
विशेषज्ञ 7
थिये@@ 7
डिप्लो@@ 7
वहू 7
भागे@@ 7
सुरी@@ 7
ताइ@@ 7
लाजे 7
सहरा 7
भूलू 7
सुहागिन 7
सुन्न 7
ब्रेन 7
ईहां 7
ज़ा@@ 7
अटै@@ 7
हामी 7
झड़ु@@ 7
सोर्स 7
डाॅ@@ 7
बतियवले 7
करें, 7
जोखा 7
हल्लुक 7
कलक्टर 7
लगाई 7
पगला 7
चिहुँकि 7
काठ@@ 7
पथल 7
देरि 7
खी-@@ 7
सेकराहे 7
तूरे 7
डोरा 7
उतारि 7
छन@@ 7
भिन@@ 7
सुनसान 7
ऊं 7
धोखा@@ 7
भया@@ 7
जायेके 7
अहथिर 7
निस@@ 7
चिचियात 7
सोने 7
रखलन। 7
कमात 7
बच्च@@ 7
टना 7
पट्@@ 7
मेर@@ 7
कोतवाल 7
नराज 7
प्रेमे 7
आत्मिक 7
गिरि@@ 7
मूक 7
परिचि@@ 7
गन@@ 7
स्वर्@@ 7
चिन्हासी 7
सद 7
मोबाईल 7
रहू 7
पनीर, 7
सराहनीय 7
पल्प 7
चरक 7
रेटिंग 7
गोपी 7
साथे@@ 7
मड़ई 7
टे, 7
घिया 7
देउ@@ 7
ग्ले@@ 7
अँधेरी 7
पहाड़ी 7
सकन 7
नुकसानदेह 7
संक्षिप्त 7
पर्नकुटी 7
सकुचात 7
शिशु 7
पगली 7
स्रम 7
झला@@ 7
जागि 7
अँकवारि 7
हेड@@ 7
बज 7
पहुचल 7
लापन 7
बलिष्ठ 7
सायन 7
झटकल 7
हिडि@@ 7
इलन 7
छोड़ला 7
‘अरे, 7
राच्छस 7
गुफा@@ 7
‘हमके 7
गतिबिधि 7
उतुंग 7
द्धा 7
जुवक 7
पच्छिमी-@@ 7
युद्ध@@ 7
आन्ही 7
पशुपालन 7
पृष्ठभूमि 7
१५ 7
फाटक 7
खदेरन 7
संदीप 7
मालिश 7
हुड़@@ 7
उत्कर्ष 7
्रस 7
बनलन 7
बिहीन 7
कइलस@@ 7
बिश्@@ 7
थि 7
सुतला 7
क्रू@@ 7
बेकल 7
घिघ@@ 7
लिहलस@@ 7
सँचहूँ 7
जुड़ाव 7
वेबसाइ@@ 7
सेप्टे@@ 7
ठेठावत 7
जिल्@@ 7
निर्देशक, 7
दीवा@@ 7
ड्रीम 7
उनुकरे 7
बनीहें 7
सिम्@@ 7
भक@@ 7
शिरोमणि 7
आनु@@ 7
चेन 7
सहकल 7
प्रेसीडेंसी 7
चुनौ@@ 7
सेमिनार 7
फलक 7
नवीनचंद्र 7
रूढ़@@ 7
बालिका 7
गंगाजल 7
फाल 7
झुर@@ 7
भरा 7
लतर 7
110 7
चौसर 7
करतूत 7
कुटि 7
जानऽ 7
स्वत 7
केश्वर 7
अब्बास 7
कठे@@ 7
तरो 7
नबे 7
भाड़ा 7
……@@ 7
:00 7
मोटरसाईकिल 7
बदमाशन 7
घसी@@ 7
इज्जतदार 7
खनदान 7
भेंटाला। 7
इयोर 7
पाॅच 7
डायना@@ 7
गीतकार, 7
सुधर@@ 7
चैलें@@ 7
निर्विरोध 7
खेड़ा 7
राठौर 7
फेस 7
पदभार 7
जीतलसि। 7
॰एस॰ 7
कलकता 7
सांझी 7
निवार@@ 7
5, 7
नगदी 7
इन्वेस्टमेंट 7
छूरा 7
लड़िकियन 7
संविदा 7
छिया 7
डेकर 7
रवाना 7
घवाहिल। 7
पांचो 7
पम्प 7
सीपी 7
विडियो 7
जोहोर 7
सऊदी 7
खिलाड़ियन 7
सिस्को 7
सीतामढ़ी 7
माही 7
निदेशकन 7
चैंपियन 7
20-@@ 7
कॉर्पोरेशन 7
रोस 7
चव्हाण 7
450 7
अब्राहम 7
खोरल 7
कारपोरेशन 7
चौटाला 7
जापुर 7
पूर्वांचल@@ 7
श्रीलंका, 7
दियारा 7
्रेस 7
ट्टो 7
कमांडर 7
पहुंचल। 7
नामग्याल 7
मिर्जा@@ 7
हनिया 7
50,000 7
टीआई 7
पवलस 7
ठाणे 7
तबादला 7
ट्रिक 7
टेंडे@@ 7
समझावल 7
सेंके 7
सुमि@@ 7
गुणा 7
मे॓ 7
कबड्डी 7
जीतल। 7
हीम 7
शाहपुर 7
देवबंद 7
झेल@@ 7
किग्रा 7
इलाहाबाद, 7
वाइट 7
प्राइम 7
आईआईटी 7
महत्वाकांक्षी 7
बेसिक 7
डिसन 7
सनम 7
नस@@ 7
लक्ष्@@ 7
माजा 7
चतुर्थी 7
दंडाधिकारी 7
हसीना 7
बितव@@ 7
शिंदे 7
बॅ@@ 7
(सी@@ 7
यूएन 7
जलालपुर 7
नीली 7
रामगढ़ 7
वांग 7
विंध्याचल 7
मोटरसाइकिलन 7
चावला 7
बगहा 7
कहनिया 7
सप्त@@ 7
आमी 7
ढू@@ 7
सीपी@@ 7
875 7
13वाँ 7
रखते 7
बेयान 7
बाओ 7
मछली@@ 7
बीर@@ 7
छोडि 7
श्यामा 7
टूटल। 7
बू, 7
बुकिंग 7
आश्चर्य 7
बक्श 7
एसएमएस 7
लामा 7
ेबाजी 7
जमै@@ 7
इंडस्ट्री@@ 7
पुंछ 7
रिक्@@ 7
यड 7
लगवा 7
नकर्ता 7
रत्नेश 7
सुप्री@@ 7
एक्श@@ 7
सन्नी 7
आरि@@ 7
सरप्राईज 7
अंक@@ 7
नास 7
एग 7
एयरटेल 7
बिट 7
कईसे 7
विद्युत 7
शाखा@@ 7
फिक्स 7
फैक्ट@@ 7
अलका 7
प्रभास 7
बिंदिया 7
शकील 7
बुद्धिमानी 7
वार। 7
व्यथा 7
साहनी 7
ड्रा 7
मंटू 7
छिड़@@ 7
कुम 7
सनेस 7
940 7
वैल्यू 7
फेक्ट 7
कनेक्@@ 7
कनेक्टिविटी 7
गवर्नेंस 7
मोचन 7
एजे@@ 7
उम्@@ 7
गाडी 7
पवली 7
अनु, 7
ईज्जत 7
गुल्@@ 7
दीह 7
किरदारन 7
नीओ 7
‘देवरा 7
काहिरा 7
पुत्री 7
पांड@@ 7
दूल्हा 7
दिवाकर 7
3,7@@ 7
प्पी 7
कहतारी 7
मेहमानन 7
माध@@ 7
लॉन्@@ 7
(अ@@ 7
द्रोणाचार्य 7
प्राइज 7
गोपालपुर 7
िर 7
बा)। 7
नोए@@ 7
राठो@@ 7
चुहानी 7
खर्@@ 7
हाफ 7
साधल 7
्रि@@ 7
ल्लू 7
बुद्धिमान 7
नायके 7
कैप्चर 7
खपत 7
दिव@@ 7
मंहगाई 7
फ़ो@@ 7
नाल्ड 7
बिस्मिल्ला 7
दादरा 7
यवन 7
सासन 7
सोमवार 7
बैताल 7
खिलाड़ी 7
उखाड़त 7
देहलस 7
चुनरिया 7
सेंस 7
मुताबि@@ 7
आल्हा 7
लेवाड़ 7
नीमा 7
हाउ@@ 7
अध्यात्म 7
ित, 7
दार्@@ 7
अगरबत्ती 7
झलके 7
चाँदनी 7
बैंगलोर 7
बेला 7
सेही 7
शुरुवात 7
प्रशास@@ 7
एपी@@ 7
एकलव्य 7
फिल्मो 7
गावसु 7
रस्सी 7
समुझे@@ 7
अकसरहा 7
बर्दास्त 7
धुरा 7
उस्ताद 7
पोसपूत 7
पोती 7
असकस 7
अशक्त 7
काकी@@ 7
मौखिक 7
उदहारण 7
ut 7
फई@@ 7
नीतिक 7
पचीसी 7
भविष्यवाणी 7
कलर्स 7
परियार 7
डगर@@ 7
भगदड़ 7
धोखाधड़ी 7
ीपुर 7
खली@@ 7
प्रसिद्धी 7
काक 7
खोदल 7
खोदला 7
पोजी@@ 7
पृष्ठ 7
कुभाखा 7
जाने। 7
शोह@@ 7
कालीदास 7
योग्य 7
भालू 7
निर्वा@@ 7
आदी 7
टच 7
देवालय 7
पराछूत 7
स्लै@@ 7
सफे@@ 7
उबा@@ 7
प्रदा@@ 7
उतरात 7
लेटर 7
ंडे 7
302 7
अनूप@@ 7
मिड@@ 7
M 7
महाराजगंज, 7
भोजपु@@ 7
कहने 7
डी. 7
विज्ञानी 7
बा…@@ 7
मुझ@@ 7
चें@@ 7
रेली 7
सटहा 7
टरन 7
जमींद@@ 7
छने 7
मुहें 7
स्सर 7
मीनूओ 7
ऐतराज 7
म्यूजिकल 7
अधिके 7
लेटल 7
डेथ 7
अड़ल 7
एहवाति 7
स्टेशन, 7
एनएस@@ 7
शमी 7
सेक्@@ 7
छन्@@ 7
उद्योगीकरण 7
साथसाथ 7
रेघावल 7
ब्लैक@@ 7
जूझत 7
जह@@ 7
दिव्या 7
बनाना 7
अशुभ 7
उ॰प्र॰ 7
डीएमयू 7
मूल्यों 7
क्रियेटिविटी 7
बीसी 7
डेब्यू 7
३१ 7
महादेव@@ 7
कात्यायनी 7
तवायफ 7
ंडल 7
पडल 7
सिंघल 7
आंकड़ा 7
जिसके 7
लोकोमोटिव 7
निजीकरण 7
पंजीकृत 7
सिद्धार्थनगर 7
कार्तिकेय 7
गबन 7
क्योकि 7
हिला@@ 7
घटनाओं 7
दहेज़ 7
करेंगे 7
मुद्दीन 7
गांगुली 7
उठाने 7
विश्वकर्मा 7
वर्क@@ 7
रुबरु 7
पढ़े@@ 7
क्रमण 7
कोस्ट 7
भावना@@ 7
श्रवण 7
तृतीय 7
इंटरैक्ट 7
फर्नांडीज 7
मिलती 7
डेवलपर 7
साझेदार 7
उसने 7
कईलऽ 7
आरोही 7
कस्ट@@ 7
रेकार्डिंग 7
मध्यवर्ग 7
रजा 7
खाइब 7
एगी 7
खेतीबारी 7
बवंडर 7
गजेन्द्र 7
ताँ@@ 7
ऑडिशन 7
देशों 7
कसी@@ 7
सबा 7
हिम्मतवाला 7
निषाद 7
३५ 7
कटाई 7
लश्करएतैयबा 7
दूकानदार 7
दशम 7
अटैची 7
लाख@@ 7
फिजिक्स 7
पेन्हले 7
ह् 7
१५@@ 7
भुं@@ 7
कामेश्वर 7
महाराष्ट्र@@ 7
उपनिष@@ 7
कान्प्फ्रेंसिंग 7
गोरखपुर@@ 7
तुलसीपुर 7
शिवानंद 7
साग@@ 7
बाज़ार 7
अष्ट@@ 7
जरु@@ 7
बसु 7
फ्रैंक 7
बंधुआ 7
छिछला 7
आदिवासियन 7
नारायण@@ 7
वाज@@ 7
प्रतिष्ठान 7
सुंदरलाल 7
ट्रैफिक 7
घोल 7
सम्बंधित 7
ज्ञानपुर 7
सौंप 7
शीत 7
लीही 7
कासगंज 7
छौ@@ 7
सिन्धुली 7
खतिरा 7
बिमोचन 7
तिपुर 7
बैध 7
टिका@@ 7
काठमा@@ 7
मैथ@@ 7
सलेमपुर 7
रेक 7
दरौली 7
कल्याण@@ 7
मईया@@ 7
एनए 7
सुपौल 7
पत्तन 7
काम्@@ 7
निके@@ 7
बैठे 7
इमार@@ 7
गोरखपुरी 7
ग़ज़लो 7
बहुतबहुत 7
पीटर 7
युनिवर्@@ 7
बाडी@@ 7
मेट@@ 7
पीएचडी 7
कसहूं 7
सेंजर 7
देखकर 7
रविवार 7
पाना 7
बच्चो 7
१०@@ 7
सारा@@ 7
हुम 7
हिस्ट्री@@ 7
सेम@@ 7
लुटेरे 7
१६ 7
हाथरस 7
फिरोजाबाद 7
इम्फाल 7
करिब 7
लिह 7
गणतन्त्र 7
अग्रणी 7
वार्षिक 7
रेडि@@ 7
गें। 7
कोल्ड 7
स्टोरेज 7
दर्स 7
मिक्स 7
बॉयल 7
सेक्शन 7
बाराबंकी 7
भरबित्तन्वा 7
लीं. 7
बानी. 7
दासा 7
'. 7
खाँची 7
ईजत 7
आछा 7
"क@@ 7
टुर 7
लइको 7
फेनू 7
चकलेट 7
व्यू 7
""। 7
चुरिया 7
रामपुकार 7
मेल्@@ 7
जाठा 7
डिपार्टमेंट 7
छपल, 7
न: 7
राज्य) 7
संस्कृत@@ 7
ο@@ 7
मेसो@@ 7
रेकार्@@ 7
डेड 7
परचार@@ 7
रेशन) 7
पुद्@@ 7
बिधायिका 7
टेक्टॉनिक 7
क्रस्ट, 7
सुंदरबन 7
हिमालय, 7
नम, 7
गइल; 7
26.@@ 7
1700 7
अंजाद 7
बिसमता 7
शर्ट 7
मेगस्थनीज 7
.5 7
कि.@@ 7
वाणिज्यिक 7
तिब्ब@@ 7
885 7
ष्ण 7
भैरह@@ 7
जनक@@ 7
गईले। 7
ng@@ 7
Nepal 7
cl@@ 7
उपविभाग 7
सभ: 7
रीजन 7
(m@@ 7
जैव@@ 7
rac@@ 7
ft@@ 7
सीढ़ीदार 7
होवेला 7
विश्वविधालय]] 7
पस्ची@@ 7
पलामू 7
ह" 7
इगारहवाँ 7
अफ़ग़ानिस्तान 7
Sh@@ 7
("B@@ 7
खगड़िया 7
खुदशासित 7
जातीयता 7
चाव@@ 7
उपनिवेशी 7
स्ले@@ 7
मॉन्@@ 7
एरिजोना 7
काउंटी 7
उपबिभाग 7
कैरो@@ 7
49,@@ 7
313 7
_ 7
जग्य 7
ब्रम्हा 7
इनही 7
टाला 7
सिया" 7
"सर@@ 7
आबूगीडा 7
पर्दर्शन 7
फ्लो@@ 7
मैग्नी@@ 7
मैंग@@ 7
b 7
1908 7
1918 7
1943 7
य्य@@ 7
ऑर्गेनाइजेशन 7
33% 7
₹@@ 7
श्राव@@ 7
दुआबा 7
600@@ 7
हार्ट@@ 7
उत्तर-पच्छिमी 7
बिंध्य 7
यमु@@ 7
,00,000 7
32% 7
.7% 7
404 7
A) 7
(2015) 7
ईद-@@ 7
जन्मा@@ 7
(भा 7
केसर 7
तक" 7
बूड़ 7
बेध 7
a" 7
640 7
ताजमहल 7
प्रसार@@ 7
202 7
नृजातीय 7
ज्याग्र@@ 7
α@@ 7
इरे@@ 7
जलवायु, 7
बिबरण 7
वायुमंडल, 7
प्रेजेंटेशन 7
y, 7
हान्@@ 7
गोर्@@ 7
ik@@ 7
सदरमुकाम 7
कामा 7
² 7
अधिराज्य 7
बिचारक 7
गौड़ 7
राणावत 7
मेट्रो@@ 7
2,6@@ 7
मिलियन) 7
शनि@@ 7
पं॰ 7
थोर्@@ 7
ययाति 7
झूँसी 7
वर्मन 7
दारागंज 7
T-@@ 7
ऑरे@@ 7
मनुष्यन 7
सरहा 7
घुसाव 7
पेसा@@ 7
खादर 7
ach@@ 7
वलें@@ 7
अनुसार@@ 7
18,@@ 7
फ़ॉ@@ 7
3.6 7
78.@@ 7
संदेस 7
प्रांत, 7
ताइवान 7
पीपल्स 7
ज़ार 7
मकालू 7
खुम्बु 7
टीथीस 7
ग" 7
जिनजियांग 7
3गो 7
एक्ट, 7
वास्को 7
कुल्हाड़ी 7
al) 7
नांदेड़ 7
कोहिमा 7
लेप्@@ 7
iss@@ 7
br@@ 7
ept@@ 7
int@@ 7
ock@@ 7
ff@@ 7
निकटतम 7
2,5@@ 7
pro@@ 7
chn@@ 7
for 7
mun@@ 7
बाजुरा 7
218@@ 7
बजार, 7
1,08,@@ 7
64@@ 7
"F@@ 7
अमरुत 7
फिफा 7
फरेला। 7
्यूटर 7
अर्जें@@ 7
उपलब्धी 7
illa 7
(शाब्दिक 7
उतपत्ती 7
ग्रह" 7
गैसन 7
भूगर्भ@@ 7
("E@@ 7
सूक्ष्म@@ 7
कैम्@@ 7
संभवतः 7
परतन 7
स्ट" 7
कार्बो@@ 7
27.@@ 7
बिद्वान, 7
मार्स 7
जेन 7
mon@@ 7
at 7
मार्ट@@ 7
पेटेंट 7
(0.@@ 7
शॉप 7
बस्तु 7
कयल 7
तिरुवनंतपुरम 7
ज़र@@ 7
सिंघासन 7
काल" 7
टर्म 7
387 7
॥ 7
1883 7
1897 7
272 7
बेहवारिक 7
ट") 7
बाने; 7
प्रदूषण, 7
भबिस्य 7
छपव@@ 7
न' 7
ह्यूम 7
क्टे@@ 7
"बिग 7
3), 7
सुनेत्रा 7
कोयाजी 7
अभयारण्य 7
ev@@ 7
बहेली 7
3-4 7
14,@@ 7
हैदराबाद, 7
कुशीनारा 7
देवता, 7
सेंटी@@ 7
जालिन। 7
पूरुब-पच्छिम 7
घसकाव 7
महादीप, 7
ताजि@@ 7
इंटरभ्यू 7
चंद्रमा, 7
यांग@@ 7
एक्टिव 7
कटक 7
तिन@@ 7
बिभाजक 7
जलमार्ग 7
(1.@@ 7
ब्यक्ति@@ 7
भारत" 7
ong@@ 7
जावा 7
(बैज्ञानिक 7
ग्लू@@ 7
पर्यावरणीय 7
प्रायद्वीप 7
रेखीय 7
ल") 7
ystem@@ 7
भाषा: 7
(अंग्रेज़ी:@@ 7
ताकार 7
inn@@ 7
224@@ 7
(In@@ 7
Pl@@ 7
नाबोकव 7
(10 7
डर" 7
रिचार्ड 7
इस्तांबुल 7
340@@ 7
डमरू 7
जलभंडार 7
eps 7
ele@@ 7
ii") 7
Franc@@ 7
St@@ 7
Indian 7
form@@ 7
कंठी 7
पियाराहूँ 7
इत्यादि@@ 7
मेटिक 7
फॉन 7
ग्रह, 7
ce 7
97% 7
क्रास 7
निकारागुआ 7
आइल्स 7
बालिविक 7
एस्@@ 7
पैरिस 7
डिस्ट्रिक्ट 7
एथेंस 7
श्चुअ@@ 7
IS@@ 7
थलजोड़ 7
कैरि@@ 7
ग्वे 7
उरु@@ 7
(23 7
भूमध्यरेखा 7
प्लेटो 7
(5 7
बइसाख 7
emb@@ 7
1100 7
ब्रिज@@ 7
8), 7
क्राइस्ट@@ 7
.42% 7
21.@@ 7
ऐक्ट्रे@@ 7
सारिणी 7
सर्लाही 7
घेराईल 7
आदेशलेख 7
बिकाश 7
म्बु 7
स्टल 7
टा" 7
टेम्स 7
दाकिनी 7
car@@ 7
गॉग 7
सल्वाडोर 7
(15 7
V 7
रिसो@@ 7
ल्यूशन 7
कालासन 7
ohn 7
N) 7
गुणसूत्र 7
duc@@ 7
Z@@ 7
(U@@ 7
डिंग, 7
देवप्रयाग 7
दिनाजपुर 7
80.@@ 7
फरक्का 7
पाकुड़ 7
मुर्शिदाबाद 7
कार्पोरेशन 7
बैंग 7
क्लारा 7
951 7
अलवर 7
बाराँ 7
368 7
समंद 7
माधोपुर 7
71.@@ 7
1982) 7
प्रोग्लेशियल 7
सराइन 7
per@@ 7
वयस्क 7
चांसलर 7
अंकोर 7
ख्मेर 7
शाहजहाँ 7
mar@@ 7
एल्कोहल 7
आस्तिक 7
ब" 7
रिजर्वायर 7
तिपिटक 7
अनंतपुर 7
कडपा 7
पट्टनम 7
श्रीकाकुलम 7
619@@ 7
104 7
237 7
999 7
oon@@ 7
बै॰:"G@@ 7
जंघा 7
जामनगर 7
159@@ 7
मोरबी 7
नवसारी 7
सुरेंद्रनगर 7
327 7
बोटा@@ 7
ata") 7
खोरा 7
भिवानी 7
जींद 7
पलवल 7
पंचकुला 7
$ 7
eng@@ 7
ऊना 7
बागलकोट 7
बीदर 7
102 7
चित्रदुर्ग 7
दावणगेरे 7
शिमोगा 7
तुमकुर 7
उडुपी 7
अलाप्पुझा 7
एर्नाकुलम 7
कोल्लम 7
त्रिशूर 7
बुरहानपुर 7
छिंदवाड़ा 7
दतिया 7
होशंगाबाद 7
मुरैना 7
नीमच 7
143 7
रतलाम 7
सतना 7
सीहोर 7
सिवनी 7
अकोला 7
928 7
गोंदिया 7
जालना 7
लातूर 7
नंदुरबार 7
उस्मानाबाद 7
परभणी 7
सांगली 7
सोलापुर 7
यवतमाल 7
ख़ि@@ 7
सुबास 7
स्कॉट 7
कि: 7
सलाद 7
सवेरा 7
स्विमिंग 7
ऑर्डर 7
भद्रक 7
संबलपुर 7
बरनाला 7
फिरोजपुर 7
दासपुर 7
होशियारपुर 7
कपूरथला 7
मोगा 7
मुक्तसर 7
इरोड 7
कांचीपुरम 7
मदुरै 7
नागपट्टिनम 7
सलेम 7
तिरुपुर 7
तिरुनेलवेली 7
तंजावुर 7
तिरुवन्नाम@@ 7
वेल्लोर 7
आदिलाबाद 7
करीमनगर 7
नलगोंडा 7
निजामाबाद 7
कार्गो 7
चकेवा 7
वायुसेवा 7
गाड़ीन 7
सिजिगी 7
पोखरी, 7
मकवानपुर 7
अर्घाखाँची 7
पिक्चर 7
एंथनी 7
रिची 7
15वाँ 7
1986) 7
ऑर्गे@@ 7
रॉबर्@@ 7
पीलू 7
(14 7
क्रिप्शन 7
89.6@@ 7
996 7
बैली 7
कुडी 7
एयरला@@ 7
रेजिडोर 7
लिब 7
आर) 7
ट्स@@ 7
WA@@ 7
गाड़िन 7
पद्मावती 7
style="background:#e9e9e9; 7
text-align:@@ 7
;"|@@ 7
आइफोन 7
समलैंगिक 7
नाज़िर 7
स्क्रीन@@ 7
फ़ान 7
ओबेराय 7
समोसा 7
टेस्टामेंट 7
मोसुल 7
सुपरक्लस्टर 7
इनफिनिटी 7
कामर्स 7
पोगो 7
प्लेबैक 7
न्यूट्रैलिटी 7
खार्@@ 7
फाक्@@ 7
नेत्रावती 7
गल्छी 7
जायस 7
नरहा 7
धनगढ़ीमाई 7
ment@@ 7
दिप्रुँग 7
खोटेहांग 7
दिशाबोध 6
ओ, 6
मंच, 6
प्रेमदेव, 6
रसराज, 6
चिन्तक 6
मंत्रण 6
आध्या@@ 6
प्रियं@@ 6
ठीक-ठाक 6
दिहें। 6
संयम 6
इटालियन 6
उखाड़ 6
धोखाधड़ी 6
रद 6
टेके 6
लागसु 6
रिवा@@ 6
वीत 6
मजाके 6
दिआवत 6
फँसत 6
तेलु@@ 6
बहिनन 6
भगावल 6
माटी-@@ 6
चिचिया 6
नचा@@ 6
उत्तरप्रदेश, 6
समाजसेवी, 6
रंगकर्@@ 6
छत्तीसगढ़, 6
मुम्बई, 6
बपति 6
फँसावल 6
अकब@@ 6
हँसा 6
दोहन 6
मर्म 6
निष्कर्ष 6
महसू@@ 6
नशेड़ी 6
मानहानि 6
कावा 6
कनखी 6
पकड़ले 6
मानही 6
भरमावे 6
लेंगे 6
दिही 6
पासपोर्ट 6
बेजा 6
सिकहर 6
वाण 6
गूंज 6
उकसावे 6
थ्री@@ 6
ंटी 6
किरकिरी 6
रोवहूं 6
कश्मी@@ 6
रिफ्यूजी 6
अधिकारो 6
पकिया 6
मजहब, 6
ढोलक 6
नट 6
ढेला@@ 6
मणिशंकर 6
इनकरो 6
खात-@@ 6
रहबो 6
कुमारस्वामी 6
कटले 6
हरिजन 6
फेम 6
राजपू@@ 6
ब्राह्मण, 6
पाइत। 6
संघी 6
हूर@@ 6
इन्कम 6
रामराज 6
विरोधाभास 6
स्वंय@@ 6
वादिता 6
बबुओ 6
उत्सुकता 6
बढ़ोत्तरी 6
लोग-बाग 6
रिया) 6
अगरा 6
लिट्टी-@@ 6
बूझीं 6
तुरत 6
हटे, 6
निर्माता-निर्देशक 6
धे-@@ 6
मूर्धन्य 6
पंक्@@ 6
“अब 6
बु 6
मुहिम 6
पाती@@ 6
शुक्ल, 6
कोलकाता@@ 6
अध्यक्षीय 6
केके 6
गजलन 6
भालचन्द्र 6
हादी 6
पक्षपात 6
खौ@@ 6
अइसन-अइसन 6
देखेला 6
सशरीर 6
तज 6
विश्वमित्र 6
तिकड़म 6
मिए 6
देवतन 6
बिलगा 6
दामा@@ 6
नले 6
जज@@ 6
खेवा 6
तर्रार 6
भती@@ 6
कॉले@@ 6
नुकुर 6
लागता। 6
विद्व@@ 6
अनुभव, 6
गंगाजी 6
प्राणा@@ 6
मेगास्टार 6
षे@@ 6
पांडे, 6
रोहत@@ 6
श्याम@@ 6
बनेली 6
सितार@@ 6
करवलें। 6
करेनी। 6
धारा, 6
ष्ठा@@ 6
हुलसल 6
ए0 6
खेती-बारी 6
आत्मविश्वास 6
वाता@@ 6
फजीर 6
पारस्परिकता 6
बकस@@ 6
बने, 6
लास, 6
क्ति@@ 6
बुझले 6
ओइस@@ 6
भरोस 6
मर्डर 6
वायरल 6
मिलिहें। 6
समुझावत 6
श्रीमान 6
बहकि 6
उपवास 6
करियो 6
बड़को 6
बाति। 6
एसटी 6
जरला 6
तहें 6
भठियारा 6
चुकावे 6
राष्ट्रवादियन 6
बाची 6
्यम 6
गोल, 6
हत्यारन 6
गेस्ट 6
रिटर्न 6
छटक 6
दादा@@ 6
सेक्ट@@ 6
द्वार@@ 6
मल्लिका 6
गठबन्@@ 6
नीरव 6
पतिओ 6
मते 6
सहिए 6
रंगाइल 6
लपे@@ 6
हारन 6
फोटू 6
हड़बड़ी 6
फट 6
ऋतुराज 6
कुंदन 6
केसरी 6
दाह@@ 6
प्रमेन्द्र 6
छपरा, 6
धनंजय 6
राखल। 6
गाके 6
तथ्यन 6
सल। 6
सुरी 6
गुना@@ 6
ग़ज़@@ 6
स्वास्थ 6
पी० 6
अध्यक्ष, 6
भोटी 6
तड़पत 6
घोटालाबाजन 6
चिल्लइ@@ 6
रिश्तेदारी 6
कूदत 6
पाइल। 6
कुकुर@@ 6
संविधा@@ 6
इंशा 6
उग्र 6
वरि@@ 6
प्रवीण 6
विशा@@ 6
आह्@@ 6
दीहलें। 6
सक्सेना 6
दगी 6
बीचो 6
देशभक्त 6
फोड़े 6
पिसात 6
तीसो 6
टीएम@@ 6
ईवीएम 6
काँच 6
भटकल 6
अपराधन 6
बोलब 6
गड़ा@@ 6
टास्क 6
मुकदमन 6
चाहत, 6
बकरीद 6
अदालती 6
भेंटाला 6
पवलन। 6
धरती, 6
अनाया@@ 6
लाठी@@ 6
ट् 6
रेखांकित 6
जाएके 6
सुनाइ@@ 6
महटिया 6
सजी 6
सोहावन 6
मेहराइल 6
पैजामा 6
रामे@@ 6
कइए 6
रहबि। 6
पत्र-पत्रिकन 6
ताक@@ 6
कस्तूर@@ 6
चरखा 6
ग्रही 6
मनचाहा 6
फरियाद 6
प्रमान 6
वसूले 6
जुल्@@ 6
धध@@ 6
साबरमती 6
लगनी, 6
मुँहें 6
मुअला 6
उर्दू, 6
ब्रजी, 6
हिन्दिये 6
कबीर, 6
गावे-@@ 6
मीडिया@@ 6
प्रिन्@@ 6
अखरत 6
बले@@ 6
जुटा@@ 6
असंगति 6
धि, 6
जुटत 6
गिरी, 6
मनमाफिक 6
सिरिजना 6
उहँवें 6
व्यक्तित्@@ 6
क़ 6
सोचीलें 6
ो-@@ 6
चाहीलें 6
लिल@@ 6
टुकड़@@ 6
लि, 6
लेब@@ 6
झुलु@@ 6
झुल@@ 6
जोलहा 6
सथ@@ 6
खियो 6
गुद@@ 6
उठल, 6
राला 6
मेहदी 6
गँव@@ 6
दिहलो 6
धोबि@@ 6
धोबिया 6
कवनो-@@ 6
ावल 6
लिहल, 6
लरिकाई 6
कन्ह@@ 6
लेईं 6
गुड़ 6
घाँ@@ 6
अल्ला 6
अधबूढ़ 6
पारसी 6
बाभन 6
अंबेदकर 6
पोसाइल 6
फूला 6
बाड़न@@ 6
मातृ 6
जबो 6
मनुज 6
दियो 6
ताह 6
बकार 6
फेरे 6
चकरा@@ 6
दबे 6
गोलबन्दी 6
कांग्रेस, 6
तूड़ल 6
हिसा@@ 6
करवावल 6
संख@@ 6
संसाधनन 6
ारल 6
राणा@@ 6
लुटे@@ 6
संस्कारो 6
फैसलन 6
वाकया 6
गिर्द 6
लपेटल 6
वेलें। 6
रख। 6
बहरे 6
गाभि@@ 6
देवी-देवता 6
ऩ@@ 6
बाँझिन 6
चरचो 6
ठाँव 6
बीनत 6
विसंग@@ 6
वस्त 6
प्रार@@ 6
सियासत 6
चाची 6
निर्दोष 6
पधार@@ 6
तूड़त 6
दोसर, 6
वार-@@ 6
गिये 6
सांस्कृतिक, 6
समै 6
सदी) 6
बाण 6
रूप। 6
साँचहूँ 6
हितै@@ 6
छिल 6
-पी@@ 6
नकारल 6
बढ़ो। 6
संप्रेषण 6
त्रिक 6
बरदार 6
औपनिवेशिक 6
अवाज 6
संख्या@@ 6
फ्रें@@ 6
आर्टिफिशियल 6
सकेली 6
विदेशन 6
वास@@ 6
गई, 6
धन। 6
अग्निहोत्री 6
इंस्टीच्यूट 6
प्रोडक्श@@ 6
बदउ@@ 6
ियाँ@@ 6
देसे 6
गमक 6
लबालब 6
रघुबीर 6
शिकायत’ 6
दील 6
दिशा@@ 6
नाप-@@ 6
नकारा@@ 6
पड़ताल 6
जनमे 6
सौतेला 6
अक्स@@ 6
गवना 6
रचा 6
पर्याय 6
गाय-@@ 6
बिदेसिया@@ 6
झकझो@@ 6
अशिक्षा 6
दुष्कर्म 6
सामूहिकता 6
जीवन, 6
नेह-छोह 6
गें 6
मानवी@@ 6
बलशाली 6
उबाल 6
ओहदा 6
लीहले 6
अरजी 6
विरोधो 6
आश्रय 6
सरेआम 6
सि। 6
बसावे 6
लाँघत 6
सभकुछ 6
होई! 6
ओ-@@ 6
पित@@ 6
मनभावन 6
हिन्दिए 6
अलम 6
रहट 6
इं 6
खलिसा 6
सु-@@ 6
हवा-@@ 6
भइनी। 6
ार-@@ 6
लिखला-@@ 6
याने 6
गाजीपुर, 6
ब्यो@@ 6
बुन्@@ 6
दुराव 6
माई-भाषा 6
देखावेला 6
रेव@@ 6
लेके, 6
पेटे 6
काँट 6
चुतियापा 6
रेघरियावे 6
मारन 6
पकड़ल 6
धनु 6
मनावेला 6
बहिना 6
सकेता 6
हिचकिचाहट 6
तइसन 6
थ्रि@@ 6
रहां 6
हारो 6
लेफ्ट 6
नहस 6
श्री। 6
प्रतियोगि@@ 6
परगट 6
‘जो 6
इमानदार 6
सटकल 6
मेवा 6
मरीचा 6
अंतरा@@ 6
भित 6
ऊर्@@ 6
कविश्री 6
साक्षा@@ 6
भेद-@@ 6
वस्तु@@ 6
मनोकामना 6
हि, 6
इजरायल 6
झुठ@@ 6
भेंटाए 6
फाड़ 6
नवी@@ 6
उमिरो 6
तराष्ट्र 6
योधन 6
[...]
